{"<unk>":0,"!":1,"\"":2,"#":3,"$":4,"&":5,"'":6,"(":7,")":8,"*":9,",":10,"-":11,".":12,"/":13,"0":14,"1":15,"2":16,"3":17,"4":18,"5":19,"6":20,"7":21,"8":22,"9":23,":":24,";":25,"=":26,"?":27,"A":28,"B":29,"C":30,"D":31,"E":32,"F":33,"G":34,"H":35,"I":36,"J":37,"K":38,"L":39,"M":40,"N":41,"O":42,"P":43,"Q":44,"R":45,"S":46,"T":47,"U":48,"V":49,"W":50,"X":51,"Y":52,"Z":53,"\\":54,"_":55,"a":56,"b":57,"c":58,"d":59,"e":60,"f":61,"g":62,"h":63,"i":64,"j":65,"k":66,"l":67,"m":68,"n":69,"o":70,"p":71,"q":72,"r":73,"s":74,"t":75,"u":76,"v":77,"w":78,"x":79,"y":80,"z":81,"{":82,"}":83,"i</w>":84,"t</w>":85,"9</w>":86,"y</w>":87,"s</w>":88,"1</w>":89,"A</w>":90,"g</w>":91,"2</w>":92,"c</w>":93,"8</w>":94,"a</w>":95,"n</w>":96,"6</w>":97,"5</w>":98,"o</w>":99,"4</w>":100,"m</w>":101,"e</w>":102,"7</w>":103,"0</w>":104,"3</w>":105,"d</w>":106,"h</w>":107,"I</w>":108,"E</w>":109,"l</w>":110,"U</w>":111,"v</w>":112,"T</w>":113,"b</w>":114,"P</w>":115,"H</w>":116,"r</w>":117,"M</w>":118,"u</w>":119,"N</w>":120,"k</w>":121,"S</w>":122,"R</w>":123,"Y</w>":124,"V</w>":125,"D</w>":126,"F</w>":127,"G</w>":128,"p</w>":129,"L</w>":130,"C</w>":131,"f</w>":132,"w</w>":133,"x</w>":134,"z</w>":135,"K</w>":136,"O</w>":137,"Q</w>":138,"B</w>":139,"X</w>":140,"Z</w>":141,"J</w>":142,"q</w>":143,"W</w>":144,"j</w>":145,"=</w>":146,";</w>":147,"*</w>":148,"{</w>":149,"(</w>":150,",</w>":151,"\"</w>":152,"!</w>":153,".</w>":154,"\\</w>":155,"&</w>":156,"_</w>":157,")</w>":158,"-</w>":159,"$</w>":160,"?</w>":161,"}</w>":162,"/</w>":163,"'</w>":164,"#</w>":165,":</w>":166,"in":167,"te":168,"th":169,"ea":170,"an":171,"la":172,"the</w>":173,"re":174,"id":175,"be":176,"on</w>":177,"id</w>":178,"er":179,"or":180,"lin":181,"on":182,"ead":183,"en":184,"ti":185,"ar":186,"line</w>":187,"to</w>":188,"ing</w>":189,"xt</w>":190,"head":191,"bel</w>":192,"text</w>":193,"label</w>":194,"headline</w>":195,"ed</w>":196,"ou":197,"in</w>":198,"es</w>":199,"it":200,"ro":201,"er</w>":202,"of</w>":203,"st":204,"al":205,"ic":206,"il":207,"and</w>":208,"ay</w>":209,"an</w>":210,"es":211,"ra":212,"or</w>":213,"om":214,"is":215,"as</w>":216,"ur":217,"al</w>":218,"st</w>":219,"ec":220,"at</w>":221,"ter":222,"el":223,"ac":224,"day</w>":225,"ol":226,"is</w>":227,"ig":228,"for</w>":229,"at":230,"39</w>":231,"ts</w>":232,"am":233,"ch":234,"Th":235,"un":236,"ri":237,"us":238,"ent</w>":239,"lo":240,"ter</w>":241,"ag":242,"en</w>":243,"tion</w>":244,"ve</w>":245,"ir":246,"le</w>":247,"li":248,"ers</w>":249,"ted</w>":250,"ne":251,"as":252,"id1":253,"it</w>":254,"op":255,"ce</w>":256,"of":257,"ly</w>":258,"si":259,"ov":260,"sa":261,"ha":262,"com":263,"pro":264,"qu":265,"In":266,"ith</w>":267,"res":268,"that</w>":269,"em":270,"ed":271,"oun":272,"The</w>":273,"ow":274,"its</w>":275,"Re":276,"with</w>":277,"ta":278,"ters</w>":279,"sh":280,"ear":281,"igh":282,"con":283,"wh":284,"th</w>":285,"ad":286,"tion":287,"su":288,"ap":289,"et</w>":290,"ex":291,"ot</w>":292,"ch</w>":293,"oo":294,"di":295,"ma":296,"tw":297,"le":298,"ld</w>":299,"by</w>":300,"ks</w>":301,"por":302,"for":303,"de":304,"said</w>":305,"the":306,"ru":307,"rea":308,"are</w>":309,"has</w>":310,"uters</w>":311,"ill</w>":312,"rom</w>":313,"ab":314,"sp":315,"Ch":316,"Reuters</w>":317,"to":318,"se</w>":319,"comp":320,"bu":321,"from</w>":322,"ds</w>":323,"ee":324,"AP</w>":325,"out</w>":326,"ity</w>":327,"ir</w>":328,"af":329,"ting</w>":330,"po":331,"ear</w>":332,"00":333,"red</w>":334,"co":335,"il</w>":336,"his</w>":337,"Ne":338,"ight</w>":339,"esday</w>":340,"oc":341,"ric":342,"ing":343,"all</w>":344,"ate</w>":345,"im":346,"ke</w>":347,"du":348,"se":349,"will</w>":350,"fir":351,"was</w>":352,"ation":353,"ding</w>":354,"one</w>":355,"wor":356,"be</w>":357,"US</w>":358,"ment</w>":359,"pla":360,"led</w>":361,"ore</w>":362,"ic</w>":363,"up</w>":364,"ys</w>":365,"lea":366,"rec":367,"mo":368,"our":369,"after</w>":370,"per":371,"ation</w>":372,"ge</w>":373,"ia</w>":374,"illi":375,"over</w>":376,"tra":377,"off":378,"ere</w>":379,"ver":380,"any</w>":381,"ies</w>":382,"est</w>":383,"ess</w>":384,"id9":385,"ul":386,"id7":387,"id2":388,"id3":389,"id8":390,"ry</w>":391,"id5":392,"id11":393,"id4":394,"id6":395,"sec":396,"tes</w>":397,"vic":398,"have</w>":399,"ould</w>":400,"te</w>":401,"rou":402,"ni":403,"me</w>":404,"new</w>":405,"ling</w>":406,"pl":407,"ke":408,"gu":409,"tor":410,"pa":411,"their</w>":412,"ten":413,"id10":414,"sof":415,"tur":416,"son</w>":417,"Fr":418,"ther</w>":419,"fin":420,"um":421,"ard</w>":422,"quot</w>":423,"ain":424,"over":425,"ame</w>":426,"and":427,"illion</w>":428,"pp":429,"ans</w>":430,"lt</w>":431,"ist":432,"king</w>":433,"fi":434,"ian</w>":435,"ren":436,"Ira":437,"Mon":438,"ack</w>":439,"year</w>":440,"ve":441,"ph":442,"mar":443,"lu":444,"first</w>":445,"Mic":446,"ls</w>":447,"ann":448,"pu":449,"two</w>":450,"St":451,"ree</w>":452,"par":453,"res</w>":454,"ci":455,"als</w>":456,"ar</w>":457,"age</w>":458,"wee":459,"sur":460,"ile</w>":461,"ev":462,"ser":463,"resid":464,"more</w>":465,"ste":466,"he</w>":467,"200":468,"dow":469,"but</w>":470,"gi":471,"exp":472,"ow</w>":473,"der</w>":474,"mon":475,"ell</w>":476,"ris":477,"ance</w>":478,"ant</w>":479,"Uni":480,"mer":481,"old</w>":482,"our</w>":483,"Mar":484,"str":485,"iday</w>":486,"sts</w>":487,"bo":488,"ie":489,"dis":490,"Monday</w>":491,"ong</w>":492,"ber</w>":493,"ome</w>":494,"Tu":495,"Wed":496,"Wedn":497,"Wednesday</w>":498,"min":499,"An":500,"ester":501,"acc":502,"urs":503,"ning</w>":504,"da":505,"Tuesday</w>":506,"ide</w>":507,"ite</w>":508,"gt</w>":509,"mis":510,"ons</w>":511,"Thurs":512,"Thursday</w>":513,"ced</w>":514,"this</w>":515,"ud":516,"tions</w>":517,"repor":518,"New</w>":519,"ound</w>":520,"cu":521,"ary</w>":522,"ears</w>":523,"av":524,"company</w>":525,"ainst</w>":526,"row":527,"last</w>":528,"gh":529,"sed</w>":530,"el</w>":531,"Au":532,"Inc</w>":533,"fu":534,"ion</w>":535,"Friday</w>":536,"hel":537,"ents</w>":538,"pea":539,"sion</w>":540,"offic":541,"ings</w>":542,"man</w>":543,"ca":544,"than</w>":545,"ff":546,"ms</w>":547,"iti":548,"inc":549,"eop":550,"against</w>":551,"Micro":552,"ty</w>":553,"ho":554,"ational</w>":555,"og":556,"ded</w>":557,"ations</w>":558,"ps</w>":559,"into</w>":560,"hea":561,"Iraq</w>":562,"Inter":563,"Com":564,"tr":565,"OR":566,"esterday</w>":567,"Sh":568,"soft</w>":569,"ked</w>":570,"dea":571,"not</w>":572,"tive</w>":573,"de</w>":574,"mer</w>":575,"yesterday</w>":576,"ker</w>":577,"Af":578,"tro":579,"Cor":580,"low":581,"00</w>":582,"resident</w>":583,"mp":584,"pric":585,"pol":586,"rac":587,"Microsoft</w>":588,"end</w>":589,"about</w>":590,"ves</w>":591,"Pro":592,"am</w>":593,"ying</w>":594,"overn":595,"De":596,"att":597,"who</w>":598,"Con":599,"land</w>":600,"were</w>":601,"ace</w>":602,"enti":603,"sea":604,"ket</w>":605,"tu":606,"back</w>":607,"En":608,"duc":609,"ble</w>":610,"ally</w>":611,"ine</w>":612,"ns</w>":613,"they</w>":614,"lar":615,"quar":616,"amp":617,"Sun":618,"ned</w>":619,"ass":620,"Wor":621,"au":622,"shi":623,"been</w>":624,"other</w>":625,"earch</w>":626,"time</w>":627,"million</w>":628,"had</w>":629,"NE":630,"lead":631,"gh</w>":632,"Amer":633,"Sp":634,"Mo":635,"elec":636,"coun":637,"Is":638,"Americ":639,"week</w>":640,"uro":641,"ors</w>":642,"ins</w>":643,"three</w>":644,"ft</w>":645,"ces</w>":646,"kil":647,"gra":648,"10</w>":649,"ork</w>":650,"off</w>":651,"ond</w>":652,"ich</w>":653,"ak":654,"sh</w>":655,"ess":656,"ice</w>":657,"Corp</w>":658,"Su":659,"ence</w>":660,"Chin":661,"sc":662,"way</w>":663,"ver</w>":664,"roup</w>":665,"net</w>":666,"dec":667,"ali":668,"Ar":669,"offici":670,"pre":671,"wa":672,"Jo":673,"cent</w>":674,"lar</w>":675,"govern":676,"Sta":677,"Sunday</w>":678,"oil</w>":679,"Euro":680,"war":681,"urity</w>":682,"United</w>":683,"ement</w>":684,"tri":685,"man":686,"ck</w>":687,"vis":688,"tal":689,"Ex":690,"world</w>":691,"arg":692,"Se":693,"im</w>":694,"des":695,"loo":696,"atur":697,"ss</w>":698,"Bus":699,"AF":700,"jo":701,"cl":702,"gest</w>":703,"ain</w>":704,"Bo":705,"announ":706,"ws</w>":707,"eral</w>":708,"ton</w>":709,"ird</w>":710,"ven":711,"eople</w>":712,"bas":713,"ang":714,"ected</w>":715,"wi":716,"Al":717,"Indi":718,"would</w>":719,"fe":720,"sti":721,"ord</w>":722,"ON</w>":723,"AS":724,"AFP</w>":725,"years</w>":726,"game</w>":727,"Ma":728,"test</w>":729,"riv":730,"national</w>":731,"olog":732,"Satur":733,"season</w>":734,"which</w>":735,"could</w>":736,"today</w>":737,"government</w>":738,"tware</w>":739,"ign</w>":740,"people</w>":741,"prov":742,"def":743,"use</w>":744,"les</w>":745,"mil":746,"tle</w>":747,"ants</w>":748,"top</w>":749,"down</w>":750,"go":751,"riti":752,"est":753,"IN":754,"igh</w>":755,"President</w>":756,"ber":757,"sing</w>":758,"ast</w>":759,"prices</w>":760,"second</w>":761,"star":762,"Min":763,"vel":764,"tor</w>":765,"night</w>":766,"19":767,"less</w>":768,"play":769,"when</w>":770,"vi":771,"ball</w>":772,"Saturday</w>":773,"ran":774,"NEW</w>":775,"ales</w>":776,"says</w>":777,"next</w>":778,"bus":779,"port</w>":780,"ous</w>":781,"most</w>":782,"tin":783,"gen":784,"tory</w>":785,"ussi":786,"ju":787,"China</w>":788,"World</w>":789,"yste":790,"AN":791,"cap":792,"fo":793,"med":794,"Jap":795,"vice</w>":796,"ister</w>":797,"clo":798,"low</w>":799,"pres":800,"cla":801,"ll</w>":802,"poin":803,"third</w>":804,"tic</w>":805,"percent</w>":806,"kers</w>":807,"YOR":808,"ban":809,"Bu":810,"YORK</w>":811,"ger</w>":812,"cy</w>":813,"ese</w>":814,"win</w>":815,"team</w>":816,"ture</w>":817,"ens</w>":818,"inter":819,"stri":820,"do":821,"Ro":822,"To":823,"nolog":824,"vo":825,"try</w>":826,"ly":827,"ON":828,"Russi":829,"software</w>":830,"Austr":831,"leg":832,"ade</w>":833,"sen":834,"Res":835,"Bush</w>":836,"set</w>":837,"hol":838,"ct</w>":839,"ood</w>":840,"um</w>":841,"Internet</w>":842,"Isra":843,"Ser":844,"ad</w>":845,"2004</w>":846,"50</w>":847,"early</w>":848,"ship</w>":849,"ets</w>":850,"head</w>":851,"own</w>":852,"ital</w>":853,"prof":854,"air":855,"Austral":856,"market</w>":857,"agre":858,"iness</w>":859,"may</w>":860,"out":861,"ash":862,"Nor":863,"quarter</w>":864,"iz":865,"onom":866,"az":867,"bs</w>":868,"Can":869,"bea":870,"produc":871,"ses</w>":872,"ta</w>":873,"announced</w>":874,"ish</w>":875,"can</w>":876,"ist</w>":877,"Pal":878,"relea":879,"Wh":880,"fac":881,"Sec":882,"AT":883,"security</w>":884,"Br":885,"Qu":886,"ames</w>":887,"000</w>":888,"billion</w>":889,"ory</w>":890,"20</w>":891,"No</w>":892,"milit":893,"gue</w>":894,"used</w>":895,"us</w>":896,"ving</w>":897,"able</w>":898,"tel</w>":899,"pub":900,"sha":901,"ern</w>":902,"win":903,"ey</w>":904,"dem":905,"On":906,"Op":907,"tech":908,"ourt</w>":909,"four</w>":910,"Co":911,"tors</w>":912,"cal</w>":913,"ched</w>":914,"stoc":915,"ner</w>":916,"ports</w>":917,"cal":918,"com</w>":919,"In</w>":920,"11</w>":921,"oper":922,"Sou":923,"ut":924,"some</w>":925,"Col":926,"econom":927,"Europea":928,"15":929,"ou</w>":930,"so</w>":931,"record</w>":932,"tly</w>":933,"high</w>":934,"ecu":935,"pos":936,"Par":937,"mu":938,"killed</w>":939,"vest":940,"Lea":941,"group</w>":942,"12</w>":943,"anc":944,"victory</w>":945,"gle</w>":946,"br":947,"sel":948,"ered</w>":949,"ief</w>":950,"For":951,"ince</w>":952,"So":953,"et":954,"European</w>":955,"ach":956,"nology</w>":957,"10":958,"Li":959,"deal</w>":960,"ect</w>":961,"up":962,"Pri":963,"We":964,"30</w>":965,"Iraq":966,"ach</w>":967,"ampi":968,"bi":969,"officials</w>":970,"app":971,"No":972,"stra":973,"American</w>":974,"cas":975,"fore</w>":976,"Car":977,"iled</w>":978,"ated</w>":979,"month</w>":980,"pt</w>":981,"Goo":982,"Po":983,"all":984,"14":985,"pe</w>":986,"laun":987,"syste":988,"ish":989,"Canad":990,"ress</w>":991,"Oly":992,"fl":993,"Oil</w>":994,"Joh":995,"ged</w>":996,"36</w>":997,"Cup</w>":998,"Olymp":999,"now</w>":1000,"grow":1001,"high":1002,"pen":1003,"stru":1004,"vices</w>":1005,"ands</w>":1006,"fa":1007,"Sto":1008,"sol":1009,"ops</w>":1010,"15</w>":1011,"RE":1012,"boo":1013,"ef":1014,"amp</w>":1015,"comm":1016,"maker</w>":1017,"Ph":1018,"uring</w>":1019,"come</w>":1020,"re</w>":1021,"car":1022,"with":1023,"tel":1024,"plo":1025,"ics</w>":1026,"bro":1027,"sch":1028,"der":1029,"os</w>":1030,"Palest":1031,"It</w>":1032,"Briti":1033,"clear</w>":1034,"British</w>":1035,"plans</w>":1036,"ording</w>":1037,"inv":1038,"ston</w>":1039,"ool</w>":1040,"kes</w>":1041,"manag":1042,"20":1043,"ating</w>":1044,"sales</w>":1045,"Palestin":1046,"lead</w>":1047,"cen":1048,"dra":1049,"get</w>":1050,"ven</w>":1051,"India</w>":1052,"16":1053,"Sa":1054,"cc":1055,"bom":1056,"country</w>":1057,"business</w>":1058,"ago</w>":1059,"Eng":1060,"istan</w>":1061,"Japan</w>":1062,"een</w>":1063,"IB":1064,"home</w>":1065,"Minister</w>":1066,"sig":1067,"expected</w>":1068,"25</w>":1069,"atch</w>":1070,"ederal</w>":1071,"twork</w>":1072,"Google</w>":1073,"no</w>":1074,"before</w>":1075,"States</w>":1076,"key</w>":1077,"many</w>":1078,"ities</w>":1079,"17</w>":1080,"go</w>":1081,"pris":1082,"ates</w>":1083,"jor</w>":1084,"Sof":1085,"per</w>":1086,"ack":1087,"14</w>":1088,"rest</w>":1089,"Iraqi</w>":1090,"sid":1091,"13</w>":1092,"med</w>":1093,"nings</w>":1094,"18":1095,"ths</w>":1096,"Gre":1097,"York</w>":1098,"largest</w>":1099,"bur":1100,"usic</w>":1101,"76":1102,"IBM</w>":1103,"26":1104,"ght</w>":1105,"just</w>":1106,"18</w>":1107,"24":1108,"Ste":1109,"Air":1110,"dic":1111,"final</w>":1112,"technology</w>":1113,"cks</w>":1114,"ei":1115,"bile</w>":1116,"reported</w>":1117,"former</w>":1118,"rough</w>":1119,"38":1120,"Win":1121,"Lin":1122,"round</w>":1123,"fe</w>":1124,"pow":1125,"ue</w>":1126,"five</w>":1127,"16</w>":1128,"La":1129,"eld</w>":1130,"Fl":1131,"made</w>":1132,"34":1133,"ones</w>":1134,"compu":1135,"Prof":1136,"hal":1137,"29":1138,"TON</w>":1139,"Ko":1140,"As":1141,"28":1142,"inclu":1143,"25":1144,"gg":1145,"36":1146,"eng":1147,"tball</w>":1148,"anies</w>":1149,"take</w>":1150,"ough</w>":1151,"no":1152,"ran</w>":1153,"you</w>":1154,"least</w>":1155,"74":1156,"indu":1157,"cial</w>":1158,"col":1159,"mov":1160,"ane</w>":1161,"39":1162,"thern</w>":1163,"won</w>":1164,"phone</w>":1165,"devel":1166,"ering</w>":1167,"acks</w>":1168,"Ger":1169,"dol":1170,"79":1171,"invest":1172,"78":1173,"ember</w>":1174,"App":1175,"beg":1176,"35":1177,"sw":1178,"ders</w>":1179,"tween</w>":1180,"ches</w>":1181,"stry</w>":1182,"contin":1183,"under</w>":1184,"state</w>":1185,"mi":1186,"ous":1187,"during</w>":1188,"ata</w>":1189,"24</w>":1190,"dy</w>":1191,"Red</w>":1192,"co</w>":1193,"ony</w>":1194,"Bla":1195,"chi":1196,"esti":1197,"between</w>":1198,"hop":1199,"ide":1200,"tt":1201,"report</w>":1202,"make</w>":1203,"75":1204,"sus":1205,"execu":1206,"show":1207,"Ara":1208,"run":1209,"talks</w>":1210,"ank</w>":1211,"Le":1212,"rea</w>":1213,"19</w>":1214,"long</w>":1215,"sive</w>":1216,"21</w>":1217,"Web</w>":1218,"30":1219,"conc":1220,"if</w>":1221,"ely</w>":1222,"nu":1223,"70":1224,"my</w>":1225,"hit</w>":1226,"read":1227,"increa":1228,"her</w>":1229,"companies</w>":1230,"service</w>":1231,"ise</w>":1232,"ams</w>":1233,"chan":1234,"fla":1235,"rin":1236,"according</w>":1237,"what</w>":1238,"Co</w>":1239,"ING":1240,"South</w>":1241,"chief</w>":1242,"ping</w>":1243,"side</w>":1244,"them</w>":1245,"through</w>":1246,"help</w>":1247,"El":1248,"another</w>":1249,"election</w>":1250,"wea":1251,"Pla":1252,"say</w>":1253,"spec":1254,"del":1255,"so":1256,"me":1257,"ai":1258,"leader</w>":1259,"law":1260,"reless</w>":1261,"tic":1262,"ook</w>":1263,"pri":1264,"eal</w>":1265,"Fi":1266,"US":1267,"ful</w>":1268,"League</w>":1269,"ical</w>":1270,"retur":1271,"major</w>":1272,"ial</w>":1273,"based</w>":1274,"giant</w>":1275,"sta":1276,"49":1277,"soc":1278,"run</w>":1279,"Israel":1280,"posi":1281,"sour":1282,"With</w>":1283,"sup":1284,"AR":1285,"Pak":1286,"bid</w>":1287,"ale</w>":1288,"ages</w>":1289,"cause</w>":1290,"pped</w>":1291,"Australia</w>":1292,"lob":1293,"Man":1294,"do</w>":1295,"ze</w>":1296,"ouse</w>":1297,"computer</w>":1298,"threa":1299,"vie":1300,"ant":1301,"UN</w>":1302,"sm":1303,"him</w>":1304,"coach</w>":1305,"mission</w>":1306,"Ad":1307,"fol":1308,"ire</w>":1309,"Afgh":1310,"we":1311,"erry</w>":1312,"while</w>":1313,"cam":1314,"Tw":1315,"AL":1316,"held</w>":1317,"ret":1318,"news</w>":1319,"Hol":1320,"sub":1321,"sk":1322,"still</w>":1323,"Sha":1324,"since</w>":1325,"left</w>":1326,"ER":1327,"sco":1328,"International</w>":1329,"bar":1330,"ications</w>":1331,"part":1332,"22</w>":1333,"dro":1334,"kee":1335,"ved</w>":1336,"28</w>":1337,"cra":1338,"23</w>":1339,"vision</w>":1340,"AN</w>":1341,"After</w>":1342,"ush":1343,"John</w>":1344,"days</w>":1345,"Group</w>":1346,"ga":1347,"charg":1348,"Palestinian</w>":1349,"being</w>":1350,"Gen":1351,"Prime</w>":1352,"play</w>":1353,"27</w>":1354,"Sox</w>":1355,"ties</w>":1356,"police</w>":1357,"69":1358,"ense</w>":1359,"plan</w>":1360,"industry</w>":1361,"58":1362,"brea":1363,"cor":1364,"ech":1365,"59":1366,"hom":1367,"racle</w>":1368,"start</w>":1369,"buil":1370,"face</w>":1371,"big":1372,"ped</w>":1373,"Open</w>":1374,"Cu":1375,"war</w>":1376,"sto":1377,"Mi":1378,"dre":1379,"kn":1380,"sl":1381,"search</w>":1382,"Di":1383,"48":1384,"ja":1385,"35</w>":1386,"Fin":1387,"form":1388,"ily</w>":1389,"lic</w>":1390,"court</w>":1391,"ards</w>":1392,"Apple</w>":1393,"ashing":1394,"ction</w>":1395,"68":1396,"Dav":1397,"dows</w>":1398,"profit</w>":1399,"Cali":1400,"develop":1401,"ights</w>":1402,"inte":1403,"vers":1404,"lowing</w>":1405,"Champi":1406,"agreed</w>":1407,"music</w>":1408,"ick</w>":1409,"tou":1410,"military</w>":1411,"cur":1412,"reta":1413,"move</w>":1414,"EN":1415,"Un":1416,"Off":1417,"Israeli</w>":1418,"17":1419,"progra":1420,"consu":1421,"fun":1422,"men</w>":1423,"Oracle</w>":1424,"only</w>":1425,"INGTON</w>":1426,"months</w>":1427,"50":1428,"cut</w>":1429,"Afric":1430,"26</w>":1431,"ending</w>":1432,"ay":1433,"proc":1434,"29</w>":1435,"ined</w>":1436,"ential</w>":1437,"One</w>":1438,"Olympic</w>":1439,"contro":1440,"NAS":1441,"dru":1442,"ili":1443,"open</w>":1444,"cienti":1445,"lobal</w>":1446,"ill":1447,"Tra":1448,"40":1449,"Mc":1450,"ley</w>":1451,"ie</w>":1452,"even</w>":1453,"like</w>":1454,"sou":1455,"Gu":1456,"Up":1457,"contra":1458,"system</w>":1459,"Cen":1460,"don</w>":1461,"Russia</w>":1462,"Gi":1463,"thing</w>":1464,"acqu":1465,"growth</w>":1466,"open":1467,"Bar":1468,"nuclear</w>":1469,"change</w>":1470,"sure</w>":1471,"60":1472,"Intel</w>":1473,"State</w>":1474,"ments</w>":1475,"space</w>":1476,"27":1477,"Vi":1478,"right</w>":1479,"AM":1480,"six</w>":1481,"England</w>":1482,"Bra":1483,"mor":1484,"ck":1485,"gy</w>":1486,"ects</w>":1487,"official</w>":1488,"Gaz":1489,"ASH":1490,"Nov":1491,"nor":1492,"io</w>":1493,"president</w>":1494,"IS":1495,"mobile</w>":1496,"put</w>":1497,"Windows</w>":1498,"cri":1499,"num":1500,"lines</w>":1501,"ility</w>":1502,"claim":1503,"org":1504,"Pol":1505,"points</w>":1506,"North</w>":1507,"HRE":1508,"because</w>":1509,"37":1510,"EL":1511,"Wi":1512,"strong</w>":1513,"WASH":1514,"ists</w>":1515,"Russian</w>":1516,"online</w>":1517,"batt":1518,"Ab":1519,"31</w>":1520,"Dis":1521,"WASHINGTON</w>":1522,"Bag":1523,"pite</w>":1524,"rent</w>":1525,"look</w>":1526,"Soft</w>":1527,"HREF</w>":1528,"crea":1529,"mem":1530,"nation</w>":1531,"Iran</w>":1532,"gs</w>":1533,"ten</w>":1534,"lan":1535,"biggest</w>":1536,"including</w>":1537,"bers</w>":1538,"vir":1539,"eti":1540,"Peop":1541,"Up</w>":1542,"urric":1543,"anese</w>":1544,"ils</w>":1545,"stom":1546,"Bank</w>":1547,"rup":1548,"wom":1549,"half</w>":1550,"stage</w>":1551,"ney</w>":1552,"where</w>":1553,"public</w>":1554,"Sch":1555,"tem":1556,"National</w>":1557,"ote</w>":1558,"see":1559,"ure</w>":1560,"firm</w>":1561,"rema":1562,"pon":1563,"feren":1564,"ootball</w>":1565,"city</w>":1566,"Europe</w>":1567,"players</w>":1568,"iting</w>":1569,"late</w>":1570,"part</w>":1571,"ching</w>":1572,"services</w>":1573,"AG":1574,"Gaza</w>":1575,"latest</w>":1576,"Ear":1577,"Yan":1578,"44":1579,"hand":1580,"onal</w>":1581,"released</w>":1582,"People":1583,"By</w>":1584,"Canadian</w>":1585,"Dar":1586,"kets</w>":1587,"99":1588,"quarter":1589,"PeopleSoft</w>":1590,"using</w>":1591,"66":1592,"bra":1593,"sting</w>":1594,"ida</w>":1595,"tal</w>":1596,"dad</w>":1597,"80":1598,"aly":1599,"Stocks</w>":1600,"Bagh":1601,"bor":1602,"place</w>":1603,"issu":1604,"EU</w>":1605,"PC</w>":1606,"there</w>":1607,"reign</w>":1608,"dou":1609,"Pakistan</w>":1610,"presid":1611,"Baghdad</w>":1612,"stor":1613,"terr":1614,"ahead</w>":1615,"Ag":1616,"Fo":1617,"mun":1618,"Or":1619,"At":1620,"tain</w>":1621,"ots</w>":1622,"pi":1623,"ase</w>":1624,"explo":1625,"Sports</w>":1626,"UK</w>":1627,"attack</w>":1628,"ult</w>":1629,"Sud":1630,"games</w>":1631,"cel":1632,"Boston</w>":1633,"data</w>":1634,"regi":1635,"beat</w>":1636,"publ":1637,"ose</w>":1638,"Network</w>":1639,"34</w>":1640,"nam":1641,"2005</w>":1642,"prob":1643,"32</w>":1644,"Per":1645,"field</w>":1646,"ourth</w>":1647,"For</w>":1648,"As</w>":1649,"38</w>":1650,"ready</w>":1651,"stocks</w>":1652,"33</w>":1653,"ether</w>":1654,"Be":1655,"Brit":1656,"found</w>":1657,"reet</w>":1658,"Asi":1659,"work</w>":1660,"troops</w>":1661,"ean</w>":1662,"loss</w>":1663,"dollar</w>":1664,"Fren":1665,"ideo</w>":1666,"War":1667,"enn":1668,"West</w>":1669,"higher</w>":1670,"55":1671,"again</w>":1672,"ious</w>":1673,"DON</w>":1674,"Har":1675,"much</w>":1676,"pay</w>":1677,"ro</w>":1678,"LON":1679,"om</w>":1680,"rose</w>":1681,"end":1682,"ines</w>":1683,"Shar":1684,"ull</w>":1685,"coming</w>":1686,"users</w>":1687,"big</w>":1688,"buy</w>":1689,"Two</w>":1690,"ans":1691,"tin</w>":1692,"Israel</w>":1693,"37</w>":1694,"row</w>":1695,"Korea</w>":1696,"new":1697,"politi":1698,"cru":1699,"succ":1700,"fourth</w>":1701,"LONDON</w>":1702,"ners</w>":1703,"regu":1704,"Fal":1705,"shares</w>":1706,"Ge":1707,"effor":1708,"Security</w>":1709,"Washing":1710,"Ho":1711,"But</w>":1712,"estig":1713,"Sy":1714,"ross</w>":1715,"custom":1716,"price</w>":1717,"Washington</w>":1718,"tru":1719,"lim":1720,"direc":1721,"90":1722,"ploy":1723,"continu":1724,"past</w>":1725,"ux</w>":1726,"onship</w>":1727,"lit":1728,"tele":1729,"88":1730,"around</w>":1731,"ways</w>":1732,"rela":1733,"mee":1734,"Ju":1735,"Oc":1736,"har":1737,"stro":1738,"release</w>":1739,"stock</w>":1740,"economy</w>":1741,"tures</w>":1742,"French</w>":1743,"ual</w>":1744,"ised</w>":1745,"earnings</w>":1746,"ser</w>":1747,"international</w>":1748,"ining</w>":1749,"trade</w>":1750,"reports</w>":1751,"called</w>":1752,"ration</w>":1753,"Ital":1754,"forces</w>":1755,"position</w>":1756,"Dem":1757,"bla":1758,"Australian</w>":1759,"date</w>":1760,"Kerry</w>":1761,"fam":1762,"ken</w>":1763,"Yanke":1764,"dri":1765,"eat</w>":1766,"rer</w>":1767,"mes</w>":1768,"weeks</w>":1769,"near</w>":1770,"ancial</w>":1771,"Ham":1772,"ision</w>":1773,"San</w>":1774,"isco</w>":1775,"soci":1776,"presidential</w>":1777,"Linux</w>":1778,"well</w>":1779,"prote":1780,"tives</w>":1781,"An</w>":1782,"hist":1783,"came</w>":1784,"Ang":1785,"Research</w>":1786,"ep":1787,"Ha":1788,"free</w>":1789,"gold</w>":1790,"ming</w>":1791,"America</w>":1792,"should</w>":1793,"News</w>":1794,"Flor":1795,"46":1796,"Associ":1797,"fat</w>":1798,"economic</w>":1799,"vel</w>":1800,"NASA</w>":1801,"eed</w>":1802,"56":1803,"77":1804,"100</w>":1805,"supp":1806,"ever</w>":1807,"tral</w>":1808,"IC":1809,"rew</w>":1810,"executive</w>":1811,"ward</w>":1812,"DA":1813,"Tim":1814,"igital</w>":1815,"sions</w>":1816,"possi":1817,"hear":1818,"Tur":1819,"form</w>":1820,"New":1821,"susp":1822,"share</w>":1823,"mul":1824,"took</w>":1825,"federal</w>":1826,"tell":1827,"fil":1828,"car</w>":1829,"under":1830,"disc":1831,"close</w>":1832,"view</w>":1833,"ism</w>":1834,"Florida</w>":1835,"Elec":1836,"ference</w>":1837,"insur":1838,"cientists</w>":1839,"Coun":1840,"title</w>":1841,"offer</w>":1842,"Union</w>":1843,"fur</w>":1844,"ff</w>":1845,"Arafat</w>":1846,"rival</w>":1847,"Sun</w>":1848,"urricane</w>":1849,"kely</w>":1850,"thor":1851,"Char":1852,"number</w>":1853,"TO":1854,"site</w>":1855,"lation</w>":1856,"investig":1857,"CE":1858,"City</w>":1859,"tter</w>":1860,"stud":1861,"Darfur</w>":1862,"act</w>":1863,"leading</w>":1864,"ton":1865,"40</w>":1866,"Mus":1867,"tt</w>":1868,"shor":1869,"seven</w>":1870,"nearly</w>":1871,"ular</w>":1872,"twor":1873,"ults</w>":1874,"investors</w>":1875,"tron":1876,"campa":1877,"ttle</w>":1878,"series</w>":1879,"Bi":1880,"shar":1881,"here</w>":1882,"power</w>":1883,"aim":1884,"inten":1885,"jur":1886,"very</w>":1887,"terror":1888,"Pre":1889,"SE":1890,"targ":1891,"Street</w>":1892,"Lon":1893,"how</w>":1894,"clu":1895,"ew":1896,"ior</w>":1897,"ron":1898,"Sw":1899,"ency</w>":1900,"deb":1901,"lower</w>":1902,"case</w>":1903,"Willi":1904,"Yankees</w>":1905,"Pu":1906,"Press</w>":1907,"France</w>":1908,"Court</w>":1909,"jobs</w>":1910,"ind</w>":1911,"killing</w>":1912,"Do":1913,"Octo":1914,"Sep":1915,"TV</w>":1916,"alleg":1917,"SP":1918,"contract</w>":1919,"Pow":1920,"oward</w>":1921,"Quote</w>":1922,"Rec":1923,"tting</w>":1924,"Ath":1925,"blo":1926,"October</w>":1927,"ath":1928,"lth</w>":1929,"hun":1930,"mers</w>":1931,"exten":1932,"Japanese</w>":1933,"appea":1934,"fell</w>":1935,"workers</w>":1936,"attacks</w>":1937,"global</w>":1938,"hard</w>":1939,"recei":1940,"nia</w>":1941,"dom":1942,"Game</w>":1943,"exper":1944,"Mil":1945,"ban</w>":1946,"fic":1947,"Fir":1948,"Says</w>":1949,"hi":1950,"Septem":1951,"qui":1952,"race</w>":1953,"September</w>":1954,"98":1955,"your</w>":1956,"peace</w>":1957,"support</w>":1958,"Federal</w>":1959,"atte":1960,"More</w>":1961,"Des":1962,"45":1963,"ey":1964,"source</w>":1965,"fra":1966,"ided</w>":1967,"rates</w>":1968,"life</w>":1969,"BC</w>":1970,"Iv":1971,"mation</w>":1972,"Cla":1973,"tiv":1974,"secu":1975,"Del":1976,"Sing":1977,"St</w>":1978,"Wall</w>":1979,"veral</w>":1980,"rev":1981,"despite</w>":1982,"going</w>":1983,"Britain</w>":1984,"thers</w>":1985,"eas":1986,"To</w>":1987,"away</w>":1988,"version</w>":1989,"media</w>":1990,"IT</w>":1991,"pop":1992,"anti":1993,"port":1994,"ergy</w>":1995,"Compu":1996,"lem":1997,"ech</w>":1998,"see</w>":1999,"likely</w>":2000,"competi":2001,"Califor":2002,"don":2003,"ges</w>":2004,"legal</w>":2005,"pass":2006,"din":2007,"ass</w>":2008,"spo":2009,"Tech":2010,"ler</w>":2011,"ai</w>":2012,"best</w>":2013,"Lo":2014,"edu":2015,"leaders</w>":2016,"soldi":2017,"sla":2018,"agreement</w>":2019,"Vir":2020,"hum":2021,"Dol":2022,"ished</w>":2023,"Tex":2024,"wide</w>":2025,"Sony</w>":2026,"udge</w>":2027,"uk":2028,"employ":2029,"following</w>":2030,"ium</w>":2031,"els</w>":2032,"ians</w>":2033,"bomb</w>":2034,"region</w>":2035,"eds</w>":2036,"also</w>":2037,"70</w>":2038,"adv":2039,"ham</w>":2040,"Sudan</w>":2041,"mail</w>":2042,"anned</w>":2043,"launch</w>":2044,"lies</w>":2045,"self</w>":2046,"gy":2047,"Pl":2048,"ut</w>":2049,"Mer":2050,"Sea":2051,"tely</w>":2052,"board</w>":2053,"due</w>":2054,"week":2055,"down":2056,"esses</w>":2057,"drug</w>":2058,"ging</w>":2059,"making</w>":2060,"General</w>":2061,"On</w>":2062,"pit":2063,"ensive</w>":2064,"air</w>":2065,"might</w>":2066,"ake</w>":2067,"ampion</w>":2068,"rise</w>":2069,"California</w>":2070,"rate</w>":2071,"ques":2072,"reat</w>":2073,"return</w>":2074,"Sen":2075,"comple":2076,"fea":2077,"Si":2078,"tent</w>":2079,"idence</w>":2080,"oods</w>":2081,"Canada</w>":2082,"Spa":2083,"player</w>":2084,"viol":2085,"pur":2086,"ner":2087,"conf":2088,"minist":2089,"tice</w>":2090,"video</w>":2091,"Is</w>":2092,"ank":2093,"Vo":2094,"pe":2095,"char":2096,"program</w>":2097,"napp":2098,"lier</w>":2099,"75</w>":2100,"November</w>":2101,"Tro":2102,"ob":2103,"analy":2104,"reg":2105,"research</w>":2106,"both</w>":2107,"Ya":2108,"fall</w>":2109,"shot</w>":2110,"give</w>":2111,"Pric":2112,"bels</w>":2113,"ror</w>":2114,"id100":2115,"CEO</w>":2116,"versity</w>":2117,"Bas":2118,"ator</w>":2119,"future</w>":2120,"meeting</w>":2121,"OS</w>":2122,"customers</w>":2123,"scored</w>":2124,"BA</w>":2125,"good</w>":2126,"olu":2127,"eball</w>":2128,"demand</w>":2129,"match</w>":2130,"products</w>":2131,"Ber":2132,"vers</w>":2133,"decision</w>":2134,"Med":2135,"At</w>":2136,"job</w>":2137,"tional</w>":2138,"fied</w>":2139,"tain":2140,"Micha":2141,"partment</w>":2142,"lan</w>":2143,"bed</w>":2144,"sets</w>":2145,"Pac":2146,"Comp":2147,"Profit</w>":2148,"campaign</w>":2149,"ware</w>":2150,"ended</w>":2151,"igned</w>":2152,"ains</w>":2153,"Pa":2154,"running</w>":2155,"Dec":2156,"lay":2157,"winning</w>":2158,"Ra":2159,"death</w>":2160,"Gr":2161,"suit</w>":2162,"Michael</w>":2163,"Ed":2164,"chang":2165,"such</w>":2166,"capital</w>":2167,"football</w>":2168,"rel</w>":2169,"keep</w>":2170,"point</w>":2171,"CH":2172,"This</w>":2173,"ounded</w>":2174,"fire</w>":2175,"minister</w>":2176,"cher</w>":2177,"recent</w>":2178,"Bay</w>":2179,"criti":2180,"May</w>":2181,"cer":2182,"consid":2183,"Series</w>":2184,"Computer</w>":2185,"fre":2186,"charges</w>":2187,"trial</w>":2188,"champion</w>":2189,"wireless</w>":2190,"ocra":2191,"bank</w>":2192,"den":2193,"sing":2194,"Profile</w>":2195,"Shares</w>":2196,"pers":2197,"He</w>":2198,"eight</w>":2199,"49</w>":2200,"CO":2201,"mea":2202,"champi":2203,"taking</w>":2204,"Williams</w>":2205,"chil":2206,"tries</w>":2207,"Air</w>":2208,"sem":2209,"tom":2210,"Commission</w>":2211,"proved</w>":2212,"chip</w>":2213,"Ari":2214,"akes</w>":2215,"without</w>":2216,"munications</w>":2217,"CO</w>":2218,"ne</w>":2219,"ome":2220,"straight</w>":2221,"political</w>":2222,"ush</w>":2223,"systems</w>":2224,"ills</w>":2225,"acked</w>":2226,"manager</w>":2227,"Syste":2228,"whether</w>":2229,"mat":2230,"posed</w>":2231,"several</w>":2232,"Texas</w>":2233,"IT":2234,"gress</w>":2235,"formation</w>":2236,"post</w>":2237,"Chinese</w>":2238,"96":2239,"Ac":2240,"digital</w>":2241,"sell</w>":2242,"concer":2243,"Hea":2244,"Pe":2245,"sett":2246,"na":2247,"told</w>":2248,"uni":2249,"prise</w>":2250,"aniz":2251,"battle</w>":2252,"45</w>":2253,"kid":2254,"elections</w>":2255,"Hurricane</w>":2256,"action</w>":2257,"strike</w>":2258,"financial</w>":2259,"network</w>":2260,"unve":2261,"beli":2262,"erve</w>":2263,"forec":2264,"NF":2265,"hold</w>":2266,"enter":2267,"broad":2268,"TH":2269,"interest</w>":2270,"Ver":2271,"ees</w>":2272,"ana</w>":2273,"star</w>":2274,"ours</w>":2275,"stron":2276,"launched</w>":2277,"red":2278,"id80":2279,"Wireless</w>":2280,"id30":2281,"provid":2282,"id110":2283,"id40":2284,"Play":2285,"retary</w>":2286,"regula":2287,"inning</w>":2288,"become</w>":2289,"little</w>":2290,"41</w>":2291,"den</w>":2292,"ject</w>":2293,"id20":2294,"figh":2295,"mid":2296,"we</w>":2297,"saying</w>":2298,"id70":2299,"BE":2300,"ee</w>":2301,"ud</w>":2302,"id60":2303,"ises</w>":2304,"table</w>":2305,"Def":2306,"jured</w>":2307,"gr":2308,"id90":2309,"Bel":2310,"55</w>":2311,"show</w>":2312,"id50":2313,"polic":2314,"school</w>":2315,"48</w>":2316,"ami</w>":2317,"Pat":2318,"hind</w>":2319,"ya</w>":2320,"dead</w>":2321,"appl":2322,"tworks</w>":2323,"Hou":2324,"author":2325,"cou":2326,"estern</w>":2327,"Afghan":2328,"weekend</w>":2329,"Oct</w>":2330,"results</w>":2331,"rown</w>":2332,"Germany</w>":2333,"hu":2334,"ought</w>":2335,"SAN</w>":2336,"jury</w>":2337,"60</w>":2338,"ky":2339,"force</w>":2340,"racy</w>":2341,"trea":2342,"agency</w>":2343,"hoo</w>":2344,"women</w>":2345,"OS":2346,"wat":2347,"tern</w>":2348,"each</w>":2349,"Mad":2350,"eff":2351,"cop":2352,"across</w>":2353,"nec":2354,"venue</w>":2355,"German</w>":2356,"tics</w>":2357,"cing</w>":2358,"plan":2359,"78</w>":2360,"Mis":2361,"Over</w>":2362,"lost</w>":2363,"Afghanistan</w>":2364,"cost</w>":2365,"history</w>":2366,"Yahoo</w>":2367,"ktop</w>":2368,"Stri":2369,"Isla":2370,"phones</w>":2371,"bank":2372,"vil":2373,"CA":2374,"gener":2375,"pic":2376,"Search</w>":2377,"cer</w>":2378,"eded</w>":2379,"anning</w>":2380,"Am":2381,"fight</w>":2382,"ld":2383,"Pod</w>":2384,"doc":2385,"zed</w>":2386,"costs</w>":2387,"increase</w>":2388,"ounds</w>":2389,"Indon":2390,"possible</w>":2391,"onds</w>":2392,"keover</w>":2393,"morning</w>":2394,"Indones":2395,"vote</w>":2396,"touch":2397,"isi":2398,"rested</w>":2399,"she</w>":2400,"better</w>":2401,"Augu":2402,"management</w>":2403,"RAN":2404,"hostage</w>":2405,"Por":2406,"Hal":2407,"Ru":2408,"retail":2409,"chall":2410,"priv":2411,"consumer</w>":2412,"Fac":2413,"Chic":2414,"stand":2415,"foreign</w>":2416,"72</w>":2417,"bled</w>":2418,"ousands</w>":2419,"77</w>":2420,"foc":2421,"fans</w>":2422,"Space</w>":2423,"House</w>":2424,"uses</w>":2425,"accoun":2426,"band</w>":2427,"uro</w>":2428,"Democra":2429,"79</w>":2430,"Indian</w>":2431,"71</w>":2432,"ators</w>":2433,"gency</w>":2434,"Nov</w>":2435,"hopes</w>":2436,"promis":2437,"pho":2438,"dio</w>":2439,"August</w>":2440,"mir</w>":2441,"chers</w>":2442,"dead":2443,"jum":2444,"id98":2445,"fur":2446,"74</w>":2447,"ster</w>":2448,"Arsen":2449,"rupt":2450,"id38":2451,"few</w>":2452,"attemp":2453,"id78":2454,"IL":2455,"id18":2456,"id88":2457,"Afghan</w>":2458,"tax</w>":2459,"id48":2460,"Department</w>":2461,"44</w>":2462,"64</w>":2463,"Nations</w>":2464,"id68":2465,"accused</w>":2466,"id118":2467,"TO</w>":2468,"ufac":2469,"ral</w>":2470,"47</w>":2471,"deli":2472,"ota</w>":2473,"id58":2474,"goti":2475,"operating</w>":2476,"Africa</w>":2477,"td</w>":2478,"id108":2479,"42</w>":2480,"76</w>":2481,"showed</w>":2482,"500</w>":2483,"signed</w>":2484,"London</w>":2485,"Cha":2486,"squ":2487,"died</w>":2488,"id28":2489,"turn</w>":2490,"Fallu":2491,"gets</w>":2492,"Lead":2493,"eing</w>":2494,"ssi":2495,"gas</w>":2496,"men":2497,"int</w>":2498,"lows</w>":2499,"carri":2500,"ruptcy</w>":2501,"Shi":2502,"though</w>":2503,"University</w>":2504,"Virg":2505,"party</w>":2506,"care":2507,"warned</w>":2508,"anti</w>":2509,"ery</w>":2510,"sum":2511,"Former</w>":2512,"43</w>":2513,"Tal":2514,"op</w>":2515,"same</w>":2516,"inf":2517,"too</w>":2518,"46</w>":2519,"mit":2520,"ease</w>":2521,"OU":2522,"Sad":2523,"When</w>":2524,"behind</w>":2525,"lue</w>":2526,"did</w>":2527,"pping</w>":2528,"NFL</w>":2529,"takes</w>":2530,"land":2531,"law</w>":2532,"DV":2533,"among</w>":2534,"diff":2535,"Braz":2536,"Online</w>":2537,"threaten":2538,"54</w>":2539,"violence</w>":2540,"militants</w>":2541,"Lab":2542,"Musli":2543,"Spain</w>":2544,"AL</w>":2545,"iPod</w>":2546,"Athens</w>":2547,"Report</w>":2548,"73</w>":2549,"Jones</w>":2550,"Ry":2551,"ances</w>":2552,"appro":2553,"perform":2554,"ously</w>":2555,"small</w>":2556,"claims</w>":2557,"ester</w>":2558,"Atlan":2559,"trading</w>":2560,"minu":2561,"ols</w>":2562,"FRAN":2563,"NBA</w>":2564,"emer":2565,"lon":2566,"injured</w>":2567,"store</w>":2568,"urt</w>":2569,"process":2570,"Deal</w>":2571,"51</w>":2572,"wins</w>":2573,"mark</w>":2574,"Chicago</w>":2575,"David</w>":2576,"Tri":2577,"ce":2578,"dly</w>":2579,"corpor":2580,"Big</w>":2581,"Pi":2582,"house</w>":2583,"Olympics</w>":2584,"control</w>":2585,"53</w>":2586,"Bro":2587,"PE":2588,"err":2589,"stop</w>":2590,"African</w>":2591,"Americans</w>":2592,"90</w>":2593,"cash</w>":2594,"Houston</w>":2595,"dle</w>":2596,"ink</w>":2597,"ats</w>":2598,"Championship</w>":2599,"pul":2600,"medal</w>":2601,"AC":2602,"Bow":2603,"barrel</w>":2604,"Star":2605,"Test</w>":2606,"cand":2607,"opening</w>":2608,"ATH":2609,"ends</w>":2610,"soldiers</w>":2611,"ick":2612,"amid</w>":2613,"respon":2614,"began</w>":2615,"got</w>":2616,"intro":2617,"151</w>":2618,"Giants</w>":2619,"information</w>":2620,"Phili":2621,"Tig":2622,"expec":2623,"des</w>":2624,"ba</w>":2625,"almost</w>":2626,"Ltd</w>":2627,"Sept</w>":2628,"rint</w>":2629,"Champions</w>":2630,"crude</w>":2631,"full</w>":2632,"ids</w>":2633,"step</w>":2634,"First</w>":2635,"he":2636,"commun":2637,"Blair</w>":2638,"scientists</w>":2639,"Nig":2640,"nine</w>":2641,"cil</w>":2642,"alls</w>":2643,"East</w>":2644,"confir":2645,"makers</w>":2646,"Franc":2647,"struc":2648,"65</w>":2649,"High</w>":2650,"PD":2651,"zer</w>":2652,"profits</w>":2653,"ef</w>":2654,"anding</w>":2655,"reach</w>":2656,"duce</w>":2657,"ES</w>":2658,"Mid":2659,"comes</w>":2660,"turing</w>":2661,"suspen":2662,"term</w>":2663,"takeover</w>":2664,"80</w>":2665,"roc":2666,"lif":2667,"52</w>":2668,"Secretary</w>":2669,"Cam":2670,"television</w>":2671,"career</w>":2672,"Bom":2673,"Wal":2674,"ited</w>":2675,"negoti":2676,"trans":2677,"press</w>":2678,"offering</w>":2679,"Egy":2680,"Kar":2681,"Upda":2682,"AD":2683,"asser</w>":2684,"aul</w>":2685,"senior</w>":2686,"ENS</w>":2687,"200</w>":2688,"99</w>":2689,"judge</w>":2690,"Games</w>":2691,"Lou":2692,"Sco":2693,"study</w>":2694,"til</w>":2695,"ministration</w>":2696,"performance</w>":2697,"Cap":2698,"Gar":2699,"earlier</w>":2700,"vey</w>":2701,"Not</w>":2702,"val":2703,"ent":2704,"speed</w>":2705,"league</w>":2706,"AT</w>":2707,"ece</w>":2708,"tre</w>":2709,"suff":2710,"kidnapp":2711,"IS</w>":2712,"Sales</w>":2713,"inde":2714,"Airways</w>":2715,"Roc":2716,"energy</w>":2717,"unit</w>":2718,"quali":2719,"growing</w>":2720,"meet</w>":2721,"known</w>":2722,"TA</w>":2723,"abo":2724,"Mas":2725,"mess":2726,"igu":2727,"boost</w>":2728,"bankruptcy</w>":2729,"cuts</w>":2730,"FRANC":2731,"Ta":2732,"My":2733,"wid":2734,"production</w>":2735,"northern</w>":2736,"tg":2737,"those</w>":2738,"light</w>":2739,"money</w>":2740,"Hu":2741,"Chi":2742,"access</w>":2743,"call</w>":2744,"rej":2745,"members</w>":2746,"Service</w>":2747,"Sur":2748,"fic</w>":2749,"Ri":2750,"super":2751,"Sharon</w>":2752,"Ven":2753,"Top</w>":2754,"ATHENS</w>":2755,"Gol":2756,"far</w>":2757,"Three</w>":2758,"Tor":2759,"bing</w>":2760,"order</w>":2761,"icide</w>":2762,"Business</w>":2763,"Grand</w>":2764,"conference</w>":2765,"manufac":2766,"aila":2767,"Ken":2768,"initi":2769,"heav":2770,"helped</w>":2771,"southern</w>":2772,"public":2773,"kes":2774,"pons</w>":2775,"draw</w>":2776,"sses</w>":2777,"era</w>":2778,"soon</w>":2779,"Asia</w>":2780,"Dea":2781,"AB":2782,"risis</w>":2783,"must</w>":2784,"Niger":2785,"hours</w>":2786,"yet</w>":2787,"then</w>":2788,"shed</w>":2789,"begin</w>":2790,"dren</w>":2791,"If</w>":2792,"ast":2793,"56</w>":2794,"Out</w>":2795,"ine":2796,"ford</w>":2797,"defense</w>":2798,"IR":2799,"body</w>":2800,"Reserve</w>":2801,"KY":2802,"Rad":2803,"tual</w>":2804,"calls</w>":2805,"orge</w>":2806,"dies</w>":2807,"duced</w>":2808,"club</w>":2809,"Me":2810,"bia</w>":2811,"etting</w>":2812,"BS</w>":2813,"sted</w>":2814,"ority</w>":2815,"ability</w>":2816,"Paul</w>":2817,"tour":2818,"FRANCIS":2819,"bility</w>":2820,"chester</w>":2821,"Association</w>":2822,"MP":2823,"clim":2824,"efforts</w>":2825,"tronics</w>":2826,"HP</w>":2827,"dam":2828,"health</w>":2829,"Arsenal</w>":2830,"yards</w>":2831,"stitu":2832,"TOKY":2833,"kyo</w>":2834,"already</w>":2835,"las</w>":2836,"ows</w>":2837,"bus</w>":2838,"Tokyo</w>":2839,"TOKYO</w>":2840,"ona</w>":2841,"aster</w>":2842,"appoin":2843,"markets</w>":2844,"charged</w>":2845,"FRANCISCO</w>":2846,"countries</w>":2847,"Italian</w>":2848,"concerns</w>":2849,"list</w>":2850,"ty":2851,"enger</w>":2852,"id59":2853,"posted</w>":2854,"Dru":2855,"Hel":2856,"They</w>":2857,"id79":2858,"id39":2859,"All</w>":2860,"Systems</w>":2861,"Out":2862,"id19":2863,"computers</w>":2864,"id89":2865,"file</w>":2866,"trou":2867,"id69":2868,"gave</w>":2869,"schedu":2870,"olution</w>":2871,"Update":2872,"sent</w>":2873,"activ":2874,"id29":2875,"power":2876,"Council</w>":2877,"Tit":2878,"cour":2879,"west</w>":2880,"aper</w>":2881,"id119":2882,"corporate</w>":2883,"ts":2884,"Software</w>":2885,"domin":2886,"TE":2887,"strea":2888,"main</w>":2889,"id99":2890,"id49":2891,"gers</w>":2892,"wil":2893,"earchers</w>":2894,"id109":2895,"nal</w>":2896,"pil":2897,"wood</w>":2898,"enough</w>":2899,"general</w>":2900,"availa":2901,"lowed</w>":2902,"George</w>":2903,"onto</w>":2904,"Communications</w>":2905,"trying</w>":2906,"57</w>":2907,"Bill</w>":2908,"dispu":2909,"continue</w>":2910,"66</w>":2911,"Cisco</w>":2912,"Val":2913,"ati":2914,"arrested</w>":2915,"dium</w>":2916,"reached</w>":2917,"tenti":2918,"within</w>":2919,"Chief</w>":2920,"looking</w>":2921,"cement</w>":2922,"sea</w>":2923,"Airlines</w>":2924,"59</w>":2925,"58</w>":2926,"fres":2927,"sign</w>":2928,"visit</w>":2929,"outside</w>":2930,"pan":2931,"union</w>":2932,"level":2933,"fuel</w>":2934,"rebels</w>":2935,"taken</w>":2936,"IA</w>":2937,"Ni":2938,"PM</w>":2939,"reti":2940,"tech</w>":2941,"short</w>":2942,"popular</w>":2943,"aid</w>":2944,"rid</w>":2945,"until</w>":2946,"opposition</w>":2947,"starting</w>":2948,"Cel":2949,"Dell</w>":2950,"ID":2951,"ple</w>":2952,"lars</w>":2953,"da</w>":2954,"drop</w>":2955,"ID</w>":2956,"ring":2957,"sale</w>":2958,"Tea":2959,"teams</w>":2960,"revenue</w>":2961,"Acc":2962,"Bal":2963,"Go":2964,"Yasser</w>":2965,"went</w>":2966,"anced</w>":2967,"giving</w>":2968,"raised</w>":2969,"need</w>":2970,"id56":2971,"Tai":2972,"fav":2973,"overed</w>":2974,"lege</w>":2975,"Ivan</w>":2976,"others</w>":2977,"ession</w>":2978,"Miami</w>":2979,"From</w>":2980,"east</w>":2981,"enge</w>":2982,"id96":2983,"id36":2984,"Hew":2985,"find</w>":2986,"finals</w>":2987,"selling</w>":2988,"doub":2989,"Don":2990,"local</w>":2991,"id26":2992,"id46":2993,"id66":2994,"Army</w>":2995,"Palestinians</w>":2996,"Center</w>":2997,"continued</w>":2998,"cs</w>":2999,"prac":3000,"stake</w>":3001,"candid":3002,"Mac":3003,"id86":3004,"Manchester</w>":3005,"effort</w>":3006,"stu":3007,"illions</w>":3008,"id106":3009,"airline</w>":3010,"aimed</w>":3011,"Cra":3012,"id16":3013,"failed</w>":3014,"id116":3015,"ING</w>":3016,"product</w>":3017,"drive</w>":3018,"cell</w>":3019,"makes</w>":3020,"range</w>":3021,"weapons</w>":3022,"human</w>":3023,"Fed":3024,"Qa":3025,"ries</w>":3026,"nie</w>":3027,"White</w>":3028,"id76":3029,"John":3030,"Tel":3031,"Asian</w>":3032,"BAG":3033,"once</w>":3034,"chair":3035,"Davis</w>":3036,"86</w>":3037,"Time</w>":3038,"96</w>":3039,"Im":3040,"office</w>":3041,"ti</w>":3042,"wr":3043,"any":3044,"dition</w>":3045,"ketball</w>":3046,"quarterback</w>":3047,"competition</w>":3048,"Tech</w>":3049,"ez</w>":3050,"finally</w>":3051,"downlo":3052,"67</w>":3053,"Invest":3054,"tation</w>":3055,"Dollar</w>":3056,"seen</w>":3057,"central</w>":3058,"threat</w>":3059,"lems</w>":3060,"lin</w>":3061,"busin":3062,"success":3063,"previ":3064,"invol":3065,"authorities</w>":3066,"cli":3067,"thousands</w>":3068,"rebel</w>":3069,"reli":3070,"identi":3071,"dered</w>":3072,"investment</w>":3073,"organiz":3074,"spokes":3075,"Dev":3076,"Trea":3077,"stages</w>":3078,"tations</w>":3079,"pressure</w>":3080,"Lu":3081,"draw":3082,"DAD</w>":3083,"tered</w>":3084,"2006</w>":3085,"69</w>":3086,"Bur":3087,"ring</w>":3088,"wants</w>":3089,"ANG":3090,"BAGH":3091,"aver":3092,"designed</w>":3093,"quarterly</w>":3094,"Madrid</w>":3095,"BAGHDAD</w>":3096,"bal":3097,"equi":3098,"town</w>":3099,"There</w>":3100,"analysts</w>":3101,"mates</w>":3102,"Mac</w>":3103,"Update</w>":3104,"DVD</w>":3105,"High":3106,"ra</w>":3107,"Bri":3108,"Ric":3109,"div":3110,"Muslim</w>":3111,"Francisco</w>":3112,"95</w>":3113,"crisis</w>":3114,"state":3115,"Prices</w>":3116,"rising</w>":3117,"ishing</w>":3118,"moved</w>":3119,"Wil":3120,"ising</w>":3121,"hosp":3122,"Gold</w>":3123,"kia</w>":3124,"charge</w>":3125,"Fun":3126,"fund</w>":3127,"further</w>":3128,"63</w>":3129,"Pit":3130,"Rel":3131,"mas":3132,"rol":3133,"Stadium</w>":3134,"rights</w>":3135,"toward</w>":3136,"Trade</w>":3137,"filed</w>":3138,"personal</w>":3139,"XP</w>":3140,"brow":3141,"chec":3142,"62</w>":3143,"Blo":3144,"Nas":3145,"some":3146,"xed</w>":3147,"aff":3148,"family</w>":3149,"terror</w>":3150,"goal</w>":3151,"Calif</w>":3152,"Angel":3153,"injury</w>":3154,"roups</w>":3155,"Mobile</w>":3156,"executives</w>":3157,"hits</w>":3158,"lic":3159,"ung</w>":3160,"ounding</w>":3161,"woman</w>":3162,"CP</w>":3163,"Los</w>":3164,"Real</w>":3165,"spending</w>":3166,"flight</w>":3167,"named</w>":3168,"THE</w>":3169,"Na":3170,"inst":3171,"liam":3172,"lay</w>":3173,"tellite</w>":3174,"rally</w>":3175,"fired</w>":3176,"heart</w>":3177,"children</w>":3178,"92</w>":3179,"Hen":3180,"allow</w>":3181,"die</w>":3182,"MS":3183,"gre":3184,"large</w>":3185,"fighting</w>":3186,"ness</w>":3187,"prove</w>":3188,"ricket</w>":3189,"center</w>":3190,"retailer</w>":3191,"ication</w>":3192,"unes</w>":3193,"aging</w>":3194,"aged</w>":3195,"deta":3196,"Dut":3197,"gains</w>":3198,"getting</w>":3199,"tee</w>":3200,"une</w>":3201,"firms</w>":3202,"Al</w>":3203,"Mu":3204,"wan</w>":3205,"level</w>":3206,"closed</w>":3207,"strugg":3208,"build</w>":3209,"sy":3210,"ruling</w>":3211,"forecast</w>":3212,"chairman</w>":3213,"Kor":3214,"ek</w>":3215,"western</w>":3216,"commer":3217,"rivals</w>":3218,"Central</w>":3219,"opping</w>":3220,"Exp":3221,"Nokia</w>":3222,"dollars</w>":3223,"Bowl</w>":3224,"Da":3225,"euro</w>":3226,"That</w>":3227,"oung</w>":3228,"68</w>":3229,"fron":3230,"edge</w>":3231,"Sil":3232,"Sam":3233,"indic":3234,"exic":3235,"potenti":3236,"Mart</w>":3237,"Mor":3238,"yers</w>":3239,"tedly</w>":3240,"rehol":3241,"Offic":3242,"Ap":3243,"Astro":3244,"ATE</w>":3245,"supply</w>":3246,"powerful</w>":3247,"94</w>":3248,"Sm":3249,"id95":3250,"dreds</w>":3251,"ron</w>":3252,"Coast</w>":3253,"Cru":3254,"CBS</w>":3255,"bit</w>":3256,"eek</w>":3257,"Ann":3258,"policy</w>":3259,"Mexic":3260,"Boeing</w>":3261,"Ire":3262,"Span":3263,"News":3264,"Premi":3265,"Islam":3266,"wan":3267,"atten":3268,"id105":3269,"engine</w>":3270,"UR":3271,"eve</w>":3272,"id35":3273,"kra":3274,"termin":3275,"loc":3276,"ads</w>":3277,"id55":3278,"id45":3279,"id65":3280,"reng":3281,"Italy</w>":3282,"Singh</w>":3283,"Ryder</w>":3284,"61</w>":3285,"name</w>":3286,"id115":3287,"holiday</w>":3288,"double</w>":3289,"nes":3290,"anks</w>":3291,"working</w>":3292,"id25":3293,"operations</w>":3294,"Delta</w>":3295,"Talks</w>":3296,"98</w>":3297,"NH":3298,"driv":3299,"id85":3300,"annual</w>":3301,"88</w>":3302,"Music</w>":3303,"tre":3304,"id75":3305,"phy</w>":3306,"break</w>":3307,"Dutch</w>":3308,"400</w>":3309,"ently</w>":3310,"planned</w>":3311,"Mark</w>":3312,"ba":3313,"rist":3314,"id15":3315,"strate":3316,"insurance</w>":3317,"ident</w>":3318,"prime</w>":3319,"84</w>":3320,"Net":3321,"Exchange</w>":3322,"AMD</w>":3323,"Wal</w>":3324,"lers</w>":3325,"nat":3326,"emb":3327,"risk</w>":3328,"desktop</w>":3329,"Ireland</w>":3330,"85</w>":3331,"ides</w>":3332,"mart</w>":3333,"Du":3334,"Now</w>":3335,"times</w>":3336,"turned</w>":3337,"parti":3338,"civ":3339,"Angeles</w>":3340,"Astros</w>":3341,"road</w>":3342,"urities</w>":3343,"Ukra":3344,"missing</w>":3345,"provide</w>":3346,"operation</w>":3347,"97</w>":3348,"93</w>":3349,"Gra":3350,"Ter":3351,"Police</w>":3352,"confirmed</w>":3353,"Yuk":3354,"chance</w>":3355,"decided</w>":3356,"runs</w>":3357,"Cl":3358,"SE</w>":3359,"canc":3360,"dings</w>":3361,"fears</w>":3362,"ied</w>":3363,"pment</w>":3364,"lap":3365,"ening</w>":3366,"nament</w>":3367,"Ty":3368,"fri":3369,"mb":3370,"army</w>":3371,"Te":3372,"UPD":3373,"ace":3374,"investigation</w>":3375,"Nu":3376,"Tony</w>":3377,"area</w>":3378,"ately</w>":3379,"card</w>":3380,"sil":3381,"vend":3382,"AP":3383,"yed</w>":3384,"hope</w>":3385,"available</w>":3386,"tment</w>":3387,"rules</w>":3388,"avo":3389,"Paris</w>":3390,"attempt</w>":3391,"Yukos</w>":3392,"development</w>":3393,"viron":3394,"ald</w>":3395,"never</w>":3396,"surg":3397,"Green</w>":3398,"Brazil</w>":3399,"Jan":3400,"Win</w>":3401,"ground</w>":3402,"raft</w>":3403,"happ":3404,"approved</w>":3405,"dam</w>":3406,"Seattle</w>":3407,"tories</w>":3408,"Islamic</w>":3409,"UPDATE</w>":3410,"Red":3411,"lab":3412,"bene":3413,"igns</w>":3414,"Explo":3415,"Day</w>":3416,"overy</w>":3417,"craft</w>":3418,"sold</w>":3419,"ani</w>":3420,"baseball</w>":3421,"rs</w>":3422,"earing</w>":3423,"push":3424,"redit</w>":3425,"focus</w>":3426,"Govern":3427,"Net</w>":3428,"Pan":3429,"backs</w>":3430,"fth</w>":3431,"gol":3432,"Disney</w>":3433,"fy</w>":3434,"let</w>":3435,"nologies</w>":3436,"problems</w>":3437,"championship</w>":3438,"uti":3439,"lot</w>":3440,"shes</w>":3441,"claimed</w>":3442,"The":3443,"illa</w>":3444,"89</w>":3445,"ur</w>":3446,"comb":3447,"claim</w>":3448,"believ":3449,"mag":3450,"pat":3451,"push</w>":3452,"read</w>":3453,"private</w>":3454,"Hun":3455,"crow":3456,"dist":3457,"main":3458,"cy":3459,"ky</w>":3460,"lined</w>":3461,"sites</w>":3462,"imp":3463,"worth</w>":3464,"very":3465,"commit":3466,"ys":3467,"server</w>":3468,"Consu":3469,"presen":3470,"Team</w>":3471,"Chel":3472,"consumers</w>":3473,"cele":3474,"ref":3475,"Indu":3476,"suicide</w>":3477,"spi":3478,"Will</w>":3479,"gun":3480,"ina</w>":3481,"versi":3482,"survey</w>":3483,"Be</w>":3484,"IP</w>":3485,"Wins</w>":3486,"ail":3487,"ma</w>":3488,"terrorism</w>":3489,"December</w>":3490,"Johnson</w>":3491,"91</w>":3492,"Some</w>":3493,"station</w>":3494,"2003</w>":3495,"book</w>":3496,"Laun":3497,"Putin</w>":3498,"IN</w>":3499,"Nex":3500,"lands</w>":3501,"asked</w>":3502,"target</w>":3503,"Woods</w>":3504,"streng":3505,"ized</w>":3506,"stores</w>":3507,"revea":3508,"bad</w>":3509,"daq</w>":3510,"vely</w>":3511,"Fire":3512,"jah</w>":3513,"Jus":3514,"member</w>":3515,"want</w>":3516,"alling</w>":3517,"track</w>":3518,"warning</w>":3519,"retail</w>":3520,"Brown</w>":3521,"Football</w>":3522,"Low":3523,"UN":3524,"eric</w>":3525,"oll</w>":3526,"propos":3527,"cast</w>":3528,"Enter":3529,"above</w>":3530,"Kash":3531,"edged</w>":3532,"id74":3533,"rought</w>":3534,"shows</w>":3535,"Soc":3536,"wal":3537,"reb":3538,"after":3539,"leave</w>":3540,"Congress</w>":3541,"unveiled</w>":3542,"Down</w>":3543,"ham":3544,"omic</w>":3545,"water</w>":3546,"Green":3547,"expectations</w>":3548,"seem":3549,"id84":3550,"id54":3551,"defeat</w>":3552,"played</w>":3553,"Fallujah</w>":3554,"businesses</w>":3555,"ox":3556,"id24":3557,"ranked</w>":3558,"Fu":3559,"Rea":3560,"Sus":3561,"jour":3562,"mit</w>":3563,"ren</w>":3564,"sugg":3565,"separ":3566,"id34":3567,"medi":3568,"id14":3569,"real":3570,"id94":3571,"id114":3572,"id44":3573,"pay":3574,"fresh</w>":3575,"Blue</w>":3576,"Dow</w>":3577,"anium</w>":3578,"iti</w>":3579,"assin":3580,"flic":3581,"fraud</w>":3582,"81</w>":3583,"Pho":3584,"Year</w>":3585,"awa":3586,"bloo":3587,"fying</w>":3588,"Chr":3589,"Rod":3590,"Milit":3591,"05</w>":3592,"opened</w>":3593,"issue</w>":3594,"ph</w>":3595,"suspected</w>":3596,"MW</w>":3597,"groups</w>":3598,"id64":3599,"scre":3600,"insurg":3601,"diffe":3602,"bn</w>":3603,"id104":3604,"chips</w>":3605,"probe</w>":3606,"Park</w>":3607,"Treasur":3608,"Tour</w>":3609,"food</w>":3610,"ret</w>":3611,"icon":3612,"lose</w>":3613,"spam</w>":3614,"And</w>":3615,"Stor":3616,"ership</w>":3617,"losing</w>":3618,"given</w>":3619,"Minnes":3620,"Bang":3621,"ably</w>":3622,"82</w>":3623,"Rom":3624,"Tenn":3625,"hand</w>":3626,"verti":3627,"anded</w>":3628,"Minnesota</w>":3629,"bl":3630,"liance</w>":3631,"offers</w>":3632,"curren":3633,"AGO</w>":3634,"Ga":3635,"PC":3636,"bring</w>":3637,"Greece</w>":3638,"ements</w>":3639,"sharehol":3640,"building</w>":3641,"eastern</w>":3642,"11":3643,"illing</w>":3644,"merger</w>":3645,"Aug</w>":3646,"Foreign</w>":3647,"Taiwan</w>":3648,"Data</w>":3649,"IP":3650,"Rise</w>":3651,"Tru":3652,"Mike</w>":3653,"04</w>":3654,"AS</w>":3655,"defic":3656,"Cardin":3657,"current</w>":3658,"employees</w>":3659,"Global</w>":3660,"Wa":3661,"bill</w>":3662,"iling</w>":3663,"ko</w>":3664,"added</w>":3665,"Detro":3666,"purch":3667,"Indonesia</w>":3668,"her":3669,"Republic":3670,"predic":3671,"process</w>":3672,"debt</w>":3673,"NY":3674,"oring</w>":3675,"Ca":3676,"icks</w>":3677,"raise</w>":3678,"Detroit</w>":3679,"Steve</w>":3680,"lawsuit</w>":3681,"later</w>":3682,"servers</w>":3683,"faces</w>":3684,"Quar":3685,"virus</w>":3686,"regulators</w>":3687,"Virgin":3688,"ez":3689,"lement</w>":3690,"ang</w>":3691,"Philipp":3692,"ount</w>":3693,"generation</w>":3694,"touchdown</w>":3695,"hou":3696,"radio</w>":3697,"post":3698,"Sprint</w>":3699,"Earth</w>":3700,"Strip</w>":3701,"300</w>":3702,"Back</w>":3703,"Econ":3704,"ative</w>":3705,"ades</w>":3706,"Christ":3707,"phia</w>":3708,"wart</w>":3709,"winter</w>":3710,"hard":3711,"alleged</w>":3712,"Drug</w>":3713,"ri</w>":3714,"yle</w>":3715,"delphia</w>":3716,"tournament</w>":3717,"Virginia</w>":3718,"great</w>":3719,"sli":3720,"wards</w>":3721,"coll":3722,"Patri":3723,"sion":3724,"closer</w>":3725,"telec":3726,"Atlanta</w>":3727,"Bec":3728,"upgra":3729,"speci":3730,"issues</w>":3731,"urged</w>":3732,"cho":3733,"administration</w>":3734,"captain</w>":3735,"hospital</w>":3736,"LE</w>":3737,"Mat":3738,"hic":3739,"sist":3740,"Democratic</w>":3741,"bit":3742,"ino</w>":3743,"87</w>":3744,"Its</w>":3745,"lish</w>":3746,"ockey</w>":3747,"newsp":3748,"Factor</w>":3749,"ander</w>":3750,"received</w>":3751,"spokesman</w>":3752,"wanted</w>":3753,"bir":3754,"clin":3755,"ful":3756,"wounded</w>":3757,"xes</w>":3758,"role</w>":3759,"missed</w>":3760,"Att":3761,"Saf":3762,"appa":3763,"looks</w>":3764,"statement</w>":3765,"Korean</w>":3766,"every</w>":3767,"losses</w>":3768,"devices</w>":3769,"preme</w>":3770,"Ford</w>":3771,"Ow":3772,"zens</w>":3773,"Adv":3774,"July</w>":3775,"discus":3776,"equipment</w>":3777,"Pen":3778,"ther":3779,"ilty</w>":3780,"burn</w>":3781,"benef":3782,"Kashmir</w>":3783,"playing</w>":3784,"create</w>":3785,"Four</w>":3786,"RO":3787,"Rog":3788,"militant</w>":3789,"increased</w>":3790,"acquisi":3791,"83</w>":3792,"Fer":3793,"import":3794,"plom":3795,"prison</w>":3796,"browser</w>":3797,"Den":3798,"forward</w>":3799,"fifth</w>":3800,"did":3801,"equ":3802,"tric":3803,"division</w>":3804,"pers</w>":3805,"ul</w>":3806,"Server</w>":3807,"Stock</w>":3808,"Chelsea</w>":3809,"Fla":3810,"Ly":3811,"ila":3812,"jing</w>":3813,"mate</w>":3814,"rush":3815,"Karz":3816,"forced</w>":3817,"ruled</w>":3818,"event</w>":3819,"Law":3820,"NewsFactor</w>":3821,"celebra":3822,"Howard</w>":3823,"zz":3824,"rers</w>":3825,"itting</w>":3826,"researchers</w>":3827,"pend":3828,"Technology</w>":3829,"Spanish</w>":3830,"OL</w>":3831,"pas":3832,"sor":3833,"Stud":3834,"signs</w>":3835,"liament</w>":3836,"Cardinals</w>":3837,"son":3838,"stand</w>":3839,"scri":3840,"Bei":3841,"distri":3842,"scand":3843,"storage</w>":3844,"distribu":3845,"AK":3846,"Sour":3847,"hor":3848,"safe":3849,"que</w>":3850,"ightly</w>":3851,"rich":3852,"nific":3853,"outlook</w>":3854,"tronic</w>":3855,"Crude</w>":3856,"Karzai</w>":3857,"You</w>":3858,"Zea":3859,"infla":3860,"Company</w>":3861,"applications</w>":3862,"Ex</w>":3863,"Beijing</w>":3864,"12":3865,"requ":3866,"holding</w>":3867,"trust</w>":3868,"ssic</w>":3869,"Pea":3870,"nal":3871,"recor":3872,"iding</w>":3873,"emp":3874,"tured</w>":3875,"related</w>":3876,"multi":3877,"ER</w>":3878,"Sol":3879,"aw":3880,"lina</w>":3881,"ditional</w>":3882,"ships</w>":3883,"Office</w>":3884,"ply</w>":3885,"sile</w>":3886,"staf":3887,"ama</w>":3888,"Networks</w>":3889,"does</w>":3890,"suppor":3891,"ICAGO</w>":3892,"NHL</w>":3893,"mur":3894,"spe":3895,"anctions</w>":3896,"Powell</w>":3897,"CHICAGO</w>":3898,"single</w>":3899,"Nasdaq</w>":3900,"FA</w>":3901,"Iris":3902,"mach":3903,"arm":3904,"illed</w>":3905,"cience</w>":3906,"lywood</w>":3907,"Toronto</w>":3908,"Lar":3909,"wel":3910,"esn</w>":3911,"spac":3912,"tainment</w>":3913,"mony</w>":3914,"jaf</w>":3915,"Najaf</w>":3916,"Nextel</w>":3917,"Bl":3918,"lied</w>":3919,"Eag":3920,"tar":3921,"rely</w>":3922,"assa":3923,"mar</w>":3924,"survi":3925,"autom":3926,"Supreme</w>":3927,"pass</w>":3928,"uary</w>":3929,"yer</w>":3930,"bes</w>":3931,"Mars</w>":3932,"started</w>":3933,"Record</w>":3934,"Tiger</w>":3935,"suits</w>":3936,"Senate</w>":3937,"Baseball</w>":3938,"January</w>":3939,"Zealand</w>":3940,"Scientists</w>":3941,"clea":3942,"fast</w>":3943,"pool</w>":3944,"wit":3945,"drugs</w>":3946,"front</w>":3947,"Off</w>":3948,"bat":3949,"every":3950,"basketball</w>":3951,"average</w>":3952,"Home</w>":3953,"isted</w>":3954,"didn</w>":3955,"blast</w>":3956,"know</w>":3957,"offensive</w>":3958,"downs</w>":3959,"Station</w>":3960,"mas</w>":3961,"bul":3962,"plane</w>":3963,"angers</w>":3964,"Buy</w>":3965,"Phila":3966,"Louis</w>":3967,"ova</w>":3968,"End</w>":3969,"experts</w>":3970,"ville</w>":3971,"Jer":3972,"real</w>":3973,"debate</w>":3974,"Philadelphia</w>":3975,"Ben":3976,"HO":3977,"Kee":3978,"hy":3979,"igan</w>":3980,"vehic":3981,"join</w>":3982,"fox</w>":3983,"Turkey</w>":3984,"Grow":3985,"prosecu":3986,"eda</w>":3987,"Caro":3988,"care</w>":3989,"fer</w>":3990,"arm</w>":3991,"minutes</w>":3992,"Egypt</w>":3993,"Irish</w>":3994,"io":3995,"yal</w>":3996,"intell":3997,"miss</w>":3998,"winner</w>":3999,"remain</w>":4000,"Mexico</w>":4001,"LAN":4002,"met</w>":4003,"ert</w>":4004,"networks</w>":4005,"Election</w>":4006,"Dod":4007,"Hop":4008,"sters</w>":4009,"ality</w>":4010,"acking</w>":4011,"iring</w>":4012,"keting</w>":4013,"threatened</w>":4014,"drea":4015,"lth":4016,"shut":4017,"changes</w>":4018,"bly</w>":4019,"victi":4020,"vention</w>":4021,"ept</w>":4022,"ben":4023,"istani</w>":4024,"Dec</w>":4025,"struction</w>":4026,"Hollywood</w>":4027,"Warner</w>":4028,"ja</w>":4029,"visi":4030,"Fe":4031,"ption</w>":4032,"whose</w>":4033,"guard</w>":4034,"What</w>":4035,"homes</w>":4036,"staff</w>":4037,"back":4038,"settle</w>":4039,"AOL</w>":4040,"War</w>":4041,"ss":4042,"tings</w>":4043,"stay</w>":4044,"proposed</w>":4045,"ock</w>":4046,"fiel":4047,"seeking</w>":4048,"suspended</w>":4049,"kidnapped</w>":4050,"tgage</w>":4051,"Stra":4052,"Sum":4053,"Tunes</w>":4054,"gam":4055,"Patriots</w>":4056,"ST":4057,"Sal":4058,"ray</w>":4059,"cip":4060,"Bonds</w>":4061,"arra":4062,"ison</w>":4063,"lem</w>":4064,"leaving</w>":4065,"tra</w>":4066,"Bry":4067,"returned</w>":4068,"SEC</w>":4069,"hundreds</w>":4070,"Vie":4071,"prepa":4072,"huge</w>":4073,"Ukraine</w>":4074,"Ama":4075,"BR":4076,"along</w>":4077,"evidence</w>":4078,"helps</w>":4079,"itors</w>":4080,"goes</w>":4081,"senten":4082,"pace</w>":4083,"gun</w>":4084,"Mich":4085,"Major</w>":4086,"acquire</w>":4087,"supplies</w>":4088,"Masters</w>":4089,"Fed</w>":4090,"udi</w>":4091,"sources</w>":4092,"storm</w>":4093,"PEC</w>":4094,"session</w>":4095,"ria</w>":4096,"offered</w>":4097,"pair</w>":4098,"officer</w>":4099,"Stewart</w>":4100,"Sadr</w>":4101,"rocket</w>":4102,"Qaeda</w>":4103,"DS</w>":4104,"NA</w>":4105,"Sti":4106,"iTunes</w>":4107,"became</w>":4108,"headed</w>":4109,"having</w>":4110,"beating</w>":4111,"remains</w>":4112,"Nigeria</w>":4113,"Firefox</w>":4114,"eg":4115,"nations</w>":4116,"ola":4117,"tery</w>":4118,"Black</w>":4119,"streak</w>":4120,"James</w>":4121,"Oh":4122,"han</w>":4123,"dropped</w>":4124,"mom":4125,"tian</w>":4126,"ilities</w>":4127,"igence</w>":4128,"placed</w>":4129,"anger</w>":4130,"Party</w>":4131,"noon</w>":4132,"course</w>":4133,"GA</w>":4134,"val</w>":4135,"Org":4136,"rejected</w>":4137,"figu":4138,"illegal</w>":4139,"phins</w>":4140,"confidence</w>":4141,"Dal":4142,"citing</w>":4143,"swee":4144,"slow</w>":4145,"code</w>":4146,"assy</w>":4147,"Carolina</w>":4148,"LE":4149,"cleric</w>":4150,"crimin":4151,"safety</w>":4152,"Boo":4153,"LOS</w>":4154,"finance</w>":4155,"Manag":4156,"explosion</w>":4157,"Times</w>":4158,"challenge</w>":4159,"itor</w>":4160,"Dou":4161,"We</w>":4162,"nation":4163,"forms</w>":4164,"device</w>":4165,"serv":4166,"defea":4167,"Jets</w>":4168,"Ram":4169,"pun":4170,"Rob":4171,"ansas</w>":4172,"Despite</w>":4173,"Fall</w>":4174,"Pr":4175,"thqu":4176,"ano</w>":4177,"tie</w>":4178,"rap</w>":4179,"box</w>":4180,"processor</w>":4181,"deficit</w>":4182,"Bre":4183,"environ":4184,"Thail":4185,"project</w>":4186,"hostages</w>":4187,"medical</w>":4188,"Georg":4189,"Defense</w>":4190,"potential</w>":4191,"Christmas</w>":4192,"Eagles</w>":4193,"Cas":4194,"ep</w>":4195,"grea":4196,"enc":4197,"Chech":4198,"parts</w>":4199,"highest</w>":4200,"ANGEL":4201,"fel":4202,"art</w>":4203,"result</w>":4204,"Ohio</w>":4205,"Cy":4206,"Fi</w>":4207,"ail</w>":4208,"thought</w>":4209,"spot</w>":4210,"vez</w>":4211,"soccer</w>":4212,"Thailand</w>":4213,"Dro":4214,"Her":4215,"brought</w>":4216,"ars</w>":4217,"omin":4218,"summer</w>":4219,"ANGELES</w>":4220,"special</w>":4221,"Scot":4222,"Can</w>":4223,"crac":4224,"conflic":4225,"dog</w>":4226,"signific":4227,"secutive</w>":4228,"GM</w>":4229,"IM":4230,"room</w>":4231,"decline</w>":4232,"internet</w>":4233,"interim</w>":4234,"terrorist</w>":4235,"Higher</w>":4236,"scandal</w>":4237,"vol":4238,"doesn</w>":4239,"provider</w>":4240,"millions</w>":4241,"Charg":4242,"futures</w>":4243,"Services</w>":4244,"Haiti</w>":4245,"dispute</w>":4246,"Ti":4247,"states</w>":4248,"ecraft</w>":4249,"adverti":4250,"ials</w>":4251,"team":4252,"isters</w>":4253,"accounting</w>":4254,"Michigan</w>":4255,"13":4256,"EM":4257,"ST</w>":4258,"alled</w>":4259,"ircu":4260,"consecutive</w>":4261,"travel</w>":4262,"electronics</w>":4263,"continues</w>":4264,"Hus":4265,"rying</w>":4266,"wri":4267,"save</w>":4268,"boss</w>":4269,"Enron</w>":4270,"Singap":4271,"Merck</w>":4272,"Ariel</w>":4273,"Donald</w>":4274,"avoid</w>":4275,"proposal</w>":4276,"acquisition</w>":4277,"Agency</w>":4278,"diplom":4279,"PCs</w>":4280,"NL</w>":4281,"floo":4282,"sons</w>":4283,"ackers</w>":4284,"Conference</w>":4285,"director</w>":4286,"Media</w>":4287,"changed</w>":4288,"ldwide</w>":4289,"MSN</w>":4290,"gres":4291,"refu":4292,"bert</w>":4293,"weight</w>":4294,"Nik":4295,"versial</w>":4296,"21":4297,"gain</w>":4298,"them":4299,"memory</w>":4300,"Angels</w>":4301,"carrier</w>":4302,"asts</w>":4303,"nel</w>":4304,"Bea":4305,"Mets</w>":4306,"Ok":4307,"San":4308,"Ur":4309,"erer</w>":4310,"Black":4311,"built</w>":4312,"initial</w>":4313,"commercial</w>":4314,"TOR":4315,"Vic":4316,"sports</w>":4317,"saw</w>":4318,"Corpor":4319,"fully</w>":4320,"BA":4321,"tow":4322,"zen</w>":4323,"moon</w>":4324,"Prix</w>":4325,"Against</w>":4326,"IE":4327,"Oak":4328,"kill</w>":4329,"think</w>":4330,"usi":4331,"shoo":4332,"scheduled</w>":4333,"Last</w>":4334,"hosti":4335,"Execu":4336,"beaten</w>":4337,"funds</w>":4338,"histor":4339,"longer</w>":4340,"Singapore</w>":4341,"izon</w>":4342,"Swed":4343,"appeared</w>":4344,"Wea":4345,"send</w>":4346,"needed</w>":4347,"kept</w>":4348,"striker</w>":4349,"Force</w>":4350,"Saudi</w>":4351,"slightly</w>":4352,"Hamas</w>":4353,"Jas":4354,"bri":4355,"promo":4356,"ight":4357,"total</w>":4358,"host</w>":4359,"Star</w>":4360,"Abu</w>":4361,"application</w>":4362,"Source</w>":4363,"yware</w>":4364,"defin":4365,"compe":4366,"Stores</w>":4367,"tonpost</w>":4368,"Venez":4369,"Venezu":4370,"ite":4371,"washing":4372,"needs</w>":4373,"owner</w>":4374,"immedi":4375,"recently</w>":4376,"washingtonpost</w>":4377,"flo":4378,"him":4379,"ened</w>":4380,"spar":4381,"sees</w>":4382,"plant</w>":4383,"crash</w>":4384,"contrac":4385,"Study</w>":4386,"Set</w>":4387,"sers</w>":4388,"threw</w>":4389,"arriv":4390,"Ivory</w>":4391,"ado</w>":4392,"tog":4393,"guilty</w>":4394,"disappoin":4395,"base</w>":4396,"concern</w>":4397,"Classic</w>":4398,"Dolphins</w>":4399,"important</w>":4400,"kie</w>":4401,"aircraft</w>":4402,"sharing</w>":4403,"broadband</w>":4404,"passed</w>":4405,"asn</w>":4406,"expects</w>":4407,"South":4408,"Greek</w>":4409,"Arab</w>":4410,"problem</w>":4411,"heavy</w>":4412,"Ku":4413,"Week</w>":4414,"hur":4415,"withdraw":4416,"prison":4417,"Pakistani</w>":4418,"Cubs</w>":4419,"issued</w>":4420,"nership</w>":4421,"newspaper</w>":4422,"Ba":4423,"cro":4424,"pack":4425,"rena</w>":4426,"Life</w>":4427,"developed</w>":4428,"border</w>":4429,"Paci":4430,"Federer</w>":4431,"together</w>":4432,"Clu":4433,"sanctions</w>":4434,"torney</w>":4435,"prepar":4436,"While</w>":4437,"Airbus</w>":4438,"appeal</w>":4439,"settlement</w>":4440,"divid":4441,"rain</w>":4442,"ressed</w>":4443,"connec":4444,"sue</w>":4445,"buying</w>":4446,"playoff</w>":4447,"layed</w>":4448,"Gla":4449,"Jav":4450,"Securities</w>":4451,"struck</w>":4452,"Mush":4453,"credit</w>":4454,"ition</w>":4455,"id27":4456,"sector</w>":4457,"proval</w>":4458,"afternoon</w>":4459,"Targ":4460,"eas</w>":4461,"opti":4462,"strial</w>":4463,"North":4464,"develop</w>":4465,"Oakland</w>":4466,"Ninten":4467,"innings</w>":4468,"acy</w>":4469,"ims</w>":4470,"kills</w>":4471,"figures</w>":4472,"himself</w>":4473,"ig</w>":4474,"jun":4475,"sport</w>":4476,"orders</w>":4477,"plat":4478,"id97":4479,"id73":4480,"stead</w>":4481,"published</w>":4482,"Ariz":4483,"iconduc":4484,"CA</w>":4485,"Man</w>":4486,"ean":4487,"nee</w>":4488,"lex</w>":4489,"id23":4490,"Formul":4491,"update</w>":4492,"sharply</w>":4493,"Nintendo</w>":4494,"Formula</w>":4495,"Die":4496,"OPEC</w>":4497,"ared</w>":4498,"vs</w>":4499,"debut</w>":4500,"decla":4501,"engine":4502,"Labor</w>":4503,"Arizona</w>":4504,"id77":4505,"id37":4506,"id67":4507,"Jobs</w>":4508,"web</w>":4509,"jump</w>":4510,"negotiations</w>":4511,"candidate</w>":4512,"Jack":4513,"xing</w>":4514,"below</w>":4515,"linked</w>":4516,"id13":4517,"id17":4518,"ape</w>":4519,"bud":4520,"id63":4521,"kei</w>":4522,"id107":4523,"Martin</w>":4524,"IPO</w>":4525,"PGA</w>":4526,"rel":4527,"Leban":4528,"success</w>":4529,"tonight</w>":4530,"question</w>":4531,"practice</w>":4532,"NYSE</w>":4533,"Nikkei</w>":4534,"Musharra":4535,"Wi</w>":4536,"tough</w>":4537,"insu":4538,"rule</w>":4539,"id57":4540,"id113":4541,"id103":4542,"Moz":4543,"Malay":4544,"Southern</w>":4545,"bombing</w>":4546,"drew</w>":4547,"portun":4548,"features</w>":4549,"manufactu":4550,"assault</w>":4551,"Malaysi":4552,"AI":4553,"Fan":4554,"young</w>":4555,"arms</w>":4556,"icker</w>":4557,"trac":4558,"id33":4559,"id87":4560,"gives</w>":4561,"caused</w>":4562,"Argen":4563,"talk</w>":4564,"moves</w>":4565,"camp</w>":4566,"idge</w>":4567,"chain</w>":4568,"Prote":4569,"voters</w>":4570,"Viox":4571,"passes</w>":4572,"certain</w>":4573,"Vioxx</w>":4574,"Gor":4575,"Tran":4576,"bles</w>":4577,"span</w>":4578,"id93":4579,"id47":4580,"ONTO</w>":4581,"Novell</w>":4582,"Power</w>":4583,"TORONTO</w>":4584,"FON":4585,"lo</w>":4586,"estic</w>":4587,"banks</w>":4588,"solu":4589,"moving</w>":4590,"hostile</w>":4591,"Brow":4592,"PAR":4593,"ented</w>":4594,"roo":4595,"oms</w>":4596,"training</w>":4597,"id83":4598,"id43":4599,"wait</w>":4600,"Fla</w>":4601,"pilots</w>":4602,"revealed</w>":4603,"Musharraf</w>":4604,"Cing":4605,"toll</w>":4606,"inven":4607,"Thom":4608,"id117":4609,"north</w>":4610,"01</w>":4611,"Loc":4612,"oes</w>":4613,"tering</w>":4614,"worst</w>":4615,"poll</w>":4616,"subsid":4617,"controversial</w>":4618,"easy</w>":4619,"Government</w>":4620,"spacecraft</w>":4621,"Gets</w>":4622,"Ve":4623,"live</w>":4624,"tools</w>":4625,"sey</w>":4626,"Earnings</w>":4627,"enterprise</w>":4628,"Cingular</w>":4629,"Hon":4630,"nesses</w>":4631,"tage</w>":4632,"id53":4633,"missile</w>":4634,"aller</w>":4635,"Kansas</w>":4636,"ania</w>":4637,"rement</w>":4638,"island</w>":4639,"planning</w>":4640,"ained</w>":4641,"launches</w>":4642,"seeks</w>":4643,"previous</w>":4644,"inflation</w>":4645,"Pacific</w>":4646,"Jam":4647,"sis</w>":4648,"yard</w>":4649,"cos</w>":4650,"Liver":4651,"south</w>":4652,"About</w>":4653,"pulled</w>":4654,"Ky":4655,"ari</w>":4656,"pose</w>":4657,"improv":4658,"2000</w>":4659,"Produc":4660,"Northern</w>":4661,"Financial</w>":4662,"Amaz":4663,"Kid":4664,"Video</w>":4665,"jects</w>":4666,"rian</w>":4667,"add":4668,"Motor":4669,"joint</w>":4670,"Cut</w>":4671,"Saddam</w>":4672,"FONT</w>":4673,"03</w>":4674,"Rangers</w>":4675,"kings</w>":4676,"uranium</w>":4677,"sional</w>":4678,"resol":4679,"content</w>":4680,"istry</w>":4681,"cau":4682,"Mosco":4683,"Peace</w>":4684,"02</w>":4685,"06</w>":4686,"var":4687,"lift</w>":4688,"perio":4689,"decades</w>":4690,"Expo":4691,"touchdowns</w>":4692,"Fannie</w>":4693,"Mov":4694,"ired</w>":4695,"reduce</w>":4696,"leads</w>":4697,"graph":4698,"Moscow</w>":4699,"Big":4700,"Mag":4701,"these</w>":4702,"line":4703,"itself</w>":4704,"shopping</w>":4705,"centur":4706,"Radio</w>":4707,"DA</w>":4708,"backed</w>":4709,"gri":4710,"stly</w>":4711,"improve</w>":4712,"Republican</w>":4713,"Dame</w>":4714,"OT":4715,"bab":4716,"rict</w>":4717,"mode":4718,"Notre</w>":4719,"Plans</w>":4720,"Health</w>":4721,"introduced</w>":4722,"shareholders</w>":4723,"Pack":4724,"bird</w>":4725,"core</w>":4726,"foun":4727,"lear":4728,"spent</w>":4729,"offs</w>":4730,"venture</w>":4731,"weather</w>":4732,"ALE":4733,"questions</w>":4734,"insurgents</w>":4735,"slu":4736,"ladi":4737,"lett</w>":4738,"pati":4739,"tually</w>":4740,"Energy</w>":4741,"Bryant</w>":4742,"PS":4743,"aring</w>":4744,"ask</w>":4745,"protest</w>":4746,"tah</w>":4747,"paid</w>":4748,"operator</w>":4749,"Roger</w>":4750,"gir":4751,"ital":4752,"inging</w>":4753,"announce</w>":4754,"fication</w>":4755,"minute</w>":4756,"Clevel":4757,"ny</w>":4758,"prec":4759,"oping</w>":4760,"Devel":4761,"Justice</w>":4762,"Cleveland</w>":4763,"ge":4764,"things</w>":4765,"ordered</w>":4766,"worries</w>":4767,"iller</w>":4768,"seek</w>":4769,"09</w>":4770,"Utah</w>":4771,"blow</w>":4772,"mo</w>":4773,"setting</w>":4774,"ORE</w>":4775,"decade</w>":4776,"Tom</w>":4777,"integra":4778,"complete</w>":4779,"planes</w>":4780,"iconductor</w>":4781,"Amazon</w>":4782,"22":4783,"OK</w>":4784,"anes</w>":4785,"oul":4786,"secure</w>":4787,"akers</w>":4788,"flu</w>":4789,"Verizon</w>":4790,"Middle</w>":4791,"Pay":4792,"terms</w>":4793,"recovery</w>":4794,"Market</w>":4795,"helping</w>":4796,"Expos</w>":4797,"Kills</w>":4798,"sures</w>":4799,"Super":4800,"goals</w>":4801,"Colom":4802,"scho":4803,"responsi":4804,"strategy</w>":4805,"Dodgers</w>":4806,"Dallas</w>":4807,"23":4808,"So</w>":4809,"TS</w>":4810,"Tim</w>":4811,"by":4812,"inet</w>":4813,"lades":4814,"determin":4815,"rich</w>":4816,"movie</w>":4817,"view":4818,"programs</w>":4819,"popu":4820,"Banglades":4821,"fielder</w>":4822,"Get</w>":4823,"MOS":4824,"prin":4825,"orig":4826,"armed</w>":4827,"acker</w>":4828,"proper":4829,"Into</w>":4830,"surpris":4831,"accep":4832,"sending</w>":4833,"Iraqis</w>":4834,"Plan</w>":4835,"extended</w>":4836,"independ":4837,"Jason</w>":4838,"ladimir</w>":4839,"Free</w>":4840,"tack":4841,"itt</w>":4842,"conduc":4843,"breaking</w>":4844,"Mur":4845,"kies</w>":4846,"raising</w>":4847,"urs</w>":4848,"calling</w>":4849,"showing</w>":4850,"probably</w>":4851,"protection</w>":4852,"files</w>":4853,"photo":4854,"Chair":4855,"mitted</w>":4856,"massive</w>":4857,"Kn":4858,"Kong</w>":4859,"mp</w>":4860,"ume</w>":4861,"scra":4862,"warns</w>":4863,"ancing</w>":4864,"Prize</w>":4865,"broke</w>":4866,"positive</w>":4867,"stronau":4868,"FT</w>":4869,"Hong</w>":4870,"Over":4871,"tool</w>":4872,"satellite</w>":4873,"plays</w>":4874,"ulner":4875,"serious</w>":4876,"subscri":4877,"Annan</w>":4878,"Liverpool</w>":4879,"CN":4880,"Fre":4881,"Vladimir</w>":4882,"ays</w>":4883,"sung</w>":4884,"seconds</w>":4885,"pper</w>":4886,"mission":4887,"burgh</w>":4888,"Technologies</w>":4889,"phoon</w>":4890,"surgery</w>":4891,"Car</w>":4892,"Gun":4893,"hour</w>":4894,"voy</w>":4895,"remained</w>":4896,"Citi":4897,"gl":4898,"hi</w>":4899,"mid</w>":4900,"yen</w>":4901,"rests</w>":4902,"Reta":4903,"rough":4904,"domestic</w>":4905,"Growth</w>":4906,"conflict</w>":4907,"hurt</w>":4908,"tac":4909,"ola</w>":4910,"miles</w>":4911,"computing</w>":4912,"Cuts</w>":4913,"damage</w>":4914,"Hewlett</w>":4915,"something</w>":4916,"impact</w>":4917,"Consumer</w>":4918,"different</w>":4919,"Chairman</w>":4920,"08</w>":4921,"AM</w>":4922,"cat":4923,"cricket</w>":4924,"moun":4925,"lays</w>":4926,"iry</w>":4927,"earthqu":4928,"approval</w>":4929,"rick</w>":4930,"hole</w>":4931,"Division</w>":4932,"targets</w>":4933,"Greenspan</w>":4934,"Still</w>":4935,"historic</w>":4936,"Mozilla</w>":4937,"knee</w>":4938,"sen</w>":4939,"tit":4940,"simp":4941,"overs</w>":4942,"edly</w>":4943,"maj":4944,"ump</w>":4945,"beginning</w>":4946,"Indonesian</w>":4947,"Bid</w>":4948,"Old</w>":4949,"cle</w>":4950,"tenn":4951,"tribu":4952,"Colin</w>":4953,"collap":4954,"web":4955,"structure</w>":4956,"GO":4957,"replace</w>":4958,"iscal</w>":4959,"Sees</w>":4960,"appears</w>":4961,"refug":4962,"SBC</w>":4963,"tively</w>":4964,"words</w>":4965,"expand</w>":4966,"cutting</w>":4967,"tric</w>":4968,"trip</w>":4969,"producer</w>":4970,"College</w>":4971,"dick</w>":4972,"hoping</w>":4973,"urricanes</w>":4974,"arrived</w>":4975,"Packard</w>":4976,"Hits</w>":4977,"cre":4978,"agree</w>":4979,"eman</w>":4980,"Microsystems</w>":4981,"legis":4982,"output</w>":4983,"facing</w>":4984,"books</w>":4985,"discovered</w>":4986,"believe</w>":4987,"Samsung</w>":4988,"Gul":4989,"dan</w>":4990,"abinet</w>":4991,"surprise</w>":4992,"DAY</w>":4993,"journal":4994,"How</w>":4995,"hot</w>":4996,"jet</w>":4997,"ues</w>":4998,"xth</w>":4999,"isn</w>":5000,"Lead</w>":5001,"jail</w>":5002,"protect</w>":5003,"troubled</w>":5004,"relief</w>":5005,"June</w>":5006,"hon":5007,"ka</w>":5008,"why</w>":5009,"Nep":5010,"Jose</w>":5011,"berg</w>":5012,"Pitts":5013,"period</w>":5014,"His</w>":5015,"ctic</w>":5016,"uation</w>":5017,"wks</w>":5018,"ole</w>":5019,"Are</w>":5020,"docum":5021,"Virgin</w>":5022,"civil</w>":5023,"FO":5024,"Rises</w>":5025,"ici":5026,"oppon":5027,"promp":5028,"Motor</w>":5029,"tried</w>":5030,"mortgage</w>":5031,"critic":5032,"watch":5033,"Industry</w>":5034,"Georgia</w>":5035,"Lank":5036,"Million</w>":5037,"Of</w>":5038,"ah</w>":5039,"done</w>":5040,"rest":5041,"ental</w>":5042,"astest</w>":5043,"eeks</w>":5044,"2001</w>":5045,"2002</w>":5046,"Color":5047,"Sudanese</w>":5048,"Bomb</w>":5049,"Eas":5050,"wounding</w>":5051,"college</w>":5052,"lawsuits</w>":5053,"program":5054,"Braves</w>":5055,"film</w>":5056,"targe":5057,"Desktop</w>":5058,"ACE</w>":5059,"Vote</w>":5060,"ins":5061,"orn</w>":5062,"orrow</w>":5063,"iss</w>":5064,"apol":5065,"Martin":5066,"Toshi":5067,"exploded</w>":5068,"block</w>":5069,"Price</w>":5070,"Club</w>":5071,"PH":5072,"top":5073,"rupt</w>":5074,"worldwide</w>":5075,"Coach</w>":5076,"ldn</w>":5077,"Broad":5078,"panel</w>":5079,"Hewitt</w>":5080,"Hom":5081,"Kaz":5082,"Rem":5083,"Wom":5084,"Western</w>":5085,"bow":5086,"fee":5087,"stad":5088,"size</w>":5089,"Board</w>":5090,"Mae</w>":5091,"Posts</w>":5092,"keeping</w>":5093,"soldier</w>":5094,"deadline</w>":5095,"Treasury</w>":5096,"150</w>":5097,"Hum":5098,"Manning</w>":5099,"tests</w>":5100,"ection</w>":5101,"highs</w>":5102,"English</w>":5103,"Explorer</w>":5104,"Pittsburgh</w>":5105,"Toshiba</w>":5106,"250</w>":5107,"Food</w>":5108,"Lad":5109,"Sem":5110,"fiscal</w>":5111,"hands</w>":5112,"lor</w>":5113,"rig":5114,"sn":5115,"lins</w>":5116,"allowed</w>":5117,"agu":5118,"voting</w>":5119,"Outlook</w>":5120,"Roddick</w>":5121,"CS</w>":5122,"Hy":5123,"mn":5124,"lahom":5125,"progress</w>":5126,"dev":5127,"mod":5128,"bury</w>":5129,"athle":5130,"consider</w>":5131,"Oklahom":5132,"07</w>":5133,"Vs</w>":5134,"represen":5135,"ling":5136,"compla":5137,"seven":5138,"rently</w>":5139,"mine</w>":5140,"viola":5141,"athon</w>":5142,"deadly</w>":5143,"richment</w>":5144,"Colorado</w>":5145,"Fil":5146,"zone</w>":5147,"tha</w>":5148,"convic":5149,"poor</w>":5150,"surge</w>":5151,"Another</w>":5152,"heating</w>":5153,"Colum":5154,"Loss</w>":5155,"CAR</w>":5156,"murder</w>":5157,"Oklahoma</w>":5158,"CD</w>":5159,"RI":5160,"Zim":5161,"la</w>":5162,"tops</w>":5163,"heading</w>":5164,"parliament</w>":5165,"alition</w>":5166,"descri":5167,"announcement</w>":5168,"aches</w>":5169,"struggling</w>":5170,"NAT":5171,"oned</w>":5172,"timore</w>":5173,"Inv":5174,"delayed</w>":5175,"demands</w>":5176,"skins</w>":5177,"Baltimore</w>":5178,"purchase</w>":5179,"bre":5180,"non</w>":5181,"amb":5182,"neigh":5183,"rescu":5184,"veter":5185,"steps</w>":5186,"auction</w>":5187,"pension</w>":5188,"wild</w>":5189,"download</w>":5190,"Dan":5191,"Fa":5192,"Judge</w>":5193,"em</w>":5194,"via</w>":5195,"adop":5196,"traff":5197,"Most</w>":5198,"count</w>":5199,"etary</w>":5200,"knoc":5201,"handed</w>":5202,"MOSCO":5203,"fs</w>":5204,"gar":5205,"tour</w>":5206,"orial</w>":5207,"specu":5208,"Percent</w>":5209,"Just</w>":5210,"Lower</w>":5211,"intelligence</w>":5212,"Organiz":5213,"PARIS</w>":5214,"Zimbab":5215,"MOSCOW</w>":5216,"bun":5217,"esp":5218,"consol":5219,"lew</w>":5220,"Chall":5221,"tens</w>":5222,"turns</w>":5223,"Marsh</w>":5224,"Palm":5225,"details</w>":5226,"Tennes":5227,"Gulf</w>":5228,"Pres":5229,"Sri</w>":5230,"owners</w>":5231,"marketing</w>":5232,"Stand":5233,"militi":5234,"flights</w>":5235,"developing</w>":5236,"critical</w>":5237,"suffered</w>":5238,"message</w>":5239,"advertising</w>":5240,"Fra":5241,"Near</w>":5242,"falling</w>":5243,"sson</w>":5244,"stone</w>":5245,"add</w>":5246,"ditions</w>":5247,"finish</w>":5248,"mary</w>":5249,"Tigers</w>":5250,"Digital</w>":5251,"Vol":5252,"ex</w>":5253,"answ":5254,"ero":5255,"erous</w>":5256,"onstra":5257,"resolution</w>":5258,"pitcher</w>":5259,"budget</w>":5260,"Il":5261,"stle</w>":5262,"alty</w>":5263,"traders</w>":5264,"Motors</w>":5265,"elected</w>":5266,"Five</w>":5267,"Falluja</w>":5268,"Premier</w>":5269,"Read":5270,"cable</w>":5271,"hman</w>":5272,"ective</w>":5273,"lets</w>":5274,"work":5275,"plead":5276,"Deb":5277,"Express</w>":5278,"looked</w>":5279,"ALL":5280,"Investors</w>":5281,"victims</w>":5282,"Diego</w>":5283,"Tennessee</w>":5284,"eth":5285,"wic":5286,"inth</w>":5287,"ocracy</w>":5288,"expan":5289,"reportedly</w>":5290,"bombs</w>":5291,"swit":5292,"labor</w>":5293,"Cal":5294,"Take</w>":5295,"scienti":5296,"wis</w>":5297,"rob":5298,"ministers</w>":5299,"May":5300,"NASCAR</w>":5301,"Pacers</w>":5302,"qualifying</w>":5303,"Bangladesh</w>":5304,"Os":5305,"labor":5306,"aries</w>":5307,"ples</w>":5308,"filing</w>":5309,"selves</w>":5310,"iliar</w>":5311,"opener</w>":5312,"Syria</w>":5313,"telephone</w>":5314,"summit</w>":5315,"Philippines</w>":5316,"Wel":5317,"fts</w>":5318,"tum":5319,"testing</w>":5320,"ories</w>":5321,"oney</w>":5322,"standing</w>":5323,"ign":5324,"sixth</w>":5325,"driver</w>":5326,"Associates</w>":5327,"champions</w>":5328,"standard</w>":5329,"Smith</w>":5330,"Java</w>":5331,"600</w>":5332,"II</w>":5333,"ela</w>":5334,"image</w>":5335,"boys</w>":5336,"tran":5337,"quarters</w>":5338,"tiny</w>":5339,"BER</w>":5340,"Egyp":5341,"Corporation</w>":5342,"vulner":5343,"ingly</w>":5344,"offense</w>":5345,"species</w>":5346,"views</w>":5347,"numbers</w>":5348,"ABU":5349,"Executive</w>":5350,"Gri":5351,"Ped":5352,"inside</w>":5353,"warming</w>":5354,"Saturn</w>":5355,"Nortel</w>":5356,"levels</w>":5357,"century</w>":5358,"seventh</w>":5359,"Bears</w>":5360,"eigh":5361,"ral":5362,"anim":5363,"ange</w>":5364,"atab":5365,"twice</w>":5366,"cities</w>":5367,"Bob":5368,"flat</w>":5369,"Trophy</w>":5370,"Atlantic</w>":5371,"Beck":5372,"Could</w>":5373,"DE":5374,"Mal":5375,"SM":5376,"crew</w>":5377,"fect</w>":5378,"yond</w>":5379,"ort</w>":5380,"person</w>":5381,"Martha</w>":5382,"polls</w>":5383,"Contin":5384,"voted</w>":5385,"check</w>":5386,"prepared</w>":5387,"Ey":5388,"Morg":5389,"grew</w>":5390,"wn</w>":5391,"ences</w>":5392,"ecting</w>":5393,"exchange</w>":5394,"Philli":5395,"lawi</w>":5396,"tennis</w>":5397,"AA</w>":5398,"CR":5399,"Dam":5400,"Er":5401,"Mul":5402,"Ten":5403,"Zi":5404,"ommunications</w>":5405,"elds</w>":5406,"agent</w>":5407,"threats</w>":5408,"native</w>":5409,"Richard</w>":5410,"3G</w>":5411,"Rav":5412,"chea":5413,"resp":5414,"abilities</w>":5415,"Field</w>":5416,"Case</w>":5417,"Ev":5418,"Jor":5419,"Killed</w>":5420,"gic</w>":5421,"mus":5422,"areas</w>":5423,"Stu":5424,"Allawi</w>":5425,"Post</w>":5426,"Before</w>":5427,"mental</w>":5428,"screen</w>":5429,"discuss</w>":5430,"bol":5431,"quick":5432,"Chil":5433,"Anti</w>":5434,"province</w>":5435,"begins</w>":5436,"allegations</w>":5437,"experi":5438,"Eri":5439,"Watch</w>":5440,"income</w>":5441,"repla":5442,"par</w>":5443,"Commit":5444,"considering</w>":5445,"Leader</w>":5446,"Wales</w>":5447,"ests</w>":5448,"fastest</w>":5449,"thin":5450,"exports</w>":5451,"score</w>":5452,"familiar</w>":5453,"value</w>":5454,"Redskins</w>":5455,"platform</w>":5456,"watchdog</w>":5457,"blue</w>":5458,"gged</w>":5459,"becoming</w>":5460,"arrest</w>":5461,"user</w>":5462,"patent</w>":5463,"hotel</w>":5464,"joined</w>":5465,"Ministry</w>":5466,"common</w>":5467,"Twins</w>":5468,"Holdings</w>":5469,"students</w>":5470,"advanced</w>":5471,"benefits</w>":5472,"themselves</w>":5473,"expansion</w>":5474,"Brea":5475,"SA</w>":5476,"Sla":5477,"oning</w>":5478,"spea":5479,"id111":5480,"turning</w>":5481,"finished</w>":5482,"battled</w>":5483,"climate</w>":5484,"Storm</w>":5485,"Kre":5486,"bru":5487,"ninth</w>":5488,"id81":5489,"id61":5490,"stars</w>":5491,"Bron":5492,"upset</w>":5493,"cars</w>":5494,"Steel":5495,"upgrade</w>":5496,"significant</w>":5497,"Morgan</w>":5498,"700</w>":5499,"CC</w>":5500,"Hat</w>":5501,"kins</w>":5502,"ordin":5503,"story</w>":5504,"style</w>":5505,"assets</w>":5506,"Inte":5507,"sex</w>":5508,"word</w>":5509,"id71":5510,"cipa":5511,"Indiana</w>":5512,"defensive</w>":5513,"Falls</w>":5514,"ITY</w>":5515,"defeated</w>":5516,"ier</w>":5517,"instead</w>":5518,"tec":5519,"eased</w>":5520,"review</w>":5521,"limin":5522,"advis":5523,"id21":5524,"Commer":5525,"airport</w>":5526,"ruption</w>":5527,"copy":5528,"Shiite</w>":5529,"community</w>":5530,"Valley</w>":5531,"seems</w>":5532,"currency</w>":5533,"Committee</w>":5534,"BI</w>":5535,"Bul":5536,"bings</w>":5537,"euro":5538,"tebook</w>":5539,"los</w>":5540,"id31":5541,"display</w>":5542,"rowing</w>":5543,"Seen</w>":5544,"class</w>":5545,"Second</w>":5546,"tically</w>":5547,"Cuba</w>":5548,"Charles</w>":5549,"completed</w>":5550,"witnesses</w>":5551,"Beckham</w>":5552,"King</w>":5553,"ki</w>":5554,"rez</w>":5555,"renew":5556,"icop":5557,"id91":5558,"id41":5559,"residents</w>":5560,"March</w>":5561,"scoring</w>":5562,"attered</w>":5563,"semi":5564,"missioner</w>":5565,"Mass":5566,"Sen</w>":5567,"fran":5568,"gus":5569,"names</w>":5570,"opportun":5571,"slide</w>":5572,"crucial</w>":5573,"sharp</w>":5574,"SPACE</w>":5575,"Player</w>":5576,"heim</w>":5577,"criminal</w>":5578,"optimis":5579,"Argentin":5580,"Gates</w>":5581,"Loo":5582,"Plu":5583,"gen</w>":5584,"enrichment</w>":5585,"id92":5586,"id32":5587,"foot</w>":5588,"ATO":5589,"demonstra":5590,"regular</w>":5591,"SP2</w>":5592,"crowd</w>":5593,"Gam":5594,"repea":5595,"id51":5596,"ude</w>":5597,"prev":5598,"With":5599,"Schilling</w>":5600,"Hamm</w>":5601,"Kenne":5602,"OL":5603,"enty</w>":5604,"owed</w>":5605,"tioned</w>":5606,"ize</w>":5607,"azine</w>":5608,"homer</w>":5609,"stroke</w>":5610,"Batt":5611,"IJ":5612,"NY</w>":5613,"Telec":5614,"bran":5615,"jus":5616,"lity</w>":5617,"mig":5618,"pull</w>":5619,"bel":5620,"often</w>":5621,"matic</w>":5622,"id112":5623,"Austri":5624,"closing</w>":5625,"Royal</w>":5626,"Phone</w>":5627,"direct</w>":5628,"antitrust</w>":5629,"challeng":5630,"Fund</w>":5631,"records</w>":5632,"Zimbabwe</w>":5633,"AW":5634,"yon":5635,"argu":5636,"icon</w>":5637,"extra</w>":5638,"formed</w>":5639,"id82":5640,"id42":5641,"doing</w>":5642,"profes":5643,"fair</w>":5644,"dering</w>":5645,"black</w>":5646,"Power":5647,"tomorrow</w>":5648,"successful</w>":5649,"ALEM</w>":5650,"Hit</w>":5651,"nar":5652,"ural</w>":5653,"roll</w>":5654,"tract</w>":5655,"Andy</w>":5656,"eff</w>":5657,"cards</w>":5658,"Lines</w>":5659,"halt</w>":5660,"format</w>":5661,"Golf</w>":5662,"Nigerian</w>":5663,"Titan</w>":5664,"previously</w>":5665,"Husse":5666,"declared</w>":5667,"Dow":5668,"Kill</w>":5669,"faster</w>":5670,"za</w>":5671,"allows</w>":5672,"id52":5673,"id101":5674,"anda</w>":5675,"peace":5676,"aching</w>":5677,"nothing</w>":5678,"Hamid</w>":5679,"schedule</w>":5680,"Nuclear</w>":5681,"Martinez</w>":5682,"Alan</w>":5683,"Long</w>":5684,"Pin":5685,"Ticker</w>":5686,"hurricane</w>":5687,"ix</w>":5688,"rap":5689,"ash</w>":5690,"Reports</w>":5691,"id22":5692,"id102":5693,"Probe</w>":5694,"banking</w>":5695,"fail":5696,"gging</w>":5697,"antage</w>":5698,"created</w>":5699,"Turk":5700,"promised</w>":5701,"really</w>":5702,"package</w>":5703,"Pedro</w>":5704,"He":5705,"JER":5706,"Pur":5707,"science</w>":5708,"delay</w>":5709,"sev":5710,"id72":5711,"string</w>":5712,"bodies</w>":5713,"counter":5714,"bean</w>":5715,"Barry</w>":5716,"retailers</w>":5717,"influ":5718,"licen":5719,"blood</w>":5720,"Ravens</w>":5721,"Cricket</w>":5722,"Mun":5723,"Tali":5724,"gone</w>":5725,"rine</w>":5726,"onships</w>":5727,"id12":5728,"resume</w>":5729,"dual</w>":5730,"scape</w>":5731,"include</w>":5732,"Associated</w>":5733,"Six</w>":5734,"Players</w>":5735,"Start</w>":5736,"Cassin":5737,"FI":5738,"Mem":5739,"ually</w>":5740,"mater":5741,"iefs</w>":5742,"ature</w>":5743,"Colts</w>":5744,"160</w>":5745,"Satellite</w>":5746,"Direc":5747,"manufacturing</w>":5748,"Chris</w>":5749,"Taliban</w>":5750,"options</w>":5751,"disease</w>":5752,"electronic</w>":5753,"scores</w>":5754,"Athle":5755,"awaited</w>":5756,"Prince</w>":5757,"JERUS":5758,"Cassini</w>":5759,"Clin":5760,"Vis":5761,"Wrap</w>":5762,"daf":5763,"lus":5764,"pro</w>":5765,"rong</w>":5766,"thanks</w>":5767,"tile</w>":5768,"loy":5769,"Micro</w>":5770,"Congo</w>":5771,"north":5772,"eyes</w>":5773,"eighth</w>":5774,"Has</w>":5775,"acity</w>":5776,"iro</w>":5777,"ound":5778,"Next</w>":5779,"id62":5780,"clash</w>":5781,"strikes</w>":5782,"Rooney</w>":5783,"bringing</w>":5784,"mixed</w>":5785,"priority</w>":5786,"emergency</w>":5787,"Militants</w>":5788,"Attack</w>":5789,"AD</w>":5790,"Clem":5791,"Ds</w>":5792,"Je":5793,"Jeff</w>":5794,"Kev":5795,"Oper":5796,"Phelps</w>":5797,"Tom":5798,"rated</w>":5799,"che":5800,"owned</w>":5801,"Frances</w>":5802,"expect</w>":5803,"holds</w>":5804,"Web":5805,"USATO":5806,"returns</w>":5807,"Vodaf":5808,"Chip</w>":5809,"documents</w>":5810,"USATODAY</w>":5811,"Sel":5812,"bought</w>":5813,"jay</w>":5814,"van</w>":5815,"watch</w>":5816,"eration</w>":5817,"lit</w>":5818,"dul":5819,"Contro":5820,"upda":5821,"denied</w>":5822,"treatment</w>":5823,"diffic":5824,"Econom":5825,"Lanka</w>":5826,"cipated</w>":5827,"JERUSALEM</w>":5828,"Vodafone</w>":5829,"AG</w>":5830,"Alex</w>":5831,"Bay":5832,"bin</w>":5833,"fig":5834,"jud":5835,"remo":5836,"assist":5837,"train</w>":5838,"deals</w>":5839,"sought</w>":5840,"Electronics</w>":5841,"strength</w>":5842,"quickly</w>":5843,"Hor":5844,"Takes</w>":5845,"cents</w>":5846,"ysl":5847,"eled</w>":5848,"ried</w>":5849,"shut</w>":5850,"crashed</w>":5851,"customer</w>":5852,"extend</w>":5853,"Kevin</w>":5854,"Sain":5855,"eback</w>":5856,"sear":5857,"lace</w>":5858,"conditions</w>":5859,"vered</w>":5860,"aliz":5861,"Exten":5862,"sides</w>":5863,"Lewis</w>":5864,"forecasts</w>":5865,"Organization</w>":5866,"Euro</w>":5867,"Hi":5868,"Nav":5869,"PT</w>":5870,"pre</w>":5871,"ints</w>":5872,"tec</w>":5873,"outh</w>":5874,"stun":5875,"sued</w>":5876,"Buil":5877,"Engine</w>":5878,"Swiss</w>":5879,"receiver</w>":5880,"peer</w>":5881,"matter</w>":5882,"approach</w>":5883,"Citigroup</w>":5884,"traffic</w>":5885,"Hussein</w>":5886,"Aid</w>":5887,"FOR":5888,"Rally</w>":5889,"goods</w>":5890,"len</w>":5891,"arti":5892,"alties</w>":5893,"raises</w>":5894,"dup</w>":5895,"castle</w>":5896,"Today</w>":5897,"weak</w>":5898,"BEIJ":5899,"Death</w>":5900,"Susp":5901,"Motorola</w>":5902,"Argentina</w>":5903,"BEIJING</w>":5904,"Cou":5905,"Low</w>":5906,"bbed</w>":5907,"rare</w>":5908,"tan":5909,"iners</w>":5910,"tigh":5911,"alist</w>":5912,"omer":5913,"exc":5914,"stead":5915,"Carlos</w>":5916,"coura":5917,"preparing</w>":5918,"AV":5919,"Cell</w>":5920,"Zar":5921,"bble</w>":5922,"conten":5923,"impl":5924,"Store</w>":5925,"Ana":5926,"ogra":5927,"Spec":5928,"industrial</w>":5929,"System</w>":5930,"activity</w>":5931,"apparently</w>":5932,"Laden</w>":5933,"fru":5934,"mass</w>":5935,"nam</w>":5936,"Third</w>":5937,"sues</w>":5938,"dios</w>":5939,"spyware</w>":5940,"coalition</w>":5941,"Lions</w>":5942,"Play</w>":5943,"Packers</w>":5944,"jumped</w>":5945,"Update1</w>":5946,"believed</w>":5947,"Steelers</w>":5948,"Turkish</w>":5949,"Cli":5950,"Mit":5951,"Miller</w>":5952,"slow":5953,"quiry</w>":5954,"And":5955,"starts</w>":5956,"interview</w>":5957,"techn":5958,"handheld</w>":5959,"Bigley</w>":5960,"Jagu":5961,"SH":5962,"atic</w>":5963,"mic":5964,"zer":5965,"entered</w>":5966,"tis":5967,"Sup":5968,"decide</w>":5969,"Troops</w>":5970,"candidates</w>":5971,"Scotland</w>":5972,"CNN</w>":5973,"majority</w>":5974,"atabase</w>":5975,"Bran":5976,"Cro":5977,"Go</w>":5978,"Jacqu":5979,"Wenger</w>":5980,"ak</w>":5981,"dang":5982,"eBay</w>":5983,"ho</w>":5984,"tton</w>":5985,"inj":5986,"cons":5987,"adding</w>":5988,"Auburn</w>":5989,"Robert</w>":5990,"democracy</w>":5991,"upcoming</w>":5992,"managers</w>":5993,"USA</w>":5994,"control":5995,"eye</w>":5996,"doctors</w>":5997,"Anaheim</w>":5998,"Cur":5999,"Sl":6000,"Rebels</w>":6001,"works</w>":6002,"appear</w>":6003,"employment</w>":6004,"certain":6005,"believes</w>":6006,"Dist":6007,"ib":6008,"nov":6009,"won":6010,"ena</w>":6011,"esis</w>":6012,"ood":6013,"ampa</w>":6014,"rett</w>":6015,"model</w>":6016,"CITY</w>":6017,"Mel":6018,"Penn":6019,"astronau":6020,"anci":6021,"begun</w>":6022,"although</w>":6023,"Analy":6024,"helicop":6025,"faced</w>":6026,"draft</w>":6027,"aims</w>":6028,"allegedly</w>":6029,"Rand":6030,"pick</w>":6031,"erce</w>":6032,"atus</w>":6033,"sives</w>":6034,"shel":6035,"admitted</w>":6036,"ley":6037,"rises</w>":6038,"wave</w>":6039,"carrying</w>":6040,"School</w>":6041,"experim":6042,"Craig</w>":6043,"Venezuela</w>":6044,"Tampa</w>":6045,"sex":6046,"teen":6047,"tices</w>":6048,"itzer</w>":6049,"abuse</w>":6050,"fine</w>":6051,"Joe</w>":6052,"146</w>":6053,"Newcastle</w>":6054,"promise</w>":6055,"Chrysl":6056,"Quarter</w>":6057,"independent</w>":6058,"devast":6059,"Jew":6060,"Sir</w>":6061,"ni</w>":6062,"nt</w>":6063,"tner</w>":6064,"atory</w>":6065,"sists</w>":6066,"tape</w>":6067,"seeded</w>":6068,"incin":6069,"design</w>":6070,"Administration</w>":6071,"Chrysler</w>":6072,"800</w>":6073,"ED</w>":6074,"Pay</w>":6075,"dig":6076,"jan</w>":6077,"always</w>":6078,"quit</w>":6079,"col</w>":6080,"coast</w>":6081,"Montrea":6082,"puts</w>":6083,"sely</w>":6084,"piracy</w>":6085,"regional</w>":6086,"grand</w>":6087,"retirement</w>":6088,"Develop":6089,"Cincin":6090,"Pist":6091,"kel":6092,"escap":6093,"owl":6094,"aded</w>":6095,"seed</w>":6096,"overtime</w>":6097,"even":6098,"wife</w>":6099,"partnership</w>":6100,"Ship":6101,"processors</w>":6102,"Premiership</w>":6103,"nati</w>":6104,"Malaysia</w>":6105,"origin":6106,"Montreal</w>":6107,"Cincinnati</w>":6108,"Iran":6109,"Jaz":6110,"cation</w>":6111,"cover</w>":6112,"outs</w>":6113,"ammers</w>":6114,"Info":6115,"cancer</w>":6116,"shooting</w>":6117,"prisoners</w>":6118,"Kyo":6119,"LA</w>":6120,"pes</w>":6121,"one":6122,"sty</w>":6123,"deep</w>":6124,"imin":6125,"putting</w>":6126,"racing</w>":6127,"scen":6128,"estab":6129,"voice</w>":6130,"withdraw</w>":6131,"movies</w>":6132,"smaller</w>":6133,"hearing</w>":6134,"freed</w>":6135,"Strike</w>":6136,"involved</w>":6137,"speculation</w>":6138,"Ziff</w>":6139,"Jour":6140,"Kmart</w>":6141,"mal":6142,"ry":6143,"rd</w>":6144,"enter</w>":6145,"rive</w>":6146,"extre":6147,"reason</w>":6148,"tocol</w>":6149,"includes</w>":6150,"Again</w>":6151,"unions</w>":6152,"Pistons</w>":6153,"Hockey</w>":6154,"Mo</w>":6155,"PA</w>":6156,"Pro</w>":6157,"Rap":6158,"stop":6159,"opens</w>":6160,"sation</w>":6161,"eding</w>":6162,"votes</w>":6163,"broken</w>":6164,"Under</w>":6165,"entertainment</w>":6166,"request</w>":6167,"Hall</w>":6168,"Sim":6169,"len":6170,"mand":6171,"laws</w>":6172,"reduc":6173,"oud</w>":6174,"spend</w>":6175,"estimates</w>":6176,"Forec":6177,"anticipated</w>":6178,"advantage</w>":6179,"villa":6180,"favor":6181,"embassy</w>":6182,"immediately</w>":6183,"remote</w>":6184,"Ado":6185,"BUR":6186,"Seven</w>":6187,"option</w>":6188,"buys</w>":6189,"argo</w>":6190,"territ":6191,"advance</w>":6192,"pitch</w>":6193,"organization</w>":6194,"Egyptian</w>":6195,"Don</w>":6196,"Your</w>":6197,"eful</w>":6198,"sal":6199,"tight</w>":6200,"Republic</w>":6201,"puty</w>":6202,"capacity</w>":6203,"Nobel</w>":6204,"investigating</w>":6205,"golf</w>":6206,"sugges":6207,"withdrawal</w>":6208,"Adobe</w>":6209,"Dra":6210,"circu":6211,"elimin":6212,"living</w>":6213,"mated</w>":6214,"plun":6215,"boy</w>":6216,"Leg":6217,"versary</w>":6218,"tivity</w>":6219,"pushed</w>":6220,"Launches</w>":6221,"machines</w>":6222,"usive</w>":6223,"Dun":6224,"Jan</w>":6225,"Say</w>":6226,"grow</w>":6227,"individ":6228,"archi":6229,"oundup</w>":6230,"deploy":6231,"surged</w>":6232,"mutual</w>":6233,"deliver</w>":6234,"trouble</w>":6235,"veteran</w>":6236,"IE</w>":6237,"OM":6238,"Sears</w>":6239,"UE":6240,"ker":6241,"acu":6242,"expor":6243,"occu":6244,"Supp":6245,"Make</w>":6246,"developer</w>":6247,"Guard</w>":6248,"singly</w>":6249,"stitute</w>":6250,"activities</w>":6251,"Launch</w>":6252,"Bol":6253,"Em":6254,"sit":6255,"heads</w>":6256,"elled</w>":6257,"unbeaten</w>":6258,"rives</w>":6259,"ope</w>":6260,"ingham</w>":6261,"serve</w>":6262,"Sett":6263,"defending</w>":6264,"break":6265,"crimes</w>":6266,"short":6267,"standards</w>":6268,"hardware</w>":6269,"armace":6270,"Target</w>":6271,"Illin":6272,"Billion</w>":6273,"BAL":6274,"Els</w>":6275,"Mour":6276,"Way":6277,"gas":6278,"gate</w>":6279,"iev":6280,"wl</w>":6281,"simi":6282,"leaves</w>":6283,"key":6284,"tened</w>":6285,"parties</w>":6286,"overnight</w>":6287,"Super</w>":6288,"fore":6289,"Kobe</w>":6290,"versal</w>":6291,"Edwards</w>":6292,"matches</w>":6293,"Myan":6294,"MP3</w>":6295,"awi</w>":6296,"Drop</w>":6297,"LC</w>":6298,"smo":6299,"enh":6300,"oming</w>":6301,"tative</w>":6302,"destro":6303,"finding</w>":6304,"aining</w>":6305,"assi</w>":6306,"dom</w>":6307,"sky</w>":6308,"Final</w>":6309,"terrorists</w>":6310,"Help</w>":6311,"Photo</w>":6312,"visions</w>":6313,"Bir":6314,"FCC</w>":6315,"Kab":6316,"KABU":6317,"gla":6318,"ggle</w>":6319,"pical</w>":6320,"rang":6321,"ica</w>":6322,"ilton</w>":6323,"raid</w>":6324,"radic":6325,"leagu":6326,"niversary</w>":6327,"declined</w>":6328,"cription</w>":6329,"remaining</w>":6330,"Dead</w>":6331,"wrong</w>":6332,"Economic</w>":6333,"speech</w>":6334,"vehicle</w>":6335,"shuttle</w>":6336,"Lebanon</w>":6337,"rallied</w>":6338,"Jewish</w>":6339,"Myanmar</w>":6340,"CE</w>":6341,"Clim":6342,"Lenn":6343,"Mr</w>":6344,"PR":6345,"Rac":6346,"wasn</w>":6347,"link</w>":6348,"ilian</w>":6349,"Thousands</w>":6350,"reser":6351,"aband":6352,"ONG</w>":6353,"Carter</w>":6354,"Milan</w>":6355,"planet</w>":6356,"attention</w>":6357,"Real":6358,"Women</w>":6359,"Blast</w>":6360,"UM":6361,"fly</w>":6362,"mist":6363,"ris</w>":6364,"beyond</w>":6365,"ond":6366,"resigned</w>":6367,"images</w>":6368,"improved</w>":6369,"finds</w>":6370,"bot":6371,"iety</w>":6372,"officers</w>":6373,"Indian":6374,"Lee</w>":6375,"camera</w>":6376,"Attorney</w>":6377,"Beg":6378,"Sharap":6379,"response</w>":6380,"magazine</w>":6381,"rushed</w>":6382,"encies</w>":6383,"apolis</w>":6384,"liminary</w>":6385,"renewed</w>":6386,"KABUL</w>":6387,"FDA</w>":6388,"Gary</w>":6389,"Ke":6390,"Seeks</w>":6391,"bless</w>":6392,"usion</w>":6393,"white</w>":6394,"mond</w>":6395,"minent</w>":6396,"accept</w>":6397,"seas</w>":6398,"premi":6399,"acquired</w>":6400,"Chart</w>":6401,"website</w>":6402,"Wayne</w>":6403,"Cav":6404,"Mount</w>":6405,"Nic":6406,"People</w>":6407,"Ren":6408,"dow</w>":6409,"ec</w>":6410,"kind</w>":6411,"vowed</w>":6412,"recomm":6413,"restruc":6414,"stre":6415,"ury</w>":6416,"contribu":6417,"poses</w>":6418,"Space":6419,"brand</w>":6420,"side":6421,"increasingly</w>":6422,"Half</w>":6423,"According</w>":6424,"Larry</w>":6425,"Jacques</w>":6426,"Indianapolis</w>":6427,"Sharapova</w>":6428,"Jr</w>":6429,"Pil":6430,"UT":6431,"falls</w>":6432,"mys":6433,"stret":6434,"lip</w>":6435,"tom</w>":6436,"Nets</w>":6437,"anny</w>":6438,"Stan":6439,"stronom":6440,"deaths</w>":6441,"bombings</w>":6442,"Barcel":6443,"Agassi</w>":6444,"continuing</w>":6445,"semi</w>":6446,"unveils</w>":6447,"lifted</w>":6448,"qualifi":6449,"green</w>":6450,"happy</w>":6451,"Jackson</w>":6452,"stadium</w>":6453,"Cow":6454,"Jean":6455,"SY":6456,"rier</w>":6457,"ofi</w>":6458,"conver":6459,"adds</w>":6460,"ources</w>":6461,"overing</w>":6462,"Shell</w>":6463,"leadership</w>":6464,"efly</w>":6465,"effect</w>":6466,"Soccer</w>":6467,"Chechen</w>":6468,"earthquake</w>":6469,"Gil":6470,"pare</w>":6471,"patch</w>":6472,"sa</w>":6473,"linger</w>":6474,"rus</w>":6475,"Commun":6476,"trig":6477,"dozens</w>":6478,"prize</w>":6479,"partner</w>":6480,"ilians</w>":6481,"threatening</w>":6482,"separate</w>":6483,"telecommunications</w>":6484,"OTT":6485,"tackle</w>":6486,"Jeanne</w>":6487,"AU":6488,"Fol":6489,"Pad":6490,"Young</w>":6491,"allowing</w>":6492,"rather</w>":6493,"Inde":6494,"construction</w>":6495,"cog":6496,"worm</w>":6497,"officially</w>":6498,"directors</w>":6499,"stronger</w>":6500,"Brian</w>":6501,"Denver</w>":6502,"Viet":6503,"Management</w>":6504,"failure</w>":6505,"Drea":6506,"Hass":6507,"Jen":6508,"Makes</w>":6509,"antly</w>":6510,"shots</w>":6511,"extra":6512,"expl":6513,"citi":6514,"tus</w>":6515,"buster</w>":6516,"sche</w>":6517,"claiming</w>":6518,"Terror</w>":6519,"supporters</w>":6520,"sentenced</w>":6521,"rookie</w>":6522,"Lim":6523,"bar</w>":6524,"met":6525,"oci":6526,"ules</w>":6527,"guar":6528,"attacked</w>":6529,"Spitzer</w>":6530,"isher</w>":6531,"solid</w>":6532,"boosted</w>":6533,"McN":6534,"born</w>":6535,"Syman":6536,"Have</w>":6537,"appeals</w>":6538,"coup</w>":6539,"Walt</w>":6540,"Teh":6541,"nationwide</w>":6542,"Gordon</w>":6543,"Jordan</w>":6544,"Iranian</w>":6545,"It":6546,"LIN":6547,"Rum":6548,"eze</w>":6549,"tho":6550,"lated</w>":6551,"reven":6552,"reform</w>":6553,"encoura":6554,"alliance</w>":6555,"tar</w>":6556,"surance</w>":6557,"Mariners</w>":6558,"disaster</w>":6559,"Author":6560,"heat</w>":6561,"wake</w>":6562,"acher</w>":6563,"reading</w>":6564,"increasing</w>":6565,"Agre":6566,"analyst</w>":6567,"Capital</w>":6568,"doubt</w>":6569,"Emb":6570,"Len":6571,"Sin":6572,"pot</w>":6573,"lah</w>":6574,"requi":6575,"lings</w>":6576,"cha":6577,"sus</w>":6578,"sured</w>":6579,"spon":6580,"parent</w>":6581,"evening</w>":6582,"dak</w>":6583,"assassin":6584,"captured</w>":6585,"door</w>":6586,"Kodak</w>":6587,"USS":6588,"Vijay</w>":6589,"juries</w>":6590,"violent</w>":6591,"introduc":6592,"supercomputer</w>":6593,"Officials</w>":6594,"Barcelona</w>":6595,"Symantec</w>":6596,"AZ":6597,"AU</w>":6598,"Clo":6599,"Pack</w>":6600,"Sign</w>":6601,"les":6602,"revi":6603,"oppers</w>":6604,"comeback</w>":6605,"expla":6606,"Money</w>":6607,"races</w>":6608,"carry</w>":6609,"burg</w>":6610,"tempor":6611,"extension</w>":6612,"VoIP</w>":6613,"means</w>":6614,"Brazilian</w>":6615,"widely</w>":6616,"choice</w>":6617,"Zarq":6618,"Mau":6619,"Son":6620,"SING":6621,"ko":6622,"un</w>":6623,"usual</w>":6624,"poised</w>":6625,"seized</w>":6626,"traditional</w>":6627,"defen":6628,"defence</w>":6629,"launching</w>":6630,"bomber</w>":6631,"burton</w>":6632,"Genesis</w>":6633,"tworking</w>":6634,"Longh":6635,"infring":6636,"compete</w>":6637,"Browns</w>":6638,"property</w>":6639,"BER":6640,"bian</w>":6641,"foo":6642,"yland</w>":6643,"anis":6644,"iders</w>":6645,"entry</w>":6646,"resig":6647,"posts</w>":6648,"set":6649,"marks</w>":6650,"reporting</w>":6651,"Forbes</w>":6652,"suspects</w>":6653,"feature</w>":6654,"Halo</w>":6655,"sque</w>":6656,"natural</w>":6657,"Quarter":6658,"franch":6659,"Vietnam</w>":6660,"Tehran</w>":6661,"Beat</w>":6662,"Pfi":6663,"Ron</w>":6664,"award</w>":6665,"boun":6666,"fit</w>":6667,"fear</w>":6668,"igners</w>":6669,"quo":6670,"impres":6671,"verse</w>":6672,"stem</w>":6673,"associ":6674,"NEY</w>":6675,"Steph":6676,"Unve":6677,"Claims</w>":6678,"CAA</w>":6679,"Entertainment</w>":6680,"rebounds</w>":6681,"Commerce</w>":6682,"similar</w>":6683,"Zarqawi</w>":6684,"Call</w>":6685,"NO":6686,"ark</w>":6687,"itz</w>":6688,"rock</w>":6689,"tained</w>":6690,"Auto</w>":6691,"comments</w>":6692,"increases</w>":6693,"cky</w>":6694,"person":6695,"vehicles</w>":6696,"disappointing</w>":6697,"solution</w>":6698,"Thomas</w>":6699,"caught</w>":6700,"DEL":6701,"IM</w>":6702,"gian</w>":6703,"ride</w>":6704,"testi":6705,"itable</w>":6706,"eme</w>":6707,"shoc":6708,"abduc":6709,"seat</w>":6710,"Arctic</w>":6711,"Job</w>":6712,"vised</w>":6713,"ckbuster</w>":6714,"Pervez</w>":6715,"drives</w>":6716,"Swit":6717,"Season</w>":6718,"child</w>":6719,"providers</w>":6720,"prosecutors</w>":6721,"Salv":6722,"Pfizer</w>":6723,"Crea":6724,"GE</w>":6725,"NCAA</w>":6726,"Pic":6727,"Rw":6728,"Sant":6729,"WOR":6730,"bling</w>":6731,"hood</w>":6732,"recog":6733,"ratings</w>":6734,"unless</w>":6735,"safe</w>":6736,"overall</w>":6737,"rents</w>":6738,"expressed</w>":6739,"alized</w>":6740,"technologies</w>":6741,"Soldi":6742,"copyright</w>":6743,"through":6744,"rac</w>":6745,"unlikely</w>":6746,"haul</w>":6747,"proves</w>":6748,"earance</w>":6749,"Strong</w>":6750,"shift</w>":6751,"Island</w>":6752,"endly</w>":6753,"protec":6754,"Halli":6755,"Democrats</w>":6756,"Trial</w>":6757,"driven</w>":6758,"vendors</w>":6759,"separati":6760,"situation</w>":6761,"Kabul</w>":6762,"BL":6763,"El</w>":6764,"Great</w>":6765,"drin":6766,"database</w>":6767,"thly</w>":6768,"alter":6769,"illy</w>":6770,"lives</w>":6771,"hawks</w>":6772,"Rev":6773,"let":6774,"accine</w>":6775,"partners</w>":6776,"cere":6777,"Titans</w>":6778,"towards</w>":6779,"Challenge</w>":6780,"Economy</w>":6781,"SINGAP":6782,"Halliburton</w>":6783,"BBC</w>":6784,"GE":6785,"Gro":6786,"ugh":6787,"wav":6788,"ighting</w>":6789,"ading</w>":6790,"reaching</w>":6791,"perfect</w>":6792,"giants</w>":6793,"Forces</w>":6794,"engers</w>":6795,"chances</w>":6796,"Unit</w>":6797,"passenger</w>":6798,"considered</w>":6799,"picked</w>":6800,"Chirac</w>":6801,"lineup</w>":6802,"founder</w>":6803,"Kyoto</w>":6804,"Kel":6805,"bya</w>":6806,"eu":6807,"lun":6808,"lout</w>":6809,"Thai</w>":6810,"traded</w>":6811,"Leads</w>":6812,"Scott</w>":6813,"Rockets</w>":6814,"Enterprise</w>":6815,"InfoWorld</w>":6816,"restructuring</w>":6817,"SINGAPORE</w>":6818,"CI</w>":6819,"DC</w>":6820,"Equ":6821,"ault</w>":6822,"enjo":6823,"essions</w>":6824,"Reti":6825,"exam":6826,"Workers</w>":6827,"auto</w>":6828,"waiting</w>":6829,"governments</w>":6830,"ranking</w>":6831,"driving</w>":6832,"Bobby</w>":6833,"GH":6834,"Mess":6835,"bil":6836,"banned</w>":6837,"ois</w>":6838,"wall</w>":6839,"inson</w>":6840,"anniversary</w>":6841,"erup":6842,"asks</w>":6843,"sule</w>":6844,"travel":6845,"Frank</w>":6846,"events</w>":6847,"cus</w>":6848,"entire</w>":6849,"counter</w>":6850,"Indians</w>":6851,"legally</w>":6852,"Leaders</w>":6853,"emerged</w>":6854,"index</w>":6855,"vendor</w>":6856,"Plus</w>":6857,"prevent</w>":6858,"difficult</w>":6859,"Apri":6860,"Clar":6861,"Found</w>":6862,"Jak":6863,"zes</w>":6864,"lack</w>":6865,"liqu":6866,"sier</w>":6867,"condem":6868,"Chile</w>":6869,"announces</w>":6870,"winds</w>":6871,"etts</w>":6872,"Libya</w>":6873,"signing</w>":6874,"keeps</w>":6875,"Henman</w>":6876,"songs</w>":6877,"ShipOne</w>":6878,"April</w>":6879,"Coc":6880,"Kofi</w>":6881,"cann":6882,"catch</w>":6883,"agencies</w>":6884,"edges</w>":6885,"electric":6886,"Toy":6887,"langu":6888,"Hostage</w>":6889,"cope</w>":6890,"Tennis</w>":6891,"address</w>":6892,"girl</w>":6893,"Many</w>":6894,"lis":6895,"inquiry</w>":6896,"eason</w>":6897,"love</w>":6898,"shock</w>":6899,"apers</w>":6900,"may":6901,"leg</w>":6902,"dum</w>":6903,"preliminary</w>":6904,"failing</w>":6905,"drove</w>":6906,"breaks</w>":6907,"dominated</w>":6908,"involving</w>":6909,"postseason</w>":6910,"Trans":6911,"Kidnapp":6912,"Illinois</w>":6913,"streets</w>":6914,"Blu":6915,"La</w>":6916,"bound</w>":6917,"hitting</w>":6918,"mal</w>":6919,"tun":6920,"tren":6921,"bell</w>":6922,"street</w>":6923,"shoul":6924,"portable</w>":6925,"worker</w>":6926,"tening</w>":6927,"seasons</w>":6928,"auth":6929,"dramatic</w>":6930,"Offer</w>":6931,"creating</w>":6932,"blasts</w>":6933,"Plc</w>":6934,"confident</w>":6935,"fighters</w>":6936,"Colombia</w>":6937,"micro":6938,"UEFA</w>":6939,"SpaceShipOne</w>":6940,"AC</w>":6941,"NT":6942,"Rol":6943,"Site</w>":6944,"VI":6945,"barg":6946,"ple":6947,"ongoing</w>":6948,"usetts</w>":6949,"lots</w>":6950,"aggres":6951,"thered</w>":6952,"illion":6953,"ula</w>":6954,"Progra":6955,"achusetts</w>":6956,"flying</w>":6957,"plot</w>":6958,"south":6959,"Spam</w>":6960,"Port":6961,"Massachusetts</w>":6962,"technical</w>":6963,"Bet":6964,"Fam":6965,"Wol":6966,"West":6967,"iously</w>":6968,"od":6969,"chem":6970,"haps</w>":6971,"conv":6972,"conserv":6973,"shipping</w>":6974,"scale</w>":6975,"announcing</w>":6976,"ATT":6977,"subst":6978,"Qaida</w>":6979,"Typhoon</w>":6980,"refused</w>":6981,"Nepal</w>":6982,"350</w>":6983,"DU":6984,"Sk":6985,"Users</w>":6986,"cul":6987,"iz</w>":6988,"sun":6989,"tested</w>":6990,"eases</w>":6991,"eras</w>":6992,"resum":6993,"delays</w>":6994,"stero":6995,"disrup":6996,"Serena</w>":6997,"dozen</w>":6998,"ski":6999,"measures</w>":7000,"heavy":7001,"Daily</w>":7002,"Advanced</w>":7003,"Jersey</w>":7004,"refugee</w>":7005,"non":7006,"plea":7007,"zy</w>":7008,"thr":7009,"amount</w>":7010,"shing</w>":7011,"mad</w>":7012,"porting</w>":7013,"dismissed</w>":7014,"counting</w>":7015,"fees</w>":7016,"clashes</w>":7017,"broker</w>":7018,"Pub":7019,"Edge</w>":7020,"messages</w>":7021,"contracts</w>":7022,"manufacturer</w>":7023,"schools</w>":7024,"injuring</w>":7025,"Ahead</w>":7026,"CS":7027,"Mach":7028,"WS</w>":7029,"cking</w>":7030,"feld</w>":7031,"erc":7032,"liest</w>":7033,"limi":7034,"prospec":7035,"Spe":7036,"grade</w>":7037,"Alital":7038,"wind</w>":7039,"lawyers</w>":7040,"sourcing</w>":7041,"Offers</w>":7042,"newly</w>":7043,"entary</w>":7044,"Announ":7045,"civilians</w>":7046,"criticism</w>":7047,"insisted</w>":7048,"SYD":7049,"Jakar":7050,"Alitalia</w>":7051,"GB</w>":7052,"Head":7053,"aa</w>":7054,"gely</w>":7055,"nd</w>":7056,"tell</w>":7057,"rek</w>":7058,"status</w>":7059,"lock</w>":7060,"quite</w>":7061,"tada</w>":7062,"Bob</w>":7063,"bridge</w>":7064,"Carib":7065,"solar</w>":7066,"Gold":7067,"Treasuries</w>":7068,"machine</w>":7069,"Summary</w>":7070,"convicted</w>":7071,"Cowboys</w>":7072,"Toyota</w>":7073,"limited</w>":7074,"Jakarta</w>":7075,"Reds</w>":7076,"nan":7077,"thriti":7078,"ada</w>":7079,"marathon</w>":7080,"rison</w>":7081,"larly</w>":7082,"present</w>":7083,"holy</w>":7084,"managed</w>":7085,"broadcast</w>":7086,"purchas":7087,"Safe":7088,"subsidi":7089,"opportunity</w>":7090,"SYDNEY</w>":7091,"Caribbean</w>":7092,"Avi":7093,"Good</w>":7094,"Heat</w>":7095,"MC</w>":7096,"MAN":7097,"fan</w>":7098,"hill</w>":7099,"wing</w>":7100,"agon</w>":7101,"tents</w>":7102,"aine</w>":7103,"fire":7104,"alive</w>":7105,"father</w>":7106,"idea</w>":7107,"Arabia</w>":7108,"relations</w>":7109,"identified</w>":7110,"greater</w>":7111,"Columbia</w>":7112,"3Q</w>":7113,"Hear":7114,"RF":7115,"Va</w>":7116,"di</w>":7117,"gran":7118,"kick</w>":7119,"actions</w>":7120,"constitu":7121,"torn</w>":7122,"Anton":7123,"Sunni</w>":7124,"Move</w>":7125,"apping</w>":7126,"flash</w>":7127,"versy</w>":7128,"McLenn":7129,"Viol":7130,"ferendum</w>":7131,"cells</w>":7132,"Warns</w>":7133,"possibly</w>":7134,"account</w>":7135,"Fergus":7136,"patients</w>":7137,"McLennan</w>":7138,"Criti":7139,"HD</w>":7140,"Jays</w>":7141,"Science</w>":7142,"cked</w>":7143,"fer":7144,"hockey</w>":7145,"tels</w>":7146,"refl":7147,"stations</w>":7148,"oles</w>":7149,"libr":7150,"posing</w>":7151,"leans</w>":7152,"fined</w>":7153,"esting</w>":7154,"playoffs</w>":7155,"148</w>":7156,"Hollinger</w>":7157,"Firm</w>":7158,"Delhi</w>":7159,"Tax</w>":7160,"everything</w>":7161,"rescue</w>":7162,"thritis</w>":7163,"ESP":7164,"dy":7165,"ga</w>":7166,"pact</w>":7167,"wra":7168,"alo":7169,"taining</w>":7170,"cont":7171,"recall</w>":7172,"Busch</w>":7173,"Ali</w>":7174,"Vikings</w>":7175,"ELS</w>":7176,"explosives</w>":7177,"County</w>":7178,"competitive</w>":7179,"committee</w>":7180,"sweep</w>":7181,"connection</w>":7182,"Knicks</w>":7183,"collapse</w>":7184,"Battle</w>":7185,"Bell</w>":7186,"Even</w>":7187,"Nap":7188,"Squ":7189,"UK":7190,"hear</w>":7191,"atcher</w>":7192,"lie</w>":7193,"Chiefs</w>":7194,"ket":7195,"pain":7196,"paying</w>":7197,"Marlins</w>":7198,"rows</w>":7199,"Mail</w>":7200,"beats</w>":7201,"sells</w>":7202,"developers</w>":7203,"promises</w>":7204,"squad</w>":7205,"messaging</w>":7206,"Lyn":7207,"moment</w>":7208,"Standard</w>":7209,"figure</w>":7210,"Bud":7211,"DNA</w>":7212,"Slo":7213,"Won</w>":7214,"mmed</w>":7215,"page</w>":7216,"sca":7217,"infra":7218,"stal</w>":7219,"commission</w>":7220,"email</w>":7221,"rum":7222,"Nether":7223,"model":7224,"turn":7225,"surr":7226,"either</w>":7227,"conclu":7228,"corruption</w>":7229,"Schum":7230,"Early</w>":7231,"Forest</w>":7232,"receive</w>":7233,"middle</w>":7234,"Muslims</w>":7235,"valu":7236,"MacCentral</w>":7237,"pushing</w>":7238,"rushing</w>":7239,"resolve</w>":7240,"Maures":7241,"Public</w>":7242,"Ball":7243,"ION":7244,"Look</w>":7245,"aud":7246,"bid":7247,"gly</w>":7248,"gained</w>":7249,"mits</w>":7250,"enko</w>":7251,"Threa":7252,"securities</w>":7253,"secret</w>":7254,"Maryland</w>":7255,"ship":7256,"Sub":7257,"101</w>":7258,"102</w>":7259,"eption</w>":7260,"passengers</w>":7261,"pitched</w>":7262,"HOUS":7263,"bottom</w>":7264,"franchise</w>":7265,"Netherlands</w>":7266,"Mauresmo</w>":7267,"MON":7268,"Plan":7269,"mel":7270,"yad</w>":7271,"sud":7272,"provided</w>":7273,"holes</w>":7274,"soaring</w>":7275,"heard</w>":7276,"peline</w>":7277,"appointed</w>":7278,"rolled</w>":7279,"subscribers</w>":7280,"radical</w>":7281,"Ferguson</w>":7282,"EA</w>":7283,"far":7284,"tied</w>":7285,"arian</w>":7286,"stands</w>":7287,"deplo":7288,"Conf":7289,"struggle</w>":7290,"weigh":7291,"barra":7292,"Labour</w>":7293,"instant</w>":7294,"friendly</w>":7295,"legislation</w>":7296,"Austria</w>":7297,"throughout</w>":7298,"Az":7299,"BOS":7300,"LD</w>":7301,"ination</w>":7302,"inspec":7303,"enab":7304,"tis</w>":7305,"alert</w>":7306,"spread</w>":7307,"warded</w>":7308,"joining</w>":7309,"releases</w>":7310,"106</w>":7311,"Airport</w>":7312,"Fields</w>":7313,"Poll</w>":7314,"doubled</w>":7315,"famous</w>":7316,"practices</w>":7317,"BRUSS":7318,"Navy</w>":7319,"Sar":7320,"VIL":7321,"hurricanes</w>":7322,"kdown</w>":7323,"lig":7324,"lations</w>":7325,"beta</w>":7326,"units</w>":7327,"ovo</w>":7328,"taxes</w>":7329,"Chen":7330,"disclosed</w>":7331,"Deut":7332,"tum</w>":7333,"essor</w>":7334,"Exper":7335,"Mah":7336,"ology</w>":7337,"notebook</w>":7338,"lawyer</w>":7339,"bigger</w>":7340,"Politi":7341,"Peter</w>":7342,"carried</w>":7343,"communications</w>":7344,"disputed</w>":7345,"Official</w>":7346,"housing</w>":7347,"Charges</w>":7348,"Clemens</w>":7349,"steady</w>":7350,"frustra":7351,"BRUSSELS</w>":7352,"Bor":7353,"fought</w>":7354,"lying</w>":7355,"injuries</w>":7356,"asion</w>":7357,"additional</w>":7358,"boy":7359,"Researchers</w>":7360,"agrees</w>":7361,"CoMo</w>":7362,"crime</w>":7363,"DoCoMo</w>":7364,"journalists</w>":7365,"semifinals</w>":7366,"dangerous</w>":7367,"Hassan</w>":7368,"Coca</w>":7369,"Antonio</w>":7370,"120</w>":7371,"Ala":7372,"JA":7373,"Key</w>":7374,"hit":7375,"yu":7376,"rey</w>":7377,"owever</w>":7378,"adem":7379,"pledged</w>":7380,"serving</w>":7381,"joins</w>":7382,"ski</w>":7383,"Fox</w>":7384,"Orleans</w>":7385,"hunt</w>":7386,"Chavez</w>":7387,"Longhorn</w>":7388,"Past</w>":7389,"TR":7390,"sle":7391,"eland</w>":7392,"atomic</w>":7393,"earn</w>":7394,"sequ":7395,"stepped</w>":7396,"bodi":7397,"trium":7398,"Buff":7399,"aire</w>":7400,"airlines</w>":7401,"ATA</w>":7402,"Flight</w>":7403,"Diam":7404,"Head</w>":7405,"introduce</w>":7406,"Campa":7407,"suffering</w>":7408,"Matt</w>":7409,"apparent</w>":7410,"dream</w>":7411,"lthy</w>":7412,"opponents</w>":7413,"resignation</w>":7414,"100":7415,"Berry</w>":7416,"Edition</w>":7417,"Fight</w>":7418,"Jim</w>":7419,"backing</w>":7420,"lds</w>":7421,"sized</w>":7422,"sul</w>":7423,"sust":7424,"buy":7425,"recru":7426,"Anth":7427,"Show</w>":7428,"Mosul</w>":7429,"103</w>":7430,"cases</w>":7431,"deleg":7432,"spot":7433,"semiconductor</w>":7434,"identity</w>":7435,"predicted</w>":7436,"feel</w>":7437,"Journal</w>":7438,"stopped</w>":7439,"Eli":7440,"WTO</w>":7441,"cool</w>":7442,"eum</w>":7443,"lights</w>":7444,"sie":7445,"produced</w>":7446,"Insurg":7447,"Chris":7448,"compen":7449,"Connec":7450,"Motion</w>":7451,"closely</w>":7452,"fact</w>":7453,"highly</w>":7454,"Law</w>":7455,"chip":7456,"flaw</w>":7457,"Israelis</w>":7458,"ska</w>":7459,"viruses</w>":7460,"Basketball</w>":7461,"watched</w>":7462,"Miss</w>":7463,"suspension</w>":7464,"Update2</w>":7465,"cliff":7466,"fellow</w>":7467,"improving</w>":7468,"mnas":7469,"described</w>":7470,"Cri":7471,"Do</w>":7472,"SAP</w>":7473,"eon</w>":7474,"inch</w>":7475,"erings</w>":7476,"oul</w>":7477,"Work</w>":7478,"Companies</w>":7479,"Cambodi":7480,"climbed</w>":7481,"anything</w>":7482,"seemed</w>":7483,"benefit</w>":7484,"Sweden</w>":7485,"Athletics</w>":7486,"Embassy</w>":7487,"Kim</w>":7488,"Roo":7489,"cling</w>":7490,"fing":7491,"qtada</w>":7492,"sight</w>":7493,"ures</w>":7494,"tified</w>":7495,"ough":7496,"ille</w>":7497,"hai</w>":7498,"emens</w>":7499,"Devices</w>":7500,"SPOR":7501,"ankle</w>":7502,"Gov</w>":7503,"writes</w>":7504,"Kazaa</w>":7505,"recogni":7506,"Deutsche</w>":7507,"3rd</w>":7508,"Bills</w>":7509,"Ever":7510,"Ken</w>":7511,"cross</w>":7512,"fli":7513,"smart</w>":7514,"vy</w>":7515,"vide":7516,"bey</w>":7517,"allies</w>":7518,"ilies</w>":7519,"Than</w>":7520,"bust</w>":7521,"steel</w>":7522,"2007</w>":7523,"expanding</w>":7524,"augu":7525,"prepare</w>":7526,"Cola</w>":7527,"147</w>":7528,"USC</w>":7529,"ckout</w>":7530,"Harry</w>":7531,"Seahawks</w>":7532,"Siemens</w>":7533,"delivered</w>":7534,"Netscape</w>":7535,"Flat</w>":7536,"Raptors</w>":7537,"Calls</w>":7538,"F1</w>":7539,"Fav":7540,"Mass</w>":7541,"Sky":7542,"Ten</w>":7543,"eling</w>":7544,"lating</w>":7545,"urges</w>":7546,"mohan</w>":7547,"fix</w>":7548,"2008</w>":7549,"mind</w>":7550,"visiting</w>":7551,"Sea</w>":7552,"104</w>":7553,"140</w>":7554,"lawmakers</w>":7555,"Raises</w>":7556,"landmark</w>":7557,"rejects</w>":7558,"successfully</w>":7559,"cleared</w>":7560,"qualifier</w>":7561,"ceremony</w>":7562,"models</w>":7563,"HOUSTON</w>":7564,"1st</w>":7565,"Bru":7566,"Domin":7567,"HI</w>":7568,"Rules</w>":7569,"aren</w>":7570,"bids</w>":7571,"cia</w>":7572,"kh":7573,"pse</w>":7574,"tz</w>":7575,"wer</w>":7576,"links</w>":7577,"produce</w>":7578,"Insurance</w>":7579,"Reg":7580,"conven":7581,"offices</w>":7582,"entiment</w>":7583,"NEC</w>":7584,"stries</w>":7585,"Who</w>":7586,"nap</w>":7587,"strongh":7588,"Philips</w>":7589,"responsible</w>":7590,"Osama</w>":7591,"AWA</w>":7592,"AR</w>":7593,"Ban":7594,"DR":7595,"Fen":7596,"Here</w>":7597,"NA":7598,"knew</w>":7599,"ssing</w>":7600,"temp":7601,"throw</w>":7602,"icious</w>":7603,"eck</w>":7604,"quality</w>":7605,"tains</w>":7606,"ported</w>":7607,"Chang":7608,"secretary</w>":7609,"Part":7610,"showdown</w>":7611,"feared</w>":7612,"Celtic</w>":7613,"suggests</w>":7614,"preced":7615,"Clinton</w>":7616,"Andre</w>":7617,"Schumacher</w>":7618,"Cz":7619,"Card</w>":7620,"Fres":7621,"Foods</w>":7622,"OK":7623,"Pent":7624,"manned</w>":7625,"nic</w>":7626,"rush</w>":7627,"ington</w>":7628,"plants</w>":7629,"plus</w>":7630,"guerr":7631,"marine</w>":7632,"appearance</w>":7633,"Point</w>":7634,"Syd":7635,"Hamilton</w>":7636,"suspect</w>":7637,"focused</w>":7638,"Tele":7639,"potentially</w>":7640,"locked</w>":7641,"relig":7642,"pleaded</w>":7643,"Pentagon</w>":7644,"Cour":7645,"Doc":7646,"Face</w>":7647,"Lakers</w>":7648,"Ori":7649,"Raf":7650,"Race</w>":7651,"SS</w>":7652,"doping</w>":7653,"oline</w>":7654,"headquarters</w>":7655,"sav":7656,"quest</w>":7657,"phys":7658,"causing</w>":7659,"ogs</w>":7660,"Manmohan</w>":7661,"Amid</w>":7662,"Helens</w>":7663,"particip":7664,"OTTAWA</w>":7665,"LINE</w>":7666,"infrastructure</w>":7667,"Sydney</w>":7668,"Aussi":7669,"Bes":7670,"Eis":7671,"File</w>":7672,"Jack</w>":7673,"Stern</w>":7674,"Way</w>":7675,"Wis":7676,"ca</w>":7677,"ger":7678,"ially</w>":7679,"nomin":7680,"ind":7681,"agents</w>":7682,"networking</w>":7683,"sad":7684,"sho":7685,"earned</w>":7686,"Chase</w>":7687,"Universal</w>":7688,"daily</w>":7689,"pole</w>":7690,"hike</w>":7691,"Raiders</w>":7692,"accounts</w>":7693,"Their</w>":7694,"walk</w>":7695,"slipped</w>":7696,"inventories</w>":7697,"Honda</w>":7698,"Retail</w>":7699,"Human</w>":7700,"challenges</w>":7701,"helicopter</w>":7702,"heavyweight</w>":7703,"ESPN</w>":7704,"cliffe</w>":7705,"Eisner</w>":7706,"Close</w>":7707,"cold</w>":7708,"lv":7709,"financing</w>":7710,"expanded</w>":7711,"Moon</w>":7712,"medals</w>":7713,"Guine":7714,"Electronic</w>":7715,"Charley</w>":7716,"regar":7717,"picture</w>":7718,"icky</w>":7719,"Gartner</w>":7720,"kidnappers</w>":7721,"successor</w>":7722,"friends</w>":7723,"IMF</w>":7724,"assistant</w>":7725,"cannot</w>":7726,"BOSTON</w>":7727,"Cheney</w>":7728,"Guinea</w>":7729,"Fire</w>":7730,"Gas</w>":7731,"ML":7732,"SU</w>":7733,"Tay":7734,"Wiz":7735,"Yu":7736,"fash":7737,"lon</w>":7738,"easier</w>":7739,"active</w>":7740,"Thatcher</w>":7741,"aside</w>":7742,"cott</w>":7743,"umps</w>":7744,"Alex":7745,"meter</w>":7746,"Orland":7747,"Military</w>":7748,"Owen</w>":7749,"Victory</w>":7750,"manufacturers</w>":7751,"militia</w>":7752,"kerage</w>":7753,"Violence</w>":7754,"SPORTS</w>":7755,"Orlando</w>":7756,"Jun":7757,"Mut":7758,"Zone</w>":7759,"fle":7760,"anian</w>":7761,"largely</w>":7762,"Staff</w>":7763,"centre</w>":7764,"powers</w>":7765,"investor</w>":7766,"blamed</w>":7767,"Siri":7768,"PlayStation</w>":7769,"Henry</w>":7770,"differen":7771,"BlackBerry</w>":7772,"favorite</w>":7773,"Unveils</w>":7774,"DELHI</w>":7775,"VILLE</w>":7776,"Best</w>":7777,"BCS</w>":7778,"GAZ":7779,"Jim":7780,"LAM":7781,"Tre":7782,"cies</w>":7783,"eera</w>":7784,"ln</w>":7785,"mean</w>":7786,"mlin</w>":7787,"sound</w>":7788,"enport</w>":7789,"illegally</w>":7790,"lockout</w>":7791,"ooth</w>":7792,"split</w>":7793,"civil":7794,"acco</w>":7795,"Protocol</w>":7796,"Ques":7797,"10th</w>":7798,"formal</w>":7799,"Davenport</w>":7800,"piece</w>":7801,"Title</w>":7802,"anyone</w>":7803,"insurgent</w>":7804,"CRM</w>":7805,"Anthony</w>":7806,"Credit</w>":7807,"Fans</w>":7808,"Nearly</w>":7809,"Pass":7810,"aker</w>":7811,"bo</w>":7812,"fal":7813,"fford</w>":7814,"tine</w>":7815,"thy</w>":7816,"tium</w>":7817,"emo":7818,"emis":7819,"tatives</w>":7820,"aps</w>":7821,"recording</w>":7822,"versions</w>":7823,"pain</w>":7824,"parents</w>":7825,"Convention</w>":7826,"larger</w>":7827,"ample</w>":7828,"Spurs</w>":7829,"profile</w>":7830,"ATLAN":7831,"positions</w>":7832,"keepers</w>":7833,"brawl</w>":7834,"Briton</w>":7835,"passing</w>":7836,"critici":7837,"critics</w>":7838,"couple</w>":7839,"Keep</w>":7840,"Glazer</w>":7841,"Down":7842,"VIEN":7843,"Curt</w>":7844,"Gh":7845,"Gains</w>":7846,"Sav":7847,"Trac":7848,"Wants</w>":7849,"Xbox</w>":7850,"Years</w>":7851,"bacco</w>":7852,"roundup</w>":7853,"projects</w>":7854,"worlds</w>":7855,"isting</w>":7856,"marg":7857,"Shi</w>":7858,"ggish</w>":7859,"cameras</w>":7860,"jailed</w>":7861,"Abbey</w>":7862,"Harmony</w>":7863,"Hosp":7864,"hibi":7865,"distance</w>":7866,"graphics</w>":7867,"neighb":7868,"Ready</w>":7869,"Kremlin</w>":7870,"euros</w>":7871,"Forecast</w>":7872,"Stephen</w>":7873,"shoulder</w>":7874,"illionaire</w>":7875,"ATTLE</w>":7876,"subsidiary</w>":7877,"Wizards</w>":7878,"130</w>":7879,"225</w>":7880,"CBC</w>":7881,"Circu":7882,"VER</w>":7883,"iv":7884,"rill</w>":7885,"yi":7886,"teway</w>":7887,"rell</w>":7888,"eler":7889,"commissioner</w>":7890,"oose</w>":7891,"portation</w>":7892,"marked</w>":7893,"Ends</w>":7894,"108</w>":7895,"107</w>":7896,"estimated</w>":7897,"Demand</w>":7898,"type</w>":7899,"downloads</w>":7900,"Theft</w>":7901,"Attacks</w>":7902,"Telecom</w>":7903,"Supply</w>":7904,"Sirius</w>":7905,"GAZA</w>":7906,"HE":7907,"Jean</w>":7908,"kout</w>":7909,"ny":7910,"och":7911,"arthritis</w>":7912,"ittle</w>":7913,"lowest</w>":7914,"killer</w>":7915,"bron":7916,"105</w>":7917,"multi</w>":7918,"ABAD</w>":7919,"Philippine</w>":7920,"sortium</w>":7921,"targeting</w>":7922,"establ":7923,"territory</w>":7924,"suggested</w>":7925,"infringement</w>":7926,"2nd</w>":7927,"Cabinet</w>":7928,"MO":7929,"bas</w>":7930,"fate</w>":7931,"reforms</w>":7932,"referendum</w>":7933,"nets</w>":7934,"adap":7935,"map</w>":7936,"spect</w>":7937,"sprin":7938,"residential</w>":7939,"missions</w>":7940,"warnings</w>":7941,"Bos":7942,"capsule</w>":7943,"Parliament</w>":7944,"SEATTLE</w>":7945,"couldn</w>":7946,"Celtics</w>":7947,"strategic</w>":7948,"friend</w>":7949,"distribution</w>":7950,"answer</w>":7951,"language</w>":7952,"RFID</w>":7953,"Ballmer</w>":7954,"Found":7955,"GH</w>":7956,"Hand":7957,"ME":7958,"Signs</w>":7959,"Terr":7960,"rout</w>":7961,"eries</w>":7962,"rit</w>":7963,"Institute</w>":7964,"condition</w>":7965,"spring</w>":7966,"surface</w>":7967,"stic</w>":7968,"capable</w>":7969,"Why</w>":7970,"brother</w>":7971,"collabor":7972,"follow</w>":7973,"seem</w>":7974,"cell":7975,"possibility</w>":7976,"providing</w>":7977,"postpon":7978,"LAND</w>":7979,"programme</w>":7980,"Semiconductor</w>":7981,"Broncos</w>":7982,"stronomers</w>":7983,"BT</w>":7984,"Book</w>":7985,"Dead":7986,"Ob":7987,"Ul":7988,"na</w>":7989,"nit":7990,"escope</w>":7991,"lot":7992,"quick</w>":7993,"conn":7994,"reac":7995,"firing</w>":7996,"cated</w>":7997,"trole":7998,"Prov":7999,"laris</w>":8000,"Although</w>":8001,"ologists</w>":8002,"presence</w>":8003,"preseason</w>":8004,"factory</w>":8005,"fax</w>":8006,"Ask</w>":8007,"ousted</w>":8008,"Championships</w>":8009,"human":8010,"ministra":8011,"bitter</w>":8012,"Blu</w>":8013,"Itanium</w>":8014,"mnastics</w>":8015,"Ferr":8016,"Mee":8017,"Since</w>":8018,"cabinet</w>":8019,"gear</w>":8020,"py</w>":8021,"ona":8022,"stood</w>":8023,"alone</w>":8024,"chur":8025,"comfor":8026,"Return</w>":8027,"offerings</w>":8028,"Maria</w>":8029,"Marines</w>":8030,"cap</w>":8031,"bership</w>":8032,"capture</w>":8033,"ishes</w>":8034,"sign":8035,"politics</w>":8036,"Garcia</w>":8037,"combat</w>":8038,"controlled</w>":8039,"astronauts</w>":8040,"Insurgents</w>":8041,"bronze</w>":8042,"Act</w>":8043,"BO":8044,"Ben</w>":8045,"Emp":8046,"MAR":8047,"kic":8048,"reduced</w>":8049,"ections</w>":8050,"edy</w>":8051,"deputy</w>":8052,"places</w>":8053,"perhaps</w>":8054,"monthly</w>":8055,"Prob":8056,"talking</w>":8057,"ashed</w>":8058,"Solaris</w>":8059,"broad</w>":8060,"invasion</w>":8061,"380</w>":8062,"returning</w>":8063,"kness</w>":8064,"relation":8065,"supplier</w>":8066,"watching</w>":8067,"gunmen</w>":8068,"Hopes</w>":8069,"environment</w>":8070,"felt</w>":8071,"Swedish</w>":8072,"professional</w>":8073,"ATLANTA</w>":8074,"135</w>":8075,"Pon":8076,"TS":8077,"ball":8078,"gro":8079,"night":8080,"inaugu":8081,"angu":8082,"ically</w>":8083,"ags</w>":8084,"compon":8085,"compared</w>":8086,"worried</w>":8087,"mostly</w>":8088,"mosque</w>":8089,"ppi</w>":8090,"Marga":8091,"Adrian</w>":8092,"write</w>":8093,"client</w>":8094,"UNIT":8095,"engineers</w>":8096,"Jama":8097,"Margaret</w>":8098,"Eight</w>":8099,"Neal</w>":8100,"TC</w>":8101,"ires</w>":8102,"iMac</w>":8103,"ored</w>":8104,"ssed</w>":8105,"tham</w>":8106,"ensure</w>":8107,"ste</w>":8108,"teries</w>":8109,"tioning</w>":8110,"stein</w>":8111,"gie</w>":8112,"Alliance</w>":8113,"Allen</w>":8114,"ONLINE</w>":8115,"145</w>":8116,"ackn":8117,"ailing</w>":8118,"Abbas</w>":8119,"meetings</w>":8120,"SEOU":8121,"emerging</w>":8122,"drivers</w>":8123,"Safin</w>":8124,"Vegas</w>":8125,"titles</w>":8126,"updates</w>":8127,"siege</w>":8128,"precedented</w>":8129,"troleum</w>":8130,"SEOUL</w>":8131,"Bat":8132,"DO":8133,"Little</w>":8134,"Priv":8135,"VP</w>":8136,"nya</w>":8137,"ol</w>":8138,"arra</w>":8139,"itas</w>":8140,"emen</w>":8141,"cons</w>":8142,"department</w>":8143,"spammers</w>":8144,"Andrew</w>":8145,"bio":8146,"draws</w>":8147,"Assa":8148,"formally</w>":8149,"touch</w>":8150,"Electric</w>":8151,"Acqu":8152,"Radcliffe</w>":8153,"Release</w>":8154,"silver</w>":8155,"Panel</w>":8156,"Justin</w>":8157,"payments</w>":8158,"Chechnya</w>":8159,"Urges</w>":8160,"Phillies</w>":8161,"District</w>":8162,"Jazeera</w>":8163,"prospects</w>":8164,"IONS</w>":8165,"Foundation</w>":8166,"UNITED</w>":8167,"covered</w>":8168,"ites</w>":8169,"pounds</w>":8170,"paper</w>":8171,"ups</w>":8172,"tex":8173,"istic</w>":8174,"igning</w>":8175,"Revenue</w>":8176,"shrine</w>":8177,"ime</w>":8178,"moder":8179,"deser":8180,"cles</w>":8181,"180</w>":8182,"weaker</w>":8183,"170</w>":8184,"Trafford</w>":8185,"landing</w>":8186,"pione":8187,"hired</w>":8188,"COL":8189,"effective</w>":8190,"particu":8191,"committed</w>":8192,"Eastern</w>":8193,"experience</w>":8194,"Jaguar</w>":8195,"acknowl":8196,"Ah":8197,"Far":8198,"Hav":8199,"Run":8200,"Sell</w>":8201,"Tops</w>":8202,"cats</w>":8203,"fare</w>":8204,"fish</w>":8205,"inho</w>":8206,"ticut</w>":8207,"letter</w>":8208,"overseas</w>":8209,"Anti":8210,"accusing</w>":8211,"Works</w>":8212,"Suicide</w>":8213,"decisi":8214,"busy</w>":8215,"demanding</w>":8216,"144</w>":8217,"tells</w>":8218,"powered</w>":8219,"followed</w>":8220,"Holiday</w>":8221,"measure</w>":8222,"transfer</w>":8223,"payment</w>":8224,"currently</w>":8225,"greatest</w>":8226,"diplomats</w>":8227,"conduct</w>":8228,"waves</w>":8229,"Napster</w>":8230,"Connecticut</w>":8231,"Everton</w>":8232,"CAR":8233,"Kris":8234,"Memp":8235,"WE":8236,"backer</w>":8237,"oo</w>":8238,"pm</w>":8239,"vard</w>":8240,"zen":8241,"rating</w>":8242,"ambi":8243,"Thank":8244,"unprecedented</w>":8245,"tro</w>":8246,"aliers</w>":8247,"Norway</w>":8248,"ached</w>":8249,"Finance</w>":8250,"tough":8251,"controversy</w>":8252,"ISLAM":8253,"truck</w>":8254,"blame</w>":8255,"freeze</w>":8256,"Peter":8257,"Meet</w>":8258,"Lycos</w>":8259,"multiple</w>":8260,"everyone</w>":8261,"targeted</w>":8262,"Memphis</w>":8263,"ISLAMABAD</w>":8264,"Hills</w>":8265,"Penti":8266,"Sie":8267,"Snow</w>":8268,"sis":8269,"sfeld</w>":8270,"yo</w>":8271,"enix</w>":8272,"itarian</w>":8273,"umble</w>":8274,"lular</w>":8275,"disk</w>":8276,"240</w>":8277,"Peru</w>":8278,"Juven":8279,"protests</w>":8280,"Democrat</w>":8281,"willing</w>":8282,"studios</w>":8283,"struggled</w>":8284,"sentence</w>":8285,"PalmOne</w>":8286,"Cavaliers</w>":8287,"Rumsfeld</w>":8288,"WORLD</w>":8289,"lvania</w>":8290,"Pentium</w>":8291,"Bank":8292,"Line</w>":8293,"Pct</w>":8294,"Rams</w>":8295,"ab</w>":8296,"blew</w>":8297,"eted</w>":8298,"eet</w>":8299,"fies</w>":8300,"song</w>":8301,"sentiment</w>":8302,"ouldn</w>":8303,"rai":8304,"attorney</w>":8305,"log":8306,"ager</w>":8307,"emale</w>":8308,"shown</w>":8309,"shire</w>":8310,"Shang":8311,"internal</w>":8312,"outsourcing</w>":8313,"invest</w>":8314,"approve</w>":8315,"rington</w>":8316,"Hundreds</w>":8317,"Republicans</w>":8318,"floods</w>":8319,"accepted</w>":8320,"shipments</w>":8321,"Campaign</w>":8322,"VIENNA</w>":8323,"MS</w>":8324,"Sho":8325,"U2</w>":8326,"awarded</w>":8327,"mour":8328,"ym":8329,"convoy</w>":8330,"ulti":8331,"accident</w>":8332,"ASE":8333,"gene":8334,"producing</w>":8335,"facility</w>":8336,"operators</w>":8337,"homered</w>":8338,"knows</w>":8339,"storms</w>":8340,"competitors</w>":8341,"university</w>":8342,"Kenya</w>":8343,"rolls</w>":8344,"scientific</w>":8345,"separatist</w>":8346,"110</w>":8347,"Cath":8348,"Pul":8349,"Sand":8350,"sgiving</w>":8351,"va</w>":8352,"teen</w>":8353,"idents</w>":8354,"Increa":8355,"excl":8356,"exce":8357,"offset</w>":8358,"desert</w>":8359,"Latest</w>":8360,"etition</w>":8361,"necess":8362,"Faces</w>":8363,"rolling</w>":8364,"Expected</w>":8365,"shareholder</w>":8366,"EMC</w>":8367,"Support</w>":8368,"individual</w>":8369,"Thanksgiving</w>":8370,"Juventus</w>":8371,"Fighting</w>":8372,"Ka":8373,"Nis":8374,"Use</w>":8375,"bad":8376,"cred":8377,"ler":8378,"sop":8379,"vaccine</w>":8380,"eals</w>":8381,"alo</w>":8382,"load</w>":8383,"reserve</w>":8384,"embattled</w>":8385,"shop</w>":8386,"modi":8387,"ppers</w>":8388,"brings</w>":8389,"achi</w>":8390,"strained</w>":8391,"boosting</w>":8392,"Berlin</w>":8393,"frequ":8394,"concerned</w>":8395,"Ryan</w>":8396,"utical</w>":8397,"Gateway</w>":8398,"sweeping</w>":8399,"immediate</w>":8400,"switch</w>":8401,"optimistic</w>":8402,"Czech</w>":8403,"Shanghai</w>":8404,"Mol":8405,"Match</w>":8406,"Sven</w>":8407,"gby</w>":8408,"gover":8409,"righ":8410,"tch</w>":8411,"vors</w>":8412,"wrec":8413,"wage</w>":8414,"lining</w>":8415,"ich":8416,"cooperation</w>":8417,"patents</w>":8418,"evacu":8419,"audi":8420,"Sets</w>":8421,"Also</w>":8422,"meters</w>":8423,"ERS</w>":8424,"drops</w>":8425,"gathered</w>":8426,"func":8427,"membership</w>":8428,"brain</w>":8429,"hip</w>":8430,"education</w>":8431,"attempts</w>":8432,"aboard</w>":8433,"equity</w>":8434,"responsibility</w>":8435,"Murdo":8436,"photos</w>":8437,"Development</w>":8438,"Racing</w>":8439,"trigg":8440,"320</w>":8441,"Hit":8442,"Iow":8443,"Lley":8444,"MI":8445,"dlife</w>":8446,"eers</w>":8447,"hackers</w>":8448,"hasn</w>":8449,"mass":8450,"rid":8451,"iny</w>":8452,"tim":8453,"ara</w>":8454,"rable</w>":8455,"whel":8456,"whole</w>":8457,"forcing</w>":8458,"merge</w>":8459,"mining</w>":8460,"lowers</w>":8461,"governor</w>":8462,"Results</w>":8463,"Cos</w>":8464,"Cards</w>":8465,"commander</w>":8466,"2012</w>":8467,"Winter</w>":8468,"Lehman</w>":8469,"subject</w>":8470,"Medical</w>":8471,"Rays</w>":8472,"River</w>":8473,"retired</w>":8474,"teammates</w>":8475,"wickets</w>":8476,"Erik":8477,"Kenneth</w>":8478,"Murdoch</w>":8479,"Lleyton</w>":8480,"GP</w>":8481,"LCD</w>":8482,"SAN":8483,"rounds</w>":8484,"sity</w>":8485,"uph":8486,"wich</w>":8487,"zing</w>":8488,"orbit</w>":8489,"ecs</w>":8490,"proj":8491,"Review</w>":8492,"reaches</w>":8493,"imports</w>":8494,"imposed</w>":8495,"lution</w>":8496,"acceler":8497,"Suit</w>":8498,"izing</w>":8499,"340</w>":8500,"included</w>":8501,"true</w>":8502,"families</w>":8503,"Milo":8504,"photo</w>":8505,"ILL":8506,"IDC</w>":8507,"welcome</w>":8508,"Chargers</w>":8509,"Diamond":8510,"stronghold</w>":8511,"IA":8512,"IO":8513,"Ris":8514,"Vice</w>":8515,"pound</w>":8516,"vac":8517,"wire</w>":8518,"institu":8519,"entum</w>":8520,"rol</w>":8521,"olic</w>":8522,"amed</w>":8523,"edition</w>":8524,"shoppers</w>":8525,"coaching</w>":8526,"secre":8527,"plenty</w>":8528,"fierce</w>":8529,"producers</w>":8530,"Like</w>":8531,"pending</w>":8532,"colum":8533,"Guant":8534,"denies</w>":8535,"privately</w>":8536,"threatens</w>":8537,"Cele":8538,"Small</w>":8539,"Consumers</w>":8540,"Southeast</w>":8541,"population</w>":8542,"Pinoch":8543,"RealNetworks</w>":8544,"religious</w>":8545,"hibition</w>":8546,"Ferrari</w>":8547,"Pinochet</w>":8548,"Dom":8549,"Ray</w>":8550,"aim</w>":8551,"Inf":8552,"ocide</w>":8553,"worked</w>":8554,"mother</w>":8555,"ums</w>":8556,"iel</w>":8557,"mist</w>":8558,"lowered</w>":8559,"Depot</w>":8560,"feet</w>":8561,"penalty</w>":8562,"note</w>":8563,"Schwar":8564,"Palace</w>":8565,"Veritas</w>":8566,"neck</w>":8567,"Golden</w>":8568,"crowded</w>":8569,"Phoenix</w>":8570,"sluggish</w>":8571,"Broadband</w>":8572,"scientist</w>":8573,"gasoline</w>":8574,"setback</w>":8575,"Iowa</w>":8576,"Eriksson</w>":8577,"Bun":8578,"gship</w>":8579,"stab":8580,"ecially</w>":8581,"amo</w>":8582,"mately</w>":8583,"eered</w>":8584,"plu":8585,"Stru":8586,"reporters</w>":8587,"casting</w>":8588,"elect</w>":8589,"Succ":8590,"trials</w>":8591,"desper":8592,"1999</w>":8593,"clothing</w>":8594,"149</w>":8595,"prises</w>":8596,"enda</w>":8597,"filled</w>":8598,"employee</w>":8599,"settled</w>":8600,"provides</w>":8601,"regulatory</w>":8602,"copies</w>":8603,"Survey</w>":8604,"utility</w>":8605,"Storage</w>":8606,"crackdown</w>":8607,"Retail":8608,"especially</w>":8609,"sevic</w>":8610,"civilian</w>":8611,"Milosevic</w>":8612,"125</w>":8613,"Av":8614,"BU":8615,"TI</w>":8616,"crown</w>":8617,"fall":8618,"ster":8619,"restore</w>":8620,"ords</w>":8621,"ometi":8622,"shore</w>":8623,"exac":8624,"exerc":8625,"fires</w>":8626,"Montg":8627,"Environ":8628,"audio</w>":8629,"manage</w>":8630,"260</w>":8631,"ticket</w>":8632,"consul":8633,"funding</w>":8634,"Vivend":8635,"handsets</w>":8636,"Bern":8637,"Briefly</w>":8638,"Future</w>":8639,"environmental</w>":8640,"espread</w>":8641,"ometimes</w>":8642,"Vivendi</w>":8643,"Hold</w>":8644,"Hurricanes</w>":8645,"JO":8646,"Ron":8647,"fted</w>":8648,"gary</w>":8649,"hang":8650,"print</w>":8651,"sy</w>":8652,"sala":8653,"proper</w>":8654,"suing</w>":8655,"coaches</w>":8656,"waters</w>":8657,"Several</w>":8658,"sense</w>":8659,"airs</w>":8660,"achiev":8661,"Phil</w>":8662,"386</w>":8663,"staur":8664,"seeing</w>":8665,"meets</w>":8666,"delivery</w>":8667,"carriers</w>":8668,"ADEL":8669,"initiative</w>":8670,"clients</w>":8671,"backup</w>":8672,"gaming</w>":8673,"TiV":8674,"neighbor":8675,"Munich</w>":8676,"original</w>":8677,"alternative</w>":8678,"Buffalo</w>":8679,"compensation</w>":8680,"Ban</w>":8681,"Eric":8682,"Fel":8683,"LSU</w>":8684,"Rice</w>":8685,"Ricky</w>":8686,"Sc":8687,"She</w>":8688,"Scienti":8689,"Smart</w>":8690,"TH</w>":8691,"gent</w>":8692,"tical</w>":8693,"alists</w>":8694,"ache</w>":8695,"oles":8696,"atorial</w>":8697,"sitive</w>":8698,"conspi":8699,"sug":8700,"fort":8701,"depar":8702,"reasons</w>":8703,"expensive</w>":8704,"Buys</w>":8705,"Rose</w>":8706,"141</w>":8707,"flagship</w>":8708,"McDonald</w>":8709,"promising</w>":8710,"organizations</w>":8711,"Panthers</w>":8712,"strength":8713,"Trust</w>":8714,"Bln</w>":8715,"Gunmen</w>":8716,"knocked</w>":8717,"justice</w>":8718,"Pilots</w>":8719,"Lenovo</w>":8720,"TiVo</w>":8721,"Beng":8722,"Chad</w>":8723,"Daim":8724,"HAR":8725,"NC</w>":8726,"Spar":8727,"fro":8728,"gli":8729,"nic":8730,"nav":8731,"rav":8732,"unexpec":8733,"emen":8734,"theft</w>":8735,"Monetary</w>":8736,"cians</w>":8737,"ghes</w>":8738,"Suz":8739,"estate</w>":8740,"capabilities</w>":8741,"Least</w>":8742,"Libe":8743,"brokerage</w>":8744,"slides</w>":8745,"handset</w>":8746,"easily</w>":8747,"Missis":8748,"pictures</w>":8749,"rocked</w>":8750,"widespread</w>":8751,"Hughes</w>":8752,"retire</w>":8753,"reality</w>":8754,"Owens</w>":8755,"ancient</w>":8756,"armaceutical</w>":8757,"Diamondbacks</w>":8758,"unexpectedly</w>":8759,"115</w>":8760,"DP</w>":8761,"Lau":8762,"Sach":8763,"tinc":8764,"vid":8765,"vin</w>":8766,"xury</w>":8767,"arily</w>":8768,"loses</w>":8769,"edom</w>":8770,"Rebel</w>":8771,"coordin":8772,"verage</w>":8773,"victories</w>":8774,"risks</w>":8775,"Contract</w>":8776,"NEWS</w>":8777,"109</w>":8778,"Gives</w>":8779,"explosions</w>":8780,"suspend</w>":8781,"Arsene</w>":8782,"favor</w>":8783,"Netfli":8784,"Boost</w>":8785,"Lebanese</w>":8786,"learned</w>":8787,"influence</w>":8788,"searching</w>":8789,"consin</w>":8790,"Wisconsin</w>":8791,"relationship</w>":8792,"Suzuk":8793,"Netflix</w>":8794,"114</w>":8795,"750</w>":8796,"LOU":8797,"MBER</w>":8798,"Ov":8799,"Xin":8800,"female</w>":8801,"kar</w>":8802,"slowing</w>":8803,"sonal</w>":8804,"tish</w>":8805,"itation</w>":8806,"Infin":8807,"edway</w>":8808,"coal</w>":8809,"Month</w>":8810,"cauti":8811,"Shows</w>":8812,"Proc":8813,"bassad":8814,"166</w>":8815,"280</w>":8816,"pipeline</w>":8817,"pitching</w>":8818,"grid</w>":8819,"effects</w>":8820,"TER</w>":8821,"license</w>":8822,"cyber":8823,"Social</w>":8824,"Fuel</w>":8825,"12th</w>":8826,"Ramad":8827,"determine</w>":8828,"legisla":8829,"opponent</w>":8830,"Debate</w>":8831,"triumph</w>":8832,"Mutu</w>":8833,"Mississi":8834,"Dy":8835,"Foc":8836,"MAD":8837,"battered</w>":8838,"cir":8839,"tant</w>":8840,"anamo</w>":8841,"tionary</w>":8842,"kee</w>":8843,"overwhel":8844,"cited</w>":8845,"Short</w>":8846,"IND":8847,"Com</w>":8848,"155</w>":8849,"265</w>":8850,"swag":8851,"battles</w>":8852,"expert</w>":8853,"complex</w>":8854,"processing</w>":8855,"clean</w>":8856,"Beats</w>":8857,"sparked</w>":8858,"scene</w>":8859,"Switzer":8860,"trend</w>":8861,"Beslan</w>":8862,"Xinhu":8863,"By":8864,"Ji":8865,"Khan</w>":8866,"TI":8867,"atives</w>":8868,"bon</w>":8869,"hire</w>":8870,"listed</w>":8871,"slowed</w>":8872,"ument</w>":8873,"vows</w>":8874,"inion</w>":8875,"arrives</w>":8876,"illas</w>":8877,"unemployment</w>":8878,"agenda</w>":8879,"overage</w>":8880,"overhaul</w>":8881,"ffs</w>":8882,"Liber":8883,"165</w>":8884,"movement</w>":8885,"hoped</w>":8886,"Guid":8887,"ICC</w>":8888,"humans</w>":8889,"policies</w>":8890,"Goes</w>":8891,"Officer</w>":8892,"volun":8893,"thinking</w>":8894,"narrow":8895,"slowdown</w>":8896,"sexual</w>":8897,"extrem":8898,"deployment</w>":8899,"Soldiers</w>":8900,"Equatorial</w>":8901,"plea</w>":8902,"Program</w>":8903,"deploy</w>":8904,"Orioles</w>":8905,"Guantanamo</w>":8906,"Cat":8907,"Cand":8908,"Men</w>":8909,"SCO</w>":8910,"fers</w>":8911,"thro":8912,"chenko</w>":8913,"unexpected</w>":8914,"satis":8915,"existing</w>":8916,"toral</w>":8917,"fixed</w>":8918,"Andrea":8919,"Spyware</w>":8920,"Opposition</w>":8921,"struments</w>":8922,"boom</w>":8923,"swim":8924,"Eli</w>":8925,"antas</w>":8926,"Disc":8927,"limit</w>":8928,"extending</w>":8929,"changing</w>":8930,"Funds</w>":8931,"green":8932,"horse</w>":8933,"Febru":8934,"PayP":8935,"Investig":8936,"console</w>":8937,"licensing</w>":8938,"Control</w>":8939,"citizens</w>":8940,"Safety</w>":8941,"Taylor</w>":8942,"Mississippi</w>":8943,"February</w>":8944,"113</w>":8945,"Dick</w>":8946,"Jeff":8947,"Names</w>":8948,"Seek</w>":8949,"bai</w>":8950,"rone</w>":8951,"vast</w>":8952,"resist":8953,"rists</w>":8954,"comed</w>":8955,"prop":8956,"Regu":8957,"Change</w>":8958,"tos</w>":8959,"persu":8960,"eva</w>":8961,"wap</w>":8962,"ological</w>":8963,"191</w>":8964,"Palm</w>":8965,"Open":8966,"calm</w>":8967,"bie</w>":8968,"half":8969,"creation</w>":8970,"publisher</w>":8971,"intended</w>":8972,"lements</w>":8973,"Run</w>":8974,"typhoon</w>":8975,"dominant</w>":8976,"MSFT</w>":8977,"barely</w>":8978,"maintain</w>":8979,"Following</w>":8980,"granted</w>":8981,"OKs</w>":8982,"Switzerland</w>":8983,"Andreas</w>":8984,"Las</w>":8985,"Sean</w>":8986,"bal</w>":8987,"itely</w>":8988,"mming</w>":8989,"becomes</w>":8990,"sta</w>":8991,"ecli":8992,"consortium</w>":8993,"seriously</w>":8994,"misses</w>":8995,"Autom":8996,"Consid":8997,"Indies</w>":8998,"stics</w>":8999,"estone</w>":9000,"Roy":9001,"Rescu":9002,"shake</w>":9003,"295</w>":9004,"gative</w>":9005,"Finds</w>":9006,"virtual</w>":9007,"Orders</w>":9008,"endor":9009,"TechWeb</w>":9010,"Health":9011,"Belgi":9012,"Pirates</w>":9013,"combined</w>":9014,"prepares</w>":9015,"Pennsy":9016,"Padres</w>":9017,"Bengals</w>":9018,"EDS</w>":9019,"Fle":9020,"Hurt</w>":9021,"Qantas</w>":9022,"Ran":9023,"Rates</w>":9024,"dants</w>":9025,"gad":9026,"treat</w>":9027,"thin</w>":9028,"revised</w>":9029,"enses</w>":9030,"quie":9031,"sphere</w>":9032,"perman":9033,"mart":9034,"Marion</w>":9035,"wai":9036,"190</w>":9037,"156</w>":9038,"164</w>":9039,"762</w>":9040,"Profits</w>":9041,"engines</w>":9042,"ticle</w>":9043,"ARTA</w>":9044,"Holds</w>":9045,"Finland</w>":9046,"olume</w>":9047,"lifts</w>":9048,"climb</w>":9049,"Rich":9050,"Bloom":9051,"clinch</w>":9052,"AKARTA</w>":9053,"welcomed</w>":9054,"victim</w>":9055,"GOP</w>":9056,"PHIL":9057,"Files</w>":9058,"NATIONS</w>":9059,"Authority</w>":9060,"anisation</w>":9061,"210</w>":9062,"230</w>":9063,"ABC</w>":9064,"Fur":9065,"HR":9066,"Imp":9067,"SU":9068,"band":9069,"bills</w>":9070,"hiring</w>":9071,"wers</w>":9072,"thrown</w>":9073,"eans</w>":9074,"remove</w>":9075,"enfor":9076,"road":9077,"pur</w>":9078,"Markets</w>":9079,"upbeat</w>":9080,"143</w>":9081,"185</w>":9082,"keeper</w>":9083,"Gene</w>":9084,"Polic":9085,"stormed</w>":9086,"Patrick</w>":9087,"Hubble</w>":9088,"Devil</w>":9089,"detained</w>":9090,"momentum</w>":9091,"definition</w>":9092,"restric":9093,"Branson</w>":9094,"architec":9095,"Quarterly</w>":9096,"NTT</w>":9097,"Machines</w>":9098,"Belgium</w>":9099,"Pennsylvania</w>":9100,"112</w>":9101,"650</w>":9102,"Cer":9103,"Dan</w>":9104,"G5</w>":9105,"PS</w>":9106,"VIE":9107,"Wood":9108,"nea":9109,"pen</w>":9110,"iner</w>":9111,"innov":9112,"throwing</w>":9113,"resting</w>":9114,"itten</w>":9115,"acre</w>":9116,"tap</w>":9117,"stel":9118,"custo":9119,"Prosecu":9120,"Mao":9121,"demanded</w>":9122,"Only</w>":9123,"stock":9124,"fails</w>":9125,"761</w>":9126,"Lind":9127,"360</w>":9128,"curb</w>":9129,"270</w>":9130,"Merrill</w>":9131,"ministry</w>":9132,"heavily</w>":9133,"Blockbuster</w>":9134,"bloody</w>":9135,"birds</w>":9136,"promote</w>":9137,"simple</w>":9138,"Index</w>":9139,"Terror":9140,"Fri":9141,"Fred":9142,"JAKARTA</w>":9143,"Lam":9144,"Spo":9145,"Stop</w>":9146,"glo":9147,"zz</w>":9148,"tial</w>":9149,"ices</w>":9150,"esca":9151,"academ":9152,"haz":9153,"apart</w>":9154,"buts</w>":9155,"worry</w>":9156,"tentative</w>":9157,"overty</w>":9158,"alize</w>":9159,"Artest</w>":9160,"Phones</w>":9161,"182</w>":9162,"765</w>":9163,"256</w>":9164,"254</w>":9165,"Juli":9166,"investigators</w>":9167,"COMP":9168,"regulator</w>":9169,"Portu":9170,"ssil</w>":9171,"OUR":9172,"Investment</w>":9173,"Ukrain":9174,"house":9175,"Scottish</w>":9176,"consolid":9177,"Mayor</w>":9178,"peacekeepers</w>":9179,"certainty</w>":9180,"Announces</w>":9181,"Square</w>":9182,"Aziz</w>":9183,"Back":9184,"Cop":9185,"ED":9186,"Hill</w>":9187,"Langer</w>":9188,"Nat":9189,"Orange</w>":9190,"Pope</w>":9191,"WTA</w>":9192,"br</w>":9193,"billions</w>":9194,"fill</w>":9195,"envoy</w>":9196,"eless</w>":9197,"acom</w>":9198,"ira</w>":9199,"iron</w>":9200,"ressing</w>":9201,"convention</w>":9202,"umber</w>":9203,"phishing</w>":9204,"Ander":9205,"larity</w>":9206,"Spur":9207,"mann</w>":9208,"baseman</w>":9209,"angered</w>":9210,"Opens</w>":9211,"signal</w>":9212,"745</w>":9213,"supposed</w>":9214,"Mixed</w>":9215,"Give</w>":9216,"Poland</w>":9217,"Harvard</w>":9218,"Hot":9219,"aiming</w>":9220,"lifting</w>":9221,"Venus</w>":9222,"balance</w>":9223,"checks</w>":9224,"simply</w>":9225,"refugees</w>":9226,"Fenway</w>":9227,"Partners</w>":9228,"Ovitz</w>":9229,"217</w>":9230,"wau":9231,"easing</w>":9232,"olen</w>":9233,"asking</w>":9234,"exit</w>":9235,"Mich</w>":9236,"Project</w>":9237,"Conway</w>":9238,"Moham":9239,"defend</w>":9240,"medic":9241,"ancel":9242,"telling</w>":9243,"202</w>":9244,"181</w>":9245,"Ell":9246,"dropping</w>":9247,"gap</w>":9248,"179</w>":9249,"175</w>":9250,"Trading</w>":9251,"McC":9252,"Gib":9253,"succeed</w>":9254,"Yankee</w>":9255,"Milwau":9256,"advoc":9257,"ballot</w>":9258,"someone</w>":9259,"proposals</w>":9260,"celebrate</w>":9261,"Manager</w>":9262,"determined</w>":9263,"prompting</w>":9264,"PHIA</w>":9265,"reserves</w>":9266,"Circuit</w>":9267,"governing</w>":9268,"Milwaukee</w>":9269,"CH</w>":9270,"Fish</w>":9271,"Push</w>":9272,"Rate</w>":9273,"Reach</w>":9274,"gren":9275,"jit":9276,"inspi":9277,"restaur":9278,"idly</w>":9279,"stalled</w>":9280,"older</w>":9281,"loan</w>":9282,"shru":9283,"destruction</w>":9284,"lum</w>":9285,"rist</w>":9286,"Comcast</w>":9287,"Worries</w>":9288,"Speed</w>":9289,"198</w>":9290,"ranks</w>":9291,"closure</w>":9292,"Tot":9293,"hopeful</w>":9294,"Cuban</w>":9295,"William</w>":9296,"confron":9297,"Labor":9298,"communist</w>":9299,"tsun":9300,"doubts</w>":9301,"Silicon":9302,"siles</w>":9303,"rebound</w>":9304,"Northwest</w>":9305,"photograph":9306,"journalist</w>":9307,"FOR</w>":9308,"NATO</w>":9309,"replacement</w>":9310,"leagues</w>":9311,"revenues</w>":9312,"abducted</w>":9313,"postponed</w>":9314,"ADELPHIA</w>":9315,"Daimler":9316,"PHILADELPHIA</w>":9317,"ancellor</w>":9318,"CIA</w>":9319,"Hamp":9320,"Khar":9321,"MVP</w>":9322,"Rat":9323,"Wid":9324,"Yen</w>":9325,"YUK":9326,"uel</w>":9327,"teral</w>":9328,"repu":9329,"idays</w>":9330,"ala</w>":9331,"impose</w>":9332,"dump":9333,"trapped</w>":9334,"Fran":9335,"phic</w>":9336,"healthy</w>":9337,"counts</w>":9338,"essing</w>":9339,"alians</w>":9340,"Stake</w>":9341,"defended</w>":9342,"interc":9343,"201</w>":9344,"266</w>":9345,"Link</w>":9346,"257</w>":9347,"handle</w>":9348,"Falcons</w>":9349,"90s</w>":9350,"Trojan</w>":9351,"Hugo</w>":9352,"dividend</w>":9353,"Magic</w>":9354,"surprising</w>":9355,"representing</w>":9356,"Eyes</w>":9357,"Multi":9358,"optimism</w>":9359,"Kennedy</w>":9360,"Cambodia</w>":9361,"SiliconValley</w>":9362,"117</w>":9363,"Ich":9364,"Nick</w>":9365,"PLC</w>":9366,"Q3</w>":9367,"Ral":9368,"Right</w>":9369,"Rising</w>":9370,"Well</w>":9371,"iation</w>":9372,"tty</w>":9373,"wol":9374,"youn":9375,"thering</w>":9376,"oration</w>":9377,"tiz</w>":9378,"tier</w>":9379,"rape</w>":9380,"chase</w>":9381,"usted</w>":9382,"Chan":9383,"worse</w>":9384,"route</w>":9385,"Strea":9386,"Share</w>":9387,"Both</w>":9388,"doors</w>":9389,"Costs</w>":9390,"154</w>":9391,"153</w>":9392,"264</w>":9393,"293</w>":9394,"747</w>":9395,"swept</w>":9396,"177</w>":9397,"375</w>":9398,"Ortiz</w>":9399,"Hostages</w>":9400,"charac":9401,"midfielder</w>":9402,"Portable</w>":9403,"deadliest</w>":9404,"commerce</w>":9405,"Governor</w>":9406,"district</w>":9407,"commitment</w>":9408,"11th</w>":9409,"Protection</w>":9410,"viewing</w>":9411,"modest</w>":9412,"Randy</w>":9413,"Dream":9414,"surrounding</w>":9415,"Eliot</w>":9416,"criticized</w>":9417,"humanitarian</w>":9418,"conspiracy</w>":9419,"bassador</w>":9420,"DaimlerChrysler</w>":9421,"POR":9422,"TD</w>":9423,"Tel</w>":9424,"danger</w>":9425,"pack</w>":9426,"rever":9427,"enced</w>":9428,"ilit":9429,"chas":9430,"loans</w>":9431,"contest</w>":9432,"mala":9433,"parliam":9434,"factories</w>":9435,"winners</w>":9436,"186</w>":9437,"262</w>":9438,"swing</w>":9439,"308</w>":9440,"Manufac":9441,"folio</w>":9442,"275</w>":9443,"discovery</w>":9444,"Charlot":9445,"reveal</w>":9446,"regime</w>":9447,"meant</w>":9448,"unveil</w>":9449,"Mission</w>":9450,"APOL":9451,"Roma</w>":9452,"Trump</w>":9453,"recorded</w>":9454,"connections</w>":9455,"Ernie</w>":9456,"assassination</w>":9457,"Lynch</w>":9458,"regarding</w>":9459,"kicked</w>":9460,"Aff":9461,"Late</w>":9462,"Tam":9463,"Tow":9464,"bat</w>":9465,"gger</w>":9466,"mingham</w>":9467,"pin":9468,"else</w>":9469,"accomp":9470,"bucks</w>":9471,"buyers</w>":9472,"Mary</w>":9473,"disc</w>":9474,"hot":9475,"pricing</w>":9476,"starter</w>":9477,"Que":9478,"solic":9479,"188</w>":9480,"soared</w>":9481,"49ers</w>":9482,"276</w>":9483,"Merger</w>":9484,"denly</w>":9485,"syn":9486,"survived</w>":9487,"brief</w>":9488,"Local</w>":9489,"athletes</w>":9490,"Eye</w>":9491,"rystal</w>":9492,"destroyed</w>":9493,"VIEW</w>":9494,"Ichiro</w>":9495,"Crew</w>":9496,"Jet</w>":9497,"LIN</w>":9498,"NZ</w>":9499,"Pra":9500,"elan</w>":9501,"kage</w>":9502,"sat</w>":9503,"tten</w>":9504,"alem</w>":9505,"olds</w>":9506,"oper</w>":9507,"coni</w>":9508,"export</w>":9509,"spots</w>":9510,"umped</w>":9511,"park</w>":9512,"miners</w>":9513,"scar":9514,"vist</w>":9515,"194</w>":9516,"ization</w>":9517,"Poor</w>":9518,"ishi</w>":9519,"169</w>":9520,"183</w>":9521,"241</w>":9522,"290</w>":9523,"283</w>":9524,"255</w>":9525,"flaws</w>":9526,"Earn":9527,"directly</w>":9528,"Haiti":9529,"intensi":9530,"PEG</w>":9531,"Rockies</w>":9532,"Chips</w>":9533,"pilot</w>":9534,"struggles</w>":9535,"cycle</w>":9536,"Cash</w>":9537,"linebacker</w>":9538,"severe</w>":9539,"MADR":9540,"enforcement</w>":9541,"APOLIS</w>":9542,"136</w>":9543,"900</w>":9544,"CF":9545,"Ful":9546,"Laz":9547,"Moun":9548,"NE</w>":9549,"Wat":9550,"frac":9551,"gaining</w>":9552,"pra":9553,"lateral</w>":9554,"ori":9555,"oured</w>":9556,"stakes</w>":9557,"atmo":9558,"lived</w>":9559,"recover</w>":9560,"recovered</w>":9561,"phase</w>":9562,"luxury</w>":9563,"priced</w>":9564,"Sues</w>":9565,"195</w>":9566,"197</w>":9567,"genocide</w>":9568,"158</w>":9569,"boosts</w>":9570,"efs</w>":9571,"208</w>":9572,"Steel</w>":9573,"390</w>":9574,"weak":9575,"threaten</w>":9576,"Find</w>":9577,"174</w>":9578,"ELD</w>":9579,"Syrian</w>":9580,"relatives</w>":9581,"extends</w>":9582,"long":9583,"affect</w>":9584,"Mexican</w>":9585,"houses</w>":9586,"telecom</w>":9587,"prosecutor</w>":9588,"diplomatic</w>":9589,"conducted</w>":9590,"prompted</w>":9591,"materials</w>":9592,"Mourinho</w>":9593,"guaran":9594,"Agrees</w>":9595,"temporary</w>":9596,"BERLIN</w>":9597,"YUKOS</w>":9598,"Charlotte</w>":9599,"Hu</w>":9600,"Hist":9601,"ME</w>":9602,"P2":9603,"Sale</w>":9604,"Wo":9605,"Zook</w>":9606,"ael</w>":9607,"coo":9608,"dest</w>":9609,"flow</w>":9610,"ik</w>":9611,"iet</w>":9612,"ano":9613,"replaced</w>":9614,"robo":9615,"saving</w>":9616,"resources</w>":9617,"Rejects</w>":9618,"spur":9619,"anner</w>":9620,"discount</w>":9621,"racuse</w>":9622,"countr":9623,"jobless</w>":9624,"operate</w>":9625,"161</w>":9626,"163</w>":9627,"249</w>":9628,"244</w>":9629,"299</w>":9630,"285</w>":9631,"362</w>":9632,"754</w>":9633,"Adds</w>":9634,"subishi</w>":9635,"277</w>":9636,"Syracuse</w>":9637,"insurgency</w>":9638,"student</w>":9639,"Bombs</w>":9640,"Tests</w>":9641,"competing</w>":9642,"learn</w>":9643,"Grizz":9644,"material</w>":9645,"Mitsubishi</w>":9646,"exporters</w>":9647,"BALL</w>":9648,"stretch</w>":9649,"ughter</w>":9650,"Experts</w>":9651,"Favre</w>":9652,"exactly</w>":9653,"cautious</w>":9654,"PayPal</w>":9655,"resistance</w>":9656,"Cable</w>":9657,"De</w>":9658,"Dies</w>":9659,"Fid":9660,"Fears</w>":9661,"IV</w>":9662,"KE":9663,"Ki":9664,"OF</w>":9665,"UC":9666,"aide</w>":9667,"ligh":9668,"san</w>":9669,"task</w>":9670,"wa</w>":9671,"repair</w>":9672,"ectively</w>":9673,"usually</w>":9674,"usalem</w>":9675,"Intell":9676,"owing</w>":9677,"app</w>":9678,"rental</w>":9679,"pus</w>":9680,"expands</w>":9681,"Anwar</w>":9682,"Shut":9683,"Conc":9684,"Concer":9685,"Spi":9686,"counted</w>":9687,"167</w>":9688,"269</w>":9689,"248</w>":9690,"298</w>":9691,"780</w>":9692,"758</w>":9693,"302</w>":9694,"305</w>":9695,"274</w>":9696,"370</w>":9697,"Yanks</w>":9698,"newratings</w>":9699,"Elections</w>":9700,"Musab</w>":9701,"hij":9702,"Virus</w>":9703,"Voters</w>":9704,"pushes</w>":9705,"Jerusalem</w>":9706,"crack</w>":9707,"Malaysian</w>":9708,"viewed</w>":9709,"Fraud</w>":9710,"foreigners</w>":9711,"aggressive</w>":9712,"Changes</w>":9713,"necessary</w>":9714,"Grizzlies</w>":9715,"Banks</w>":9716,"Floo":9717,"Kir":9718,"Mln</w>":9719,"QB</w>":9720,"Toll</w>":9721,"dle":9722,"kswag":9723,"packed</w>":9724,"tout</w>":9725,"vement</w>":9726,"rero</w>":9727,"robust</w>":9728,"stable</w>":9729,"eces</w>":9730,"actually</w>":9731,"attrac":9732,"Threat</w>":9733,"hailed</w>":9734,"administra":9735,"sun</w>":9736,"guards</w>":9737,"Marine</w>":9738,"lown</w>":9739,"193</w>":9740,"Soyu":9741,"204</w>":9742,"184</w>":9743,"385</w>":9744,"342</w>":9745,"ggets</w>":9746,"365</w>":9747,"740</w>":9748,"798</w>":9749,"271</w>":9750,"376</w>":9751,"slam</w>":9752,"Senior</w>":9753,"Belgian</w>":9754,"bankrupt</w>":9755,"pullout</w>":9756,"ballots</w>":9757,"Silver":9758,"Moves</w>":9759,"modern</w>":9760,"Volkswag":9761,"defender</w>":9762,"Family</w>":9763,"alogue</w>":9764,"Infineon</w>":9765,"tsunami</w>":9766,"Soyuz</w>":9767,"Volkswagen</w>":9768,"Award</w>":9769,"During</w>":9770,"GDP</w>":9771,"MGM</w>":9772,"MCI</w>":9773,"Ray":9774,"ible</w>":9775,"osa":9776,"pages</w>":9777,"laid</w>":9778,"remember</w>":9779,"unt</w>":9780,"riage</w>":9781,"nett</w>":9782,"prospect</w>":9783,"Injured</w>":9784,"worn</w>":9785,"stra</w>":9786,"discip":9787,"Conn":9788,"amped</w>":9789,"goal":9790,"Roy</w>":9791,"democra":9792,"casu":9793,"Stock":9794,"209</w>":9795,"162</w>":9796,"187</w>":9797,"242</w>":9798,"245</w>":9799,"381</w>":9800,"388</w>":9801,"Flu</w>":9802,"349</w>":9803,"287</w>":9804,"251</w>":9805,"258</w>":9806,"746</w>":9807,"sored</w>":9808,"buildings</w>":9809,"Custom":9810,"171</w>":9811,"279</w>":9812,"377</w>":9813,"802</w>":9814,"newest</w>":9815,"match":9816,"landed</w>":9817,"Crash</w>":9818,"Mortgage</w>":9819,"path</w>":9820,"strengthen</w>":9821,"slip</w>":9822,"Robinson</w>":9823,"Cyber":9824,"Bayern</w>":9825,"omerie</w>":9826,"Begins</w>":9827,"Rwanda</w>":9828,"Jamaica</w>":9829,"quietly</w>":9830,"parliamentary</w>":9831,"P2P</w>":9832,"Adam</w>":9833,"BANG":9834,"Cal</w>":9835,"Kh":9836,"Trou":9837,"Terry</w>":9838,"gment</w>":9839,"hus":9840,"leng":9841,"nogra":9842,"rigu":9843,"arch</w>":9844,"atop</w>":9845,"earth</w>":9846,"dee":9847,"versus</w>":9848,"tender</w>":9849,"marking</w>":9850,"pretty</w>":9851,"Boss</w>":9852,"142</w>":9853,"168</w>":9854,"261</w>":9855,"246</w>":9856,"247</w>":9857,"384</w>":9858,"286</w>":9859,"252</w>":9860,"392</w>":9861,"359</w>":9862,"353</w>":9863,"759</w>":9864,"306</w>":9865,"703</w>":9866,"submarine</w>":9867,"176</w>":9868,"371</w>":9869,"investigate</w>":9870,"Description</w>":9871,"eyer</w>":9872,"OSE</w>":9873,"confirms</w>":9874,"Access</w>":9875,"doubles</w>":9876,"indicated</w>":9877,"Nuggets</w>":9878,"hardt</w>":9879,"witness</w>":9880,"writer</w>":9881,"gressional</w>":9882,"solutions</w>":9883,"Tommy</w>":9884,"alization</w>":9885,"stunning</w>":9886,"impressive</w>":9887,"Treo</w>":9888,"Ghrai":9889,"Montgomerie</w>":9890,"Ghraib</w>":9891,"Backs</w>":9892,"FBI</w>":9893,"Jar":9894,"SER":9895,"oners</w>":9896,"essive</w>":9897,"ament</w>":9898,"Through</w>":9899,"exhibition</w>":9900,"Check</w>":9901,"andan</w>":9902,"monit":9903,"Marathon</w>":9904,"mph</w>":9905,"Max</w>":9906,"192</w>":9907,"outfielder</w>":9908,"Cost</w>":9909,"157</w>":9910,"withdrew</w>":9911,"206</w>":9912,"205</w>":9913,"189</w>":9914,"767</w>":9915,"760</w>":9916,"763</w>":9917,"263</w>":9918,"243</w>":9919,"341</w>":9920,"348</w>":9921,"297</w>":9922,"364</w>":9923,"399</w>":9924,"796</w>":9925,"784</w>":9926,"787</w>":9927,"357</w>":9928,"tourists</w>":9929,"178</w>":9930,"Travel</w>":9931,"273</w>":9932,"379</w>":9933,"372</w>":9934,"politic":9935,"Arist":9936,"Talk</w>":9937,"Louis":9938,"Louisi":9939,"stream</w>":9940,"walked</w>":9941,"hero</w>":9942,"supporting</w>":9943,"Brewers</w>":9944,"subsidies</w>":9945,"Daniel</w>":9946,"ethnic</w>":9947,"FIELD</w>":9948,"eventually</w>":9949,"Salvation</w>":9950,"fashion</w>":9951,"IAEA</w>":9952,"129</w>":9953,"Aar":9954,"ES":9955,"Gain</w>":9956,"Jona":9957,"Kur":9958,"bow</w>":9959,"dles</w>":9960,"fat":9961,"gan</w>":9962,"swi":9963,"sburg</w>":9964,"refin":9965,"rels</w>":9966,"removed</w>":9967,"arrests</w>":9968,"roads</w>":9969,"urging</w>":9970,"elling</w>":9971,"resign</w>":9972,"embarra":9973,"eders</w>":9974,"shrin":9975,"legi":9976,"spin":9977,"Chen</w>":9978,"immig":9979,"peak</w>":9980,"hotels</w>":9981,"warm</w>":9982,"rival":9983,"199</w>":9984,"shadow</w>":9985,"159</w>":9986,"152</w>":9987,"Carl</w>":9988,"Said</w>":9989,"267</w>":9990,"389</w>":9991,"387</w>":9992,"343</w>":9993,"367</w>":9994,"744</w>":9995,"743</w>":9996,"391</w>":9997,"396</w>":9998,"395</w>":9999,"795</w>":10000,"790</w>":10001,"782</w>":10002,"753</w>":10003,"301</w>":10004,"304</w>":10005,"concessions</w>":10006,"701</w>":10007,"706</w>":10008,"705</w>":10009,"704</w>":10010,"Holmes</w>":10011,"toum</w>":10012,"172</w>":10013,"brace</w>":10014,"ICE</w>":10015,"weekly</w>":10016,"Berlus":10017,"longest</w>":10018,"availability</w>":10019,"written</w>":10020,"Investor</w>":10021,"Suspen":10022,"Drops</w>":10023,"Venezuelan</w>":10024,"malicious</w>":10025,"village</w>":10026,"salv":10027,"occupi":10028,"Sonics</w>":10029,"electricity</w>":10030,"bidding</w>":10031,"Alaska</w>":10032,"Christian</w>":10033,"HRAN</w>":10034,"wolves</w>":10035,"Louisiana</w>":10036,"Jonathan</w>":10037,"AID":10038,"Beach</w>":10039,"EBay</w>":10040,"Ja":10041,"LO</w>":10042,"Rou":10043,"nas":10044,"tally</w>":10045,"teg":10046,"isse</w>":10047,"haven</w>":10048,"proof</w>":10049,"prominent</w>":10050,"Information</w>":10051,"oom</w>":10052,"pop</w>":10053,"pert</w>":10054,"cair":10055,"Commissioner</w>":10056,"pollution</w>":10057,"visits</w>":10058,"See</w>":10059,"AST</w>":10060,"Maver":10061,"economists</w>":10062,"Forum</w>":10063,"Soren":10064,"207</w>":10065,"268</w>":10066,"382</w>":10067,"Links</w>":10068,"347</w>":10069,"253</w>":10070,"741</w>":10071,"748</w>":10072,"788</w>":10073,"351</w>":10074,"356</w>":10075,"354</w>":10076,"ALI":10077,"Shawn</w>":10078,"Giant</w>":10079,"Polish</w>":10080,"Voting</w>":10081,"singles</w>":10082,"settlements</w>":10083,"standings</w>":10084,"damaged</w>":10085,"TEHRAN</w>":10086,"Pitcair":10087,"hamstring</w>":10088,"Romania</w>":10089,"birth</w>":10090,"Advance</w>":10091,"encia</w>":10092,"Blackburn</w>":10093,"icient</w>":10094,"devastating</w>":10095,"breakthrough</w>":10096,"ranging</w>":10097,"lunar</w>":10098,"Speedway</w>":10099,"Guidant</w>":10100,"Freddie</w>":10101,"riguez</w>":10102,"Aristide</w>":10103,"Berlusconi</w>":10104,"Bull</w>":10105,"Cross</w>":10106,"Iyad</w>":10107,"Let</w>":10108,"OC":10109,"RAM":10110,"Soun":10111,"Sab":10112,"Tun":10113,"Tour":10114,"Wake</w>":10115,"dant</w>":10116,"anic</w>":10117,"beheaded</w>":10118,"eri</w>":10119,"enters</w>":10120,"raids</w>":10121,"sively</w>":10122,"ovt</w>":10123,"coa</w>":10124,"sel</w>":10125,"overcome</w>":10126,"surve":10127,"minor</w>":10128,"Spending</w>":10129,"stripped</w>":10130,"sels</w>":10131,"345</w>":10132,"292</w>":10133,"289</w>":10134,"288</w>":10135,"361</w>":10136,"366</w>":10137,"363</w>":10138,"398</w>":10139,"394</w>":10140,"799</w>":10141,"792</w>":10142,"794</w>":10143,"786</w>":10144,"783</w>":10145,"752</w>":10146,"755</w>":10147,"309</w>":10148,"702</w>":10149,"708</w>":10150,"374</w>":10151,"Hawks</w>":10152,"hunting</w>":10153,"quiet</w>":10154,"portfolio</w>":10155,"Survi":10156,"Valencia</w>":10157,"involvement</w>":10158,"Appl":10159,"Lowe</w>":10160,"suggesting</w>":10161,"Rodriguez</w>":10162,"Penn</w>":10163,"volc":10164,"insurers</w>":10165,"erospace</w>":10166,"Debt</w>":10167,"explain</w>":10168,"Santander</w>":10169,"boycott</w>":10170,"emissions</w>":10171,"Suzuki</w>":10172,"MADRID</w>":10173,"Emer":10174,"Hard</w>":10175,"Klit":10176,"Naz":10177,"Pyon":10178,"SQ":10179,"coverage</w>":10180,"dent</w>":10181,"dance</w>":10182,"ei</w>":10183,"lure</w>":10184,"noc":10185,"pounded</w>":10186,"poverty</w>":10187,"scu":10188,"wine</w>":10189,"teur</w>":10190,"reject</w>":10191,"itted</w>":10192,"icated</w>":10193,"istered</w>":10194,"neys</w>":10195,"resort</w>":10196,"shook</w>":10197,"suite</w>":10198,"offee</w>":10199,"Frank":10200,"phony</w>":10201,"angry</w>":10202,"196</w>":10203,"holders</w>":10204,"outcome</w>":10205,"fail</w>":10206,"203</w>":10207,"383</w>":10208,"344</w>":10209,"291</w>":10210,"281</w>":10211,"369</w>":10212,"749</w>":10213,"397</w>":10214,"793</w>":10215,"781</w>":10216,"352</w>":10217,"756</w>":10218,"303</w>":10219,"709</w>":10220,"707</w>":10221,"channel</w>":10222,"ARL":10223,"cury</w>":10224,"278</w>":10225,"mortar</w>":10226,"Atomic</w>":10227,"Symb":10228,"direction</w>":10229,"protesters</w>":10230,"gymnastics</w>":10231,"spokeswoman</w>":10232,"indicted</w>":10233,"trees</w>":10234,"laptop</w>":10235,"happened</w>":10236,"ssi</w>":10237,"teammate</w>":10238,"engineer</w>":10239,"PSP</w>":10240,"Suspected</w>":10241,"erupted</w>":10242,"Louisville</w>":10243,"Pitcairn</w>":10244,"Souness</w>":10245,"Pyongy":10246,"550</w>":10247,"Arena</w>":10248,"Eth":10249,"Ir":10250,"Pas":10251,"Using</w>":10252,"XM</w>":10253,"dling</w>":10254,"km</w>":10255,"less":10256,"pled</w>":10257,"sest</w>":10258,"remin":10259,"arch":10260,"stam</w>":10261,"ali</w>":10262,"alcom":10263,"uss</w>":10264,"apar":10265,"extinc":10266,"abroad</w>":10267,"tenham</w>":10268,"finishing</w>":10269,"ffle</w>":10270,"seats</w>":10271,"akh":10272,"Arm":10273,"preview</w>":10274,"warn</w>":10275,"Seoul</w>":10276,"Qualcom":10277,"shape</w>":10278,"Once</w>":10279,"769</w>":10280,"768</w>":10281,"346</w>":10282,"282</w>":10283,"259</w>":10284,"ggling</w>":10285,"742</w>":10286,"789</w>":10287,"785</w>":10288,"swapping</w>":10289,"757</w>":10290,"307</w>":10291,"173</w>":10292,"proce":10293,"272</w>":10294,"378</w>":10295,"hander</w>":10296,"questioned</w>":10297,"Sender</w>":10298,"completing</w>":10299,"picks</w>":10300,"Piracy</w>":10301,"Rock</w>":10302,"wider</w>":10303,"Helps</w>":10304,"trick</w>":10305,"brands</w>":10306,"plunged</w>":10307,"substanti":10308,"ravaged</w>":10309,"Royals</w>":10310,"Earnhardt</w>":10311,"Aaron</w>":10312,"occupied</w>":10313,"Klitsch":10314,"Pyongyang</w>":10315,"Qualcomm</w>":10316,"121</w>":10317,"330</w>":10318,"Alab":10319,"Fis":10320,"Mand":10321,"Pey":10322,"Sli":10323,"ap</w>":10324,"dark</w>":10325,"ped":10326,"essed</w>":10327,"unusual</w>":10328,"tail":10329,"super</w>":10330,"deter":10331,"dust</w>":10332,"surging</w>":10333,"served</w>":10334,"Unix</w>":10335,"incident</w>":10336,"Jobless</w>":10337,"Making</w>":10338,"casino</w>":10339,"766</w>":10340,"296</w>":10341,"368</w>":10342,"797</w>":10343,"355</w>":10344,"751</w>":10345,"spectac":10346,"Guill":10347,"373</w>":10348,"quarterfinals</w>":10349,"Juan</w>":10350,"shortage</w>":10351,"Preview</w>":10352,"Puts</w>":10353,"Firms</w>":10354,"freedom</w>":10355,"emerge</w>":10356,"hospit":10357,"Samarra</w>":10358,"Industries</w>":10359,"Water</w>":10360,"Doub":10361,"BAI</w>":10362,"integration</w>":10363,"complaint</w>":10364,"bunal</w>":10365,"Phillips</w>":10366,"Heart</w>":10367,"Rafael</w>":10368,"Ukrainian</w>":10369,"atmosphere</w>":10370,"husband</w>":10371,"Klitschko</w>":10372,"220</w>":10373,"JA</w>":10374,"Luk":10375,"Met":10376,"Nine</w>":10377,"PO":10378,"Qwest</w>":10379,"TRO":10380,"Want</w>":10381,"Yud":10382,"gall":10383,"iest</w>":10384,"irez</w>":10385,"mon</w>":10386,"ogi":10387,"tator</w>":10388,"volume</w>":10389,"thu":10390,"roster</w>":10391,"alore</w>":10392,"rad</w>":10393,"elie</w>":10394,"amps</w>":10395,"resigns</w>":10396,"dez</w>":10397,"Chur":10398,"ricul":10399,"ulted</w>":10400,"finale</w>":10401,"minority</w>":10402,"asset</w>":10403,"Spac":10404,"grabbed</w>":10405,"preven":10406,"gotten</w>":10407,"berth</w>":10408,"AND</w>":10409,"captors</w>":10410,"Code</w>":10411,"Likely</w>":10412,"764</w>":10413,"dict</w>":10414,"294</w>":10415,"284</w>":10416,"393</w>":10417,"791</w>":10418,"Blasts</w>":10419,"tickets</w>":10420,"ERWORLD</w>":10421,"charging</w>":10422,"Agree</w>":10423,"limits</w>":10424,"Ocean</w>":10425,"receiving</w>":10426,"settles</w>":10427,"entering</w>":10428,"Chap":10429,"Walker</w>":10430,"River":10431,"activists</w>":10432,"reveals</w>":10433,"clinched</w>":10434,"Straw</w>":10435,"Ramirez</w>":10436,"Targets</w>":10437,"insurer</w>":10438,"scram":10439,"Looking</w>":10440,"Legal</w>":10441,"premier</w>":10442,"UTERWORLD</w>":10443,"JAF</w>":10444,"ambitions</w>":10445,"Liberty</w>":10446,"eclipse</w>":10447,"Maoist</w>":10448,"COMPUTERWORLD</w>":10449,"Tottenham</w>":10450,"SQL</w>":10451,"Symbian</w>":10452,"AH</w>":10453,"JP</w>":10454,"Jee":10455,"Kings</w>":10456,"Presidential</w>":10457,"SA":10458,"TRE":10459,"glit":10460,"jets</w>":10461,"pal":10462,"woes</w>":10463,"xy</w>":10464,"yan</w>":10465,"zers</w>":10466,"tect</w>":10467,"bet</w>":10468,"orb":10469,"stant</w>":10470,"urgent</w>":10471,"negative</w>":10472,"abe</w>":10473,"kett</w>":10474,"gift</w>":10475,"hoyon":10476,"Shu":10477,"Moss</w>":10478,"Suite</w>":10479,"scare</w>":10480,"visitors</w>":10481,"Alber":10482,"Ontar":10483,"upon</w>":10484,"ishers</w>":10485,"buried</w>":10486,"358</w>":10487,"correc":10488,"retain</w>":10489,"politicians</w>":10490,"Troy</w>":10491,"championships</w>":10492,"Defeat</w>":10493,"DVDs</w>":10494,"Stars</w>":10495,"tyco":10496,"Silicon</w>":10497,"Roman</w>":10498,"flood</w>":10499,"bolster</w>":10500,"Kreme</w>":10501,"profession":10502,"rapidly</w>":10503,"Purdue</w>":10504,"Saints</w>":10505,"escape</w>":10506,"Limited</w>":10507,"conservative</w>":10508,"Rookie</w>":10509,"NAJAF</w>":10510,"acknowledged</w>":10511,"Ericsson</w>":10512,"Focus</w>":10513,"Sorenstam</w>":10514,"Yudhoyon":10515,"Ontario</w>":10516,"Yudhoyono</w>":10517,"Ef":10518,"Nad":10519,"Rovers</w>":10520,"hat</w>":10521,"ive</w>":10522,"sand":10523,"slower</w>":10524,"intly</w>":10525,"latile</w>":10526,"header</w>":10527,"esh</w>":10528,"ectual</w>":10529,"irts</w>":10530,"Repor":10531,"spy</w>":10532,"poc":10533,"id969":10534,"march</w>":10535,"evolution</w>":10536,"boxing</w>":10537,"Afee</w>":10538,"assemb":10539,"fewer</w>":10540,"Resources</w>":10541,"ATP</w>":10542,"McAfee</w>":10543,"Viacom</w>":10544,"normal</w>":10545,"Personal</w>":10546,"blade</w>":10547,"Timber":10548,"settlers</w>":10549,"deliver":10550,"ACC</w>":10551,"Venture</w>":10552,"IDG</w>":10553,"newspapers</w>":10554,"bench</w>":10555,"credi":10556,"feeling</w>":10557,"violations</w>":10558,"Without</w>":10559,"Renault</w>":10560,"suddenly</w>":10561,"Alexander</w>":10562,"particularly</w>":10563,"Krispy</w>":10564,"Peyton</w>":10565,"212</w>":10566,"Ian</w>":10567,"Lay</w>":10568,"Log":10569,"Rut":10570,"Tou":10571,"VE":10572,"astronomers</w>":10573,"dred</w>":10574,"dled</w>":10575,"fting</w>":10576,"kin</w>":10577,"mmaker</w>":10578,"pac":10579,"uals</w>":10580,"onage</w>":10581,"assu":10582,"ema":10583,"admits</w>":10584,"mabad</w>":10585,"lef":10586,"pornogra":10587,"spin</w>":10588,"id258":10589,"id369":10590,"id1158":10591,"pays</w>":10592,"tention</w>":10593,"id1049":10594,"pharmaceutical</w>":10595,"Mickel":10596,"boxes</w>":10597,"Sep</w>":10598,"1990s</w>":10599,"Too</w>":10600,"Part</w>":10601,"managing</w>":10602,"colm</w>":10603,"color</w>":10604,"social</w>":10605,"Guer":10606,"relay</w>":10607,"appealed</w>":10608,"Medic":10609,"Bell":10610,"Islamabad</w>":10611,"IRO</w>":10612,"FedEx</w>":10613,"business":10614,"affected</w>":10615,"Approves</w>":10616,"location</w>":10617,"guns</w>":10618,"celebrated</w>":10619,"bent</w>":10620,"Breeders</w>":10621,"improvement</w>":10622,"earthquakes</w>":10623,"bowl</w>":10624,"animals</w>":10625,"Malcolm</w>":10626,"rapid</w>":10627,"Hornets</w>":10628,"Special</w>":10629,"teenager</w>":10630,"mystery</w>":10631,"GHz</w>":10632,"authenti":10633,"video":10634,"Bruce</w>":10635,"Track</w>":10636,"Alabama</w>":10637,"Mickelson</w>":10638,"126</w>":10639,"Ash":10640,"Esti":10641,"JOSE</w>":10642,"Pav":10643,"Sov":10644,"Tem":10645,"TVs</w>":10646,"Was</w>":10647,"bone</w>":10648,"bour":10649,"flew</w>":10650,"tles</w>":10651,"insists</w>":10652,"lab</w>":10653,"lator</w>":10654,"rein":10655,"erable</w>":10656,"enem":10657,"rati":10658,"ussels</w>":10659,"irty</w>":10660,"havi":10661,"Inter</w>":10662,"Instruments</w>":10663,"addition</w>":10664,"api":10665,"deton":10666,"detain":10667,"detec":10668,"id949":10669,"id958":10670,"id748":10671,"id799":10672,"id200":10673,"id249":10674,"id299":10675,"id859":10676,"tensions</w>":10677,"id1058":10678,"id1059":10679,"fines</w>":10680,"surren":10681,"mong</w>":10682,"monitor</w>":10683,"jointly</w>":10684,"rankings</w>":10685,"stayed</w>":10686,"frame</w>":10687,"advances</w>":10688,"Tropical</w>":10689,"analysis</w>":10690,"math</w>":10691,"Starbucks</w>":10692,"negotiating</w>":10693,"Reli":10694,"patches</w>":10695,"survivors</w>":10696,"significantly</w>":10697,"engineering</w>":10698,"various</w>":10699,"workforce</w>":10700,"Tendul":10701,"Interest</w>":10702,"quoted</w>":10703,"Picture</w>":10704,"condemned</w>":10705,"concluded</w>":10706,"sustained</w>":10707,"Catholic</w>":10708,"Spurrier</w>":10709,"Khartoum</w>":10710,"reputation</w>":10711,"Channel</w>":10712,"116</w>":10713,"122</w>":10714,"215</w>":10715,"Brett</w>":10716,"BOUR":10717,"Crac":10718,"Dr</w>":10719,"His":10720,"Jud":10721,"KONG</w>":10722,"VA</w>":10723,"ac</w>":10724,"bon":10725,"bold</w>":10726,"caf":10727,"hn</w>":10728,"icion</w>":10729,"esco</w>":10730,"choose</w>":10731,"unable</w>":10732,"ripped</w>":10733,"agg":10734,"assists</w>":10735,"id169":10736,"id199":10737,"Intro":10738,"ounce</w>":10739,"ador</w>":10740,"occur":10741,"reci":10742,"id959":10743,"id758":10744,"id759":10745,"id268":10746,"id349":10747,"id1148":10748,"id449":10749,"id1068":10750,"id1099":10751,"mark":10752,"mont</w>":10753,"Ank":10754,"Antar":10755,"accu":10756,"warplanes</w>":10757,"Maur":10758,"medium</w>":10759,"bang</w>":10760,"Road</w>":10761,"Rossi</w>":10762,"Bridge</w>":10763,"Good":10764,"Engine":10765,"18th</w>":10766,"Latin</w>":10767,"flag</w>":10768,"illen":10769,"Gazpro":10770,"DAM</w>":10771,"suspicion</w>":10772,"SEP":10773,"Missile</w>":10774,"Labs</w>":10775,"Taking</w>":10776,"Telescope</w>":10777,"Lawyers</w>":10778,"Goran</w>":10779,"Product</w>":10780,"Slam</w>":10781,"updated</w>":10782,"tane":10783,"Stanford</w>":10784,"sponsored</w>":10785,"steroids</w>":10786,"buyout</w>":10787,"nitude</w>":10788,"signals</w>":10789,"Siebel</w>":10790,"exclusive</w>":10791,"Hitachi</w>":10792,"Manufacturing</w>":10793,"Mavericks</w>":10794,"Timberwolves</w>":10795,"BHP</w>":10796,"Camp":10797,"Camp</w>":10798,"Danny</w>":10799,"EC":10800,"Fool</w>":10801,"Hot</w>":10802,"HONG</w>":10803,"Jay</w>":10804,"LAN</w>":10805,"Rights</w>":10806,"swap</w>":10807,"tled</w>":10808,"wouldn</w>":10809,"yn</w>":10810,"larus</w>":10811,"Thor":10812,"unlea":10813,"id149":10814,"edon</w>":10815,"tionable</w>":10816,"dep":10817,"compati":10818,"ourite</w>":10819,"id999":10820,"id769":10821,"id368":10822,"id500":10823,"id558":10824,"id599":10825,"id1159":10826,"id469":10827,"id448":10828,"id499":10829,"id658":10830,"id1069":10831,"fixing</w>":10832,"dawn</w>":10833,"missiles</w>":10834,"itious</w>":10835,"Islands</w>":10836,"closes</w>":10837,"Rober":10838,"Brussels</w>":10839,"barrels</w>":10840,"slump</w>":10841,"Under":10842,"TOW":10843,"authority</w>":10844,"pulling</w>":10845,"pulls</w>":10846,"Bali</w>":10847,"studio</w>":10848,"divided</w>":10849,"surprised</w>":10850,"cheaper</w>":10851,"FORD</w>":10852,"Birmingham</w>":10853,"revive</w>":10854,"Fresh</w>":10855,"triggered</w>":10856,"Retailers</w>":10857,"Bloomberg</w>":10858,"Anderson</w>":10859,"Tendulkar</w>":10860,"111</w>":10861,"337</w>":10862,"Ad</w>":10863,"DS":10864,"List</w>":10865,"MA</w>":10866,"Meyer</w>":10867,"Night</w>":10868,"Us</w>":10869,"au</w>":10870,"rings</w>":10871,"rants</w>":10872,"van":10873,"enable</w>":10874,"ustin</w>":10875,"resses</w>":10876,"00m</w>":10877,"sewhere</w>":10878,"plagu":10879,"id700":10880,"id749":10881,"id300":10882,"id358":10883,"id800":10884,"id549":10885,"id569":10886,"id559":10887,"id568":10888,"id1100":10889,"id1149":10890,"id1199":10891,"id458":10892,"id468":10893,"id659":10894,"id699":10895,"id1048":10896,"umping</w>":10897,"electoral</w>":10898,"Issues</w>":10899,"pressed</w>":10900,"sensitive</w>":10901,"Brun":10902,"etown</w>":10903,"wealth</w>":10904,"gathering</w>":10905,"Belarus</w>":10906,"intense</w>":10907,"clubs</w>":10908,"Plane</w>":10909,"copy</w>":10910,"challenger</w>":10911,"standoff</w>":10912,"Leading</w>":10913,"baby</w>":10914,"sonville</w>":10915,"Kuwait</w>":10916,"Browser</w>":10917,"adopted</w>":10918,"ordinary</w>":10919,"myster":10920,"chaos</w>":10921,"Political</w>":10922,"Private</w>":10923,"rivalry</w>":10924,"Drive</w>":10925,"ION</w>":10926,"Ker":10927,"LM</w>":10928,"Led</w>":10929,"Wri":10930,"Yet</w>":10931,"bond</w>":10932,"kman</w>":10933,"vital</w>":10934,"inder</w>":10935,"istent</w>":10936,"elite</w>":10937,"igner</w>":10938,"Then</w>":10939,"irt</w>":10940,"id158":10941,"id148":10942,"spra":10943,"posting</w>":10944,"imbl":10945,"moil</w>":10946,"verge</w>":10947,"id968":10948,"id269":10949,"id399":10950,"id849":10951,"id869":10952,"id858":10953,"id548":10954,"id400":10955,"id459":10956,"id600":10957,"id668":10958,"nian</w>":10959,"stro</w>":10960,"Shot</w>":10961,"prescription</w>":10962,"agreements</w>":10963,"ashing</w>":10964,"ishment</w>":10965,"flex":10966,"Place</w>":10967,"interests</w>":10968,"McGra":10969,"Warri":10970,"Hard":10971,"pursue</w>":10972,"Bernie</w>":10973,"Madison</w>":10974,"Rocket</w>":10975,"IRA</w>":10976,"Drugs</w>":10977,"Telstra</w>":10978,"Releases</w>":10979,"Must</w>":10980,"Pension</w>":10981,"Movie</w>":10982,"collapsed</w>":10983,"lingham</w>":10984,"PalmSource</w>":10985,"Children</w>":10986,"replacing</w>":10987,"Jere":10988,"certainly</w>":10989,"Stanley</w>":10990,"farmers</w>":10991,"inaugural</w>":10992,"audience</w>":10993,"SERV":10994,"Jeeves</w>":10995,"Effor":10996,"119</w>":10997,"133</w>":10998,"213</w>":10999,"235</w>":11000,"Among</w>":11001,"Bird</w>":11002,"Cau":11003,"Gen</w>":11004,"Nag":11005,"Van</w>":11006,"Wimbl":11007,"billionaire</w>":11008,"li</w>":11009,"ylum</w>":11010,"erson</w>":11011,"tist</w>":11012,"elson</w>":11013,"asters</w>":11014,"id159":11015,"id168":11016,"saver</w>":11017,"id848":11018,"id1169":11019,"overcame</w>":11020,"suring</w>":11021,"itive</w>":11022,"Progress</w>":11023,"Debut</w>":11024,"Delaw":11025,"Arro":11026,"defends</w>":11027,"closest</w>":11028,"Norwe":11029,"Secure</w>":11030,"ATI</w>":11031,"Possi":11032,"Trail</w>":11033,"Bargh":11034,"slash</w>":11035,"nerback</w>":11036,"observers</w>":11037,"approves</w>":11038,"suffer</w>":11039,"publicly</w>":11040,"Wild</w>":11041,"Graeme</w>":11042,"happen</w>":11043,"automaker</w>":11044,"contractor</w>":11045,"Homeland</w>":11046,"Continental</w>":11047,"Eric</w>":11048,"Kidnappers</w>":11049,"chemical</w>":11050,"Aviation</w>":11051,"MLB</w>":11052,"Hospital</w>":11053,"suggest</w>":11054,"LOUIS</w>":11055,"tycoon</w>":11056,"Delaware</w>":11057,"128</w>":11058,"221</w>":11059,"BOR":11060,"Bak":11061,"Bad</w>":11062,"CK":11063,"Ep":11064,"Han":11065,"Hur":11066,"Kath":11067,"Nation":11068,"Nation</w>":11069,"Ox":11070,"Rain</w>":11071,"Van":11072,"Zen":11073,"cease</w>":11074,"fold</w>":11075,"mare</w>":11076,"nes</w>":11077,"utic":11078,"behavi":11079,"stolen</w>":11080,"unrest</w>":11081,"uncertainty</w>":11082,"life":11083,"embr":11084,"dela":11085,"deep":11086,"improper</w>":11087,"id948":11088,"id768":11089,"id259":11090,"id359":11091,"id348":11092,"id899":11093,"id669":11094,"pledges</w>":11095,"kel</w>":11096,"guide</w>":11097,"dealers</w>":11098,"Proper":11099,"ampton</w>":11100,"clearing</w>":11101,"Maj":11102,"presents</w>":11103,"releasing</w>":11104,"facilities</w>":11105,"Cooper</w>":11106,"brid</w>":11107,"Assem":11108,"slid</w>":11109,"Warning</w>":11110,"Harrington</w>":11111,"endangered</w>":11112,"hundred</w>":11113,"Mercury</w>":11114,"Paula</w>":11115,"planets</w>":11116,"TEMBER</w>":11117,"drawn</w>":11118,"chosen</w>":11119,"bitration</w>":11120,"supported</w>":11121,"intellectual</w>":11122,"STER":11123,"Jacksonville</w>":11124,"Jamal</w>":11125,"ambitious</w>":11126,"Wells</w>":11127,"FIFA</w>":11128,"northeast</w>":11129,"McNair</w>":11130,"Bankruptcy</w>":11131,"permanent</w>":11132,"Fischer</w>":11133,"professionals</w>":11134,"Hispan":11135,"SEPTEMBER</w>":11136,"Wimbledon</w>":11137,"222</w>":11138,"450</w>":11139,"Ads</w>":11140,"Bill":11141,"Der":11142,"Ibra":11143,"Slip</w>":11144,"Vil":11145,"WH":11146,"mile</w>":11147,"sometimes</w>":11148,"tary</w>":11149,"inos</w>":11150,"advice</w>":11151,"id900":11152,"id248":11153,"id1168":11154,"id649":11155,"id648":11156,"Fron":11157,"hosts</w>":11158,"Conrad</w>":11159,"Suns</w>":11160,"bases</w>":11161,"berger</w>":11162,"agreeing</w>":11163,"Where</w>":11164,"Leaves</w>":11165,"Soon</w>":11166,"penalties</w>":11167,"centers</w>":11168,"battling</w>":11169,"pieces</w>":11170,"regions</w>":11171,"relatively</w>":11172,"Defence</w>":11173,"treaty</w>":11174,"Amelie</w>":11175,"Ruling</w>":11176,"indefin":11177,"favourite</w>":11178,"Lucent</w>":11179,"Dave</w>":11180,"attend</w>":11181,"Bangalore</w>":11182,"require</w>":11183,"hydro":11184,"Summer</w>":11185,"gamers</w>":11186,"vulnerable</w>":11187,"vulnerability</w>":11188,"vulnerabilities</w>":11189,"Looks</w>":11190,"Building</w>":11191,"Jaguars</w>":11192,"Analysts</w>":11193,"Analysis</w>":11194,"Climate</w>":11195,"BLO":11196,"library</w>":11197,"fallen</w>":11198,"Lindsay</w>":11199,"Chapter</w>":11200,"Jeremy</w>":11201,"uticals</w>":11202,"Assembly</w>":11203,"123</w>":11204,"137</w>":11205,"315</w>":11206,"Agen":11207,"CL":11208,"COR":11209,"Gal":11210,"IAN":11211,"Millions</w>":11212,"NJ</w>":11213,"Spea":11214,"blu":11215,"ji</w>":11216,"ktops</w>":11217,"sit</w>":11218,"tley</w>":11219,"inti":11220,"onz":11221,"arrive</w>":11222,"id179":11223,"dest":11224,"defi":11225,"reali":11226,"ingdom</w>":11227,"recalled</w>":11228,"tracks</w>":11229,"id836":11230,"id868":11231,"keys</w>":11232,"phere</w>":11233,"Conn</w>":11234,"Maker</w>":11235,"milestone</w>":11236,"volatile</w>":11237,"profitable</w>":11238,"etooth</w>":11239,"Lake</w>":11240,"Guilty</w>":11241,"Hotel</w>":11242,"Dozens</w>":11243,"blocks</w>":11244,"block":11245,"spoke</w>":11246,"slashed</w>":11247,"unique</w>":11248,"Port</w>":11249,"squee":11250,"dominate</w>":11251,"Federation</w>":11252,"Willingham</w>":11253,"predict</w>":11254,"Keefe</w>":11255,"BAR</w>":11256,"garian</w>":11257,"wicket</w>":11258,"robot</w>":11259,"cheap</w>":11260,"thinks</w>":11261,"alizing</w>":11262,"Extends</w>":11263,"Clippers</w>":11264,"exporter</w>":11265,"temporarily</w>":11266,"steroid</w>":11267,"contact</w>":11268,"Haitian</w>":11269,"SERVICE</w>":11270,"Norwegian</w>":11271,"118</w>":11272,"233</w>":11273,"329</w>":11274,"333</w>":11275,"Aims</w>":11276,"FM</w>":11277,"Gators</w>":11278,"Kurt</w>":11279,"NBC</w>":11280,"Som":11281,"alar":11282,"blin":11283,"crun":11284,"gal</w>":11285,"hatt":11286,"psy":11287,"su</w>":11288,"sin":11289,"sights</w>":11290,"tanks</w>":11291,"eau</w>":11292,"redi":11293,"best":11294,"ero</w>":11295,"tivist</w>":11296,"stan</w>":11297,"attract</w>":11298,"ascus</w>":11299,"inger</w>":11300,"id926":11301,"id724":11302,"id738":11303,"id216":11304,"id234":11305,"id288":11306,"id515":11307,"id536":11308,"id574":11309,"id1176":11310,"id416":11311,"id428":11312,"tence</w>":11313,"id1088":11314,"umi</w>":11315,"fueled</w>":11316,"trino</w>":11317,"Derek</w>":11318,"wab</w>":11319,"Settle</w>":11320,"clou":11321,"clus":11322,"1996</w>":11323,"ussions</w>":11324,"Europeans</w>":11325,"Leave</w>":11326,"uprising</w>":11327,"runner</w>":11328,"metho":11329,"Holding</w>":11330,"stored</w>":11331,"401</w>":11332,"acquiring</w>":11333,"Vik":11334,"Sharing</w>":11335,"trucks</w>":11336,"Charlie</w>":11337,"clues</w>":11338,"employers</w>":11339,"NFC</w>":11340,"BEA</w>":11341,"girls</w>":11342,"violating</w>":11343,"Damascus</w>":11344,"slowly</w>":11345,"required</w>":11346,"association</w>":11347,"maybe</w>":11348,"constitutional</w>":11349,"spotlight</w>":11350,"finger":11351,"Skype</w>":11352,"Peterson</w>":11353,"massacre</w>":11354,"monitoring</w>":11355,"232</w>":11356,"238</w>":11357,"339</w>":11358,"310</w>":11359,"Abo":11360,"Cul":11361,"Dee":11362,"Gy":11363,"Jon</w>":11364,"JPEG</w>":11365,"MG</w>":11366,"Maine</w>":11367,"OT</w>":11368,"Pop":11369,"Sac":11370,"UM</w>":11371,"UR</w>":11372,"Vince</w>":11373,"aling</w>":11374,"dar":11375,"fled</w>":11376,"smu":11377,"tree</w>":11378,"tons</w>":11379,"unanim":11380,"id176":11381,"id124":11382,"id136":11383,"id139":11384,"simul":11385,"quake</w>":11386,"Returns</w>":11387,"mails</w>":11388,"motion</w>":11389,"permission</w>":11390,"id929":11391,"id928":11392,"id978":11393,"id729":11394,"id276":11395,"id376":11396,"id326":11397,"id876":11398,"id826":11399,"id824":11400,"id839":11401,"id516":11402,"id576":11403,"id524":11404,"id538":11405,"id528":11406,"id1174":11407,"id476":11408,"id650":11409,"torious</w>":11410,"id1014":11411,"id1025":11412,"id1039":11413,"umes</w>":11414,"fun</w>":11415,"hello</w>":11416,"Arms</w>":11417,"basis</w>":11418,"vio":11419,"Serie</w>":11420,"Live</w>":11421,"scheme</w>":11422,"Airline</w>":11423,"Appeal</w>":11424,"Schwab</w>":11425,"endar</w>":11426,"Charge</w>":11427,"kids</w>":11428,"Update3</w>":11429,"dominance</w>":11430,"items</w>":11431,"integrated</w>":11432,"Colombian</w>":11433,"mountain</w>":11434,"representatives</w>":11435,"Pennington</w>":11436,"devastated</w>":11437,"armaceuticals</w>":11438,"Bluetooth</w>":11439,"valued</w>":11440,"weighed</w>":11441,"delegation</w>":11442,"guerrillas</w>":11443,"pioneer</w>":11444,"IOC</w>":11445,"Candid":11446,"Gibbs</w>":11447,"Intelligence</w>":11448,"mysterious</w>":11449,"Viktor</w>":11450,"Above</w>":11451,"325</w>":11452,"316</w>":11453,"335</w>":11454,"Action</w>":11455,"Cab":11456,"CDs</w>":11457,"Drew</w>":11458,"Less</w>":11459,"Or</w>":11460,"Pact</w>":11461,"Round</w>":11462,"Vows</w>":11463,"Wit":11464,"Wright</w>":11465,"dogs</w>":11466,"sman</w>":11467,"tted</w>":11468,"article</w>":11469,"elsewhere</w>":11470,"id175":11471,"id190":11472,"opol":11473,"eary</w>":11474,"dier</w>":11475,"imag":11476,"imum</w>":11477,"percen":11478,"id916":11479,"id918":11480,"id924":11481,"id934":11482,"id939":11483,"id979":11484,"id940":11485,"id760":11486,"id780":11487,"id790":11488,"id218":11489,"id238":11490,"id236":11491,"id274":11492,"id260":11493,"id319":11494,"id325":11495,"id339":11496,"id378":11497,"id834":11498,"id828":11499,"id875":11500,"id860":11501,"id534":11502,"id529":11503,"id525":11504,"id539":11505,"id1116":11506,"id1139":11507,"id1179":11508,"id1188":11509,"id429":11510,"id479":11511,"id490":11512,"id614":11513,"id616":11514,"id629":11515,"id628":11516,"id636":11517,"id679":11518,"id678":11519,"id688":11520,"id1024":11521,"id1038":11522,"id1036":11523,"id1074":11524,"id1035":11525,"id1050":11526,"id1060":11527,"steam</w>":11528,"mons</w>":11529,"mini</w>":11530,"Interior</w>":11531,"Shopping</w>":11532,"dealt</w>":11533,"electric</w>":11534,"scru":11535,"waited</w>":11536,"dox</w>":11537,"Serb</w>":11538,"Cancer</w>":11539,"techni":11540,"Notebook</w>":11541,"souri</w>":11542,"crative</w>":11543,"Brad":11544,"cellular</w>":11545,"Harris</w>":11546,"blocked</w>":11547,"Missouri</w>":11548,"Islamist</w>":11549,"Rupert</w>":11550,"carries</w>":11551,"Mega":11552,"embargo</w>":11553,"Industrial</w>":11554,"screen":11555,"Water":11556,"specific</w>":11557,"Lyon</w>":11558,"bull":11559,"diplomat</w>":11560,"floor</w>":11561,"titude</w>":11562,"RIAA</w>":11563,"DETRO":11564,"Memory</w>":11565,"Bolton</w>":11566,"revenge</w>":11567,"resumed</w>":11568,"skipper</w>":11569,"JOH":11570,"departure</w>":11571,"DreamWorks</w>":11572,"assembly</w>":11573,"BLOOM":11574,"simultane":11575,"DETROIT</w>":11576,"227</w>":11577,"322</w>":11578,"334</w>":11579,"Care</w>":11580,"Ele":11581,"Fast</w>":11582,"Hut":11583,"Lig":11584,"LLC</w>":11585,"Vonage</w>":11586,"aret":11587,"ha</w>":11588,"however</w>":11589,"mouth</w>":11590,"sitting</w>":11591,"wearing</w>":11592,"idance</w>":11593,"ilo</w>":11594,"omed</w>":11595,"isman</w>":11596,"ellow</w>":11597,"id138":11598,"id128":11599,"id178":11600,"id188":11601,"oft</w>":11602,"ownership</w>":11603,"earcher</w>":11604,"spl":11605,"recovering</w>":11606,"perform</w>":11607,"id919":11608,"id914":11609,"id976":11610,"id938":11611,"id925":11612,"id974":11613,"id935":11614,"id715":11615,"id776":11616,"id736":11617,"id774":11618,"id778":11619,"id750":11620,"id215":11621,"id229":11622,"id239":11623,"id314":11624,"id316":11625,"id324":11626,"id379":11627,"id375":11628,"id380":11629,"id815":11630,"id879":11631,"id526":11632,"id578":11633,"id550":11634,"id1129":11635,"id1125":11636,"id1140":11637,"id1180":11638,"id426":11639,"id424":11640,"id438":11641,"id435":11642,"id618":11643,"id676":11644,"id634":11645,"id635":11646,"id640":11647,"kep":11648,"guy</w>":11649,"id1016":11650,"id1018":11651,"id1028":11652,"id1079":11653,"id1078":11654,"id1080":11655,"rence</w>":11656,"accord</w>":11657,"feit</w>":11658,"Toys</w>":11659,"izumi</w>":11660,"Queen</w>":11661,"shadow":11662,"Opter":11663,"Parmala":11664,"bright</w>":11665,"Lithu":11666,"weakness</w>":11667,"Manhatt":11668,"AMSTER":11669,"Brad</w>":11670,"Dispu":11671,"Scho":11672,"Behind</w>":11673,"Does</w>":11674,"negotiators</w>":11675,"Craw":11676,"mbling</w>":11677,"Panama</w>":11678,"magnitude</w>":11679,"batteries</w>":11680,"Princ":11681,"Weak</w>":11682,"junk</w>":11683,"grip</w>":11684,"Gunners</w>":11685,"Director</w>":11686,"experimental</w>":11687,"Rwandan</w>":11688,"Portsm":11689,"Wolf":11690,"Goldman</w>":11691,"libraries</w>":11692,"Questions</w>":11693,"Risk</w>":11694,"grenade</w>":11695,"Shuttle</w>":11696,"AIDS</w>":11697,"Parmalat</w>":11698,"Manhattan</w>":11699,"AMSTERDAM</w>":11700,"216</w>":11701,"228</w>":11702,"226</w>":11703,"ETA</w>":11704,"East":11705,"HK</w>":11706,"However</w>":11707,"IL</w>":11708,"Omar</w>":11709,"Ps</w>":11710,"dot</w>":11711,"kh</w>":11712,"snapp":11713,"sacked</w>":11714,"orts</w>":11715,"eca</w>":11716,"ambassador</w>":11717,"usations</w>":11718,"iri</w>":11719,"id126":11720,"id134":11721,"id129":11722,"id174":11723,"id135":11724,"id150":11725,"id140":11726,"saf":11727,"Insu":11728,"spir":11729,"001</w>":11730,"coc":11731,"imminent</w>":11732,"ouring</w>":11733,"id915":11734,"id975":11735,"id950":11736,"id960":11737,"id716":11738,"id726":11739,"id728":11740,"id725":11741,"id779":11742,"id775":11743,"id224":11744,"id279":11745,"id240":11746,"id315":11747,"id318":11748,"id334":11749,"id328":11750,"id374":11751,"id350":11752,"id819":11753,"id838":11754,"id825":11755,"id878":11756,"id835":11757,"id850":11758,"id888":11759,"id514":11760,"id575":11761,"id540":11762,"id590":11763,"id588":11764,"id1138":11765,"id1134":11766,"id1128":11767,"id1135":11768,"id1150":11769,"id1160":11770,"id415":11771,"id414":11772,"id434":11773,"id425":11774,"id436":11775,"id475":11776,"id480":11777,"id615":11778,"id626":11779,"id624":11780,"id674":11781,"id639":11782,"id1019":11783,"id1029":11784,"Michel":11785,"Unions</w>":11786,"bol</w>":11787,"augh":11788,"NES":11789,"Busin":11790,"clock</w>":11791,"Button</w>":11792,"Resigns</w>":11793,"Opportun":11794,"Coke</w>":11795,"solve</w>":11796,"Koizumi</w>":11797,"notice</w>":11798,"prior</w>":11799,"smen</w>":11800,"Afghans</w>":11801,"Giamb":11802,"strokes</w>":11803,"films</w>":11804,"understand</w>":11805,"domain</w>":11806,"antivirus</w>":11807,"Virtual</w>":11808,"Votes</w>":11809,"Eddie</w>":11810,"Missing</w>":11811,"Mideast</w>":11812,"supermarket</w>":11813,"silicon</w>":11814,"birth":11815,"ROME</w>":11816,"sort</w>":11817,"Southampton</w>":11818,"vari":11819,"independence</w>":11820,"Pressure</w>":11821,"reducing</w>":11822,"eliminate</w>":11823,"Begin</w>":11824,"physical</w>":11825,"shoot</w>":11826,"comfortable</w>":11827,"Campbell</w>":11828,"percentage</w>":11829,"131</w>":11830,"211</w>":11831,"229</w>":11832,"311</w>":11833,"313</w>":11834,"RA</w>":11835,"Rome</w>":11836,"Rick</w>":11837,"Tool</w>":11838,"UE</w>":11839,"UAL</w>":11840,"ok":11841,"rant</w>":11842,"sys</w>":11843,"tments</w>":11844,"wed</w>":11845,"beef</w>":11846,"stops</w>":11847,"ele":11848,"unchanged</w>":11849,"irs</w>":11850,"edging</w>":11851,"dialogue</w>":11852,"abs":11853,"Chem":11854,"buck</w>":11855,"00th</w>":11856,"id936":11857,"id990":11858,"id988":11859,"id714":11860,"id734":11861,"id739":11862,"id735":11863,"id740":11864,"id788":11865,"id278":11866,"id280":11867,"id336":11868,"id340":11869,"id360":11870,"id390":11871,"id814":11872,"id816":11873,"id818":11874,"id829":11875,"id874":11876,"id840":11877,"id880":11878,"id890":11879,"id518":11880,"id580":11881,"id1118":11882,"id1124":11883,"id1136":11884,"id1175":11885,"id474":11886,"id460":11887,"id638":11888,"id625":11889,"id675":11890,"id1015":11891,"id1026":11892,"id1034":11893,"umbent</w>":11894,"marriage</w>":11895,"Moqtada</w>":11896,"gradu":11897,"declar":11898,"fossil</w>":11899,"void</w>":11900,"sends</w>":11901,"demark</w>":11902,"drama</w>":11903,"Shauk":11904,"bardier</w>":11905,"crashes</w>":11906,"Angel</w>":11907,"Put</w>":11908,"hikes</w>":11909,"pursuit</w>":11910,"Patent</w>":11911,"Version</w>":11912,"treated</w>":11913,"Porto</w>":11914,"Bombardier</w>":11915,"Flash</w>":11916,"batting</w>":11917,"battery</w>":11918,"inventory</w>":11919,"lington</w>":11920,"narrow</w>":11921,"mandu</w>":11922,"circuit</w>":11923,"Settlement</w>":11924,"Sinai</w>":11925,"established</w>":11926,"MIAM":11927,"persuade</w>":11928,"custody</w>":11929,"Ratings</w>":11930,"Gazprom</w>":11931,"Portsmouth</w>":11932,"Giambi</w>":11933,"Shaukat</w>":11934,"239</w>":11935,"219</w>":11936,"Crisis</w>":11937,"Dha":11938,"Ecc":11939,"Fred</w>":11940,"Fame</w>":11941,"Gat":11942,"Groups</w>":11943,"Jerry</w>":11944,"Light</w>":11945,"Oreg":11946,"Town</w>":11947,"abe":11948,"kom</w>":11949,"lton</w>":11950,"near":11951,"wise</w>":11952,"thra":11953,"anx":11954,"bered</w>":11955,"beleagu":11956,"liners</w>":11957,"ong":11958,"tistics</w>":11959,"icals</w>":11960,"riot</w>":11961,"id125":11962,"id160":11963,"Instead</w>":11964,"wholes":11965,"theory</w>":11966,"Chancellor</w>":11967,"worms</w>":11968,"id980":11969,"id719":11970,"id214":11971,"id225":11972,"id235":11973,"id275":11974,"id290":11975,"id329":11976,"id335":11977,"id388":11978,"id579":11979,"id1119":11980,"id1115":11981,"id478":11982,"id440":11983,"id488":11984,"id680":11985,"pledge</w>":11986,"id1075":11987,"Shoo":11988,"visited</w>":11989,"basic</w>":11990,"striking</w>":11991,"Colgate</w>":11992,"strain</w>":11993,"cartel</w>":11994,"retreat</w>":11995,"interested</w>":11996,"controls</w>":11997,"Barric":11998,"Sharp</w>":11999,"filmmaker</w>":12000,"bloc</w>":12001,"strongest</w>":12002,"Ruud</w>":12003,"mento</w>":12004,"ADS</w>":12005,"Riv":12006,"drawing</w>":12007,"install</w>":12008,"installed</w>":12009,"canceled</w>":12010,"Hungary</w>":12011,"upgrades</w>":12012,"Rogers</w>":12013,"celebration</w>":12014,"View</w>":12015,"egger</w>":12016,"Santa</w>":12017,"Northeast</w>":12018,"Production</w>":12019,"answers</w>":12020,"semifinal</w>":12021,"repeat</w>":12022,"judges</w>":12023,"escaped</w>":12024,"reduction</w>":12025,"BURG</w>":12026,"abandoned</w>":12027,"electrical</w>":12028,"Better</w>":12029,"zenegger</w>":12030,"soph":12031,"Schwarzenegger</w>":12032,"stabil":12033,"desperate</w>":12034,"greenhouse</w>":12035,"longtime</w>":12036,"casualties</w>":12037,"matchup</w>":12038,"detonated</w>":12039,"Ibrahim</w>":12040,"Sacra":12041,"MIAMI</w>":12042,"Oregon</w>":12043,"beleaguered</w>":12044,"139</w>":12045,"124</w>":12046,"127</w>":12047,"430</w>":12048,"Ani":12049,"Cair":12050,"FALL":12051,"Gangu":12052,"HA":12053,"Kyle</w>":12054,"Land":12055,"Ot":12056,"Pep":12057,"Pleads</w>":12058,"bonds</w>":12059,"cargo</w>":12060,"fair":12061,"ither</w>":12062,"mm":12063,"pile</w>":12064,"rit":12065,"sor</w>":12066,"sag":12067,"snap</w>":12068,"ught</w>":12069,"throws</w>":12070,"beer</w>":12071,"ramp":12072,"ague</w>":12073,"asser":12074,"owns</w>":12075,"dian</w>":12076,"lestone</w>":12077,"tobacco</w>":12078,"eel</w>":12079,"trail</w>":12080,"id338":12081,"id519":12082,"id535":12083,"id560":12084,"id1114":12085,"id1126":12086,"id1178":12087,"id1190":12088,"id419":12089,"id439":12090,"id660":12091,"id690":12092,"id1076":12093,"id1090":12094,"Issue</w>":12095,"prene":12096,"Alleg":12097,"feels</w>":12098,"som</w>":12099,"ERP</w>":12100,"slight</w>":12101,"Wired</w>":12102,"telephony</w>":12103,"Turn</w>":12104,"competitor</w>":12105,"registered</w>":12106,"document</w>":12107,"privacy</w>":12108,"kidnapping</w>":12109,"Macro":12110,"reliever</w>":12111,"Burma</w>":12112,"Relief</w>":12113,"check":12114,"Muqtada</w>":12115,"Expands</w>":12116,"rebounded</w>":12117,"shutout</w>":12118,"moments</w>":12119,"glomer":12120,"Sells</w>":12121,"occup":12122,"abandon</w>":12123,"NOV":12124,"disruptions</w>":12125,"scam</w>":12126,"Aussies</w>":12127,"Soviet</w>":12128,"Possible</w>":12129,"Sacramento</w>":12130,"Ganguly</w>":12131,"134</w>":12132,"132</w>":12133,"234</w>":12134,"237</w>":12135,"319</w>":12136,"332</w>":12137,"Ay":12138,"Astra":12139,"Astronau":12140,"Kan":12141,"LPGA</w>":12142,"My</w>":12143,"Prison</w>":12144,"tas</w>":12145,"tune</w>":12146,"reite":12147,"remark":12148,"staged</w>":12149,"ila</w>":12150,"radi":12151,"ath</w>":12152,"These</w>":12153,"loyal</w>":12154,"lists</w>":12155,"id180":12156,"quille</w>":12157,"Represen":12158,"shu":12159,"confirm</w>":12160,"subur":12161,"Negoti":12162,"offshore</w>":12163,"id226":12164,"id250":12165,"id418":12166,"id450":12167,"id1040":12168,"lucrative</w>":12169,"Almost</w>":12170,"legend</w>":12171,"faction</w>":12172,"Stem</w>":12173,"sweet</w>":12174,"ousand</w>":12175,"estimate</w>":12176,"subpo":12177,"Shaquille</w>":12178,"ENT</w>":12179,"virtually</w>":12180,"boro</w>":12181,"presidency</w>":12182,"Warming</w>":12183,"enne</w>":12184,"televisions</w>":12185,"Turns</w>":12186,"intends</w>":12187,"alleging</w>":12188,"hunger</w>":12189,"slammed</w>":12190,"Merc":12191,"square</w>":12192,"rockets</w>":12193,"Rival</w>":12194,"telecoms</w>":12195,"Matthe":12196,"clinical</w>":12197,"tracking</w>":12198,"Honey":12199,"Products</w>":12200,"shocks</w>":12201,"Portland</w>":12202,"Threatens</w>":12203,"MONTRE":12204,"salary</w>":12205,"OCTO":12206,"spectacular</w>":12207,"plagued</w>":12208,"Ecclestone</w>":12209,"Barrichello</w>":12210,"236</w>":12211,"231</w>":12212,"323</w>":12213,"Del</w>":12214,"Ill</w>":12215,"LU":12216,"Smi":12217,"cements</w>":12218,"dor":12219,"dles":12220,"mbol</w>":12221,"otive</w>":12222,"pal</w>":12223,"sley</w>":12224,"selected</w>":12225,"tol":12226,"zne":12227,"encounter</w>":12228,"arrival</w>":12229,"itz":12230,"rif":12231,"opinion</w>":12232,"sition</w>":12233,"conglomer":12234,"compound</w>":12235,"buo":12236,"pois":12237,"002</w>":12238,"id998":12239,"id718":12240,"id1198":12241,"id619":12242,"Mari":12243,"Show":12244,"Should</w>":12245,"Shef":12246,"Delay</w>":12247,"Sutton</w>":12248,"Around</w>":12249,"holidays</w>":12250,"calendar</w>":12251,"Weigh</w>":12252,"signal":12253,"burst</w>":12254,"Steven</w>":12255,"Latham</w>":12256,"corner</w>":12257,"handling</w>":12258,"enna</w>":12259,"Country</w>":12260,"Music":12261,"secured</w>":12262,"Basque</w>":12263,"olutions</w>":12264,"policemen</w>":12265,"effectively</w>":12266,"Islam</w>":12267,"CAIRO</w>":12268,"mental":12269,"mitting</w>":12270,"Trib":12271,"damages</w>":12272,"courts</w>":12273,"wildlife</w>":12274,"Johnny</w>":12275,"presented</w>":12276,"Militant</w>":12277,"Castro</w>":12278,"Hope</w>":12279,"Strate":12280,"Cyber</w>":12281,"Corporate</w>":12282,"caution</w>":12283,"RIM</w>":12284,"Chilean</w>":12285,"counterpart</w>":12286,"Agreement</w>":12287,"foot":12288,"Kidnapped</w>":12289,"Problems</w>":12290,"tougher</w>":12291,"column</w>":12292,"exercise</w>":12293,"Hampshire</w>":12294,"Opteron</w>":12295,"Eastman</w>":12296,"absence</w>":12297,"AstraZen":12298,"MONTREAL</w>":12299,"Sheffield</w>":12300,"224</w>":12301,"328</w>":12302,"326</w>":12303,"Austin</w>":12304,"CL</w>":12305,"Dw":12306,"Eff":12307,"Every":12308,"Grace</w>":12309,"Hend":12310,"LA":12311,"MP</w>":12312,"Vog":12313,"Yush":12314,"rard</w>":12315,"sbury</w>":12316,"tying</w>":12317,"refe":12318,"enth":12319,"tility</w>":12320,"ati</w>":12321,"ounced</w>":12322,"tox":12323,"id228":12324,"id298":12325,"id670":12326,"id698":12327,"guidance</w>":12328,"id1030":12329,"Stay</w>":12330,"Coming</w>":12331,"Shrine</w>":12332,"Moore</w>":12333,"grab</w>":12334,"wars</w>":12335,"tino</w>":12336,"pointed</w>":12337,"Bucc":12338,"holm</w>":12339,"holder</w>":12340,"shared</w>":12341,"Weigh":12342,"grown</w>":12343,"bombed</w>":12344,"USTR":12345,"camps</w>":12346,"585</w>":12347,"Barrel</w>":12348,"temper":12349,"Earthqu":12350,"succe":12351,"obj":12352,"Decision</w>":12353,"fighter</w>":12354,"delibe":12355,"freshman</w>":12356,"stuff</w>":12357,"Luis</w>":12358,"URT</w>":12359,"importance</w>":12360,"AKE</w>":12361,"Keeps</w>":12362,"bench":12363,"Casey</w>":12364,"disappointed</w>":12365,"Kuzne":12366,"platforms</w>":12367,"Argentine</w>":12368,"Kazakh":12369,"Bulls</w>":12370,"Heisman</w>":12371,"Bayer</w>":12372,"recommend":12373,"Policy</w>":12374,"inspired</w>":12375,"democratic</w>":12376,"OCTOBER</w>":12377,"Tribune</w>":12378,"Buccan":12379,"138</w>":12380,"214</w>":12381,"318</w>":12382,"338</w>":12383,"Cold</w>":12384,"Lic":12385,"Lex":12386,"Men":12387,"Sam</w>":12388,"WNBA</w>":12389,"cea":12390,"gedy</w>":12391,"nant</w>":12392,"sac":12393,"vous</w>":12394,"intr":12395,"republic</w>":12396,"oner</w>":12397,"icate</w>":12398,"essi":12399,"id130":12400,"id198":12401,"ovan</w>":12402,"Regi":12403,"whales</w>":12404,"leheader</w>":12405,"rugby</w>":12406,"abled</w>":12407,"005</w>":12408,"004</w>":12409,"007</w>":12410,"id910":12411,"id370":12412,"id870":12413,"id1170":12414,"id1098":12415,"turmoil</w>":12416,"gio</w>":12417,"accusations</w>":12418,"hop</w>":12419,"tran</w>":12420,"Boy</w>":12421,"Australians</w>":12422,"Libr":12423,"Save</w>":12424,"colleagues</w>":12425,"Appeals</w>":12426,"antas":12427,"discussions</w>":12428,"Love</w>":12429,"Sites</w>":12430,"Yao</w>":12431,"Competition</w>":12432,"Pak</w>":12433,"THER":12434,"Beltran</w>":12435,"PDA</w>":12436,"Middles":12437,"identify</w>":12438,"Blog</w>":12439,"trem":12440,"golden</w>":12441,"cycling</w>":12442,"flooding</w>":12443,"Thomson</w>":12444,"popularity</w>":12445,"northeastern</w>":12446,"Keith</w>":12447,"metres</w>":12448,"Employ":12449,"ILLS</w>":12450,"PORT</w>":12451,"Silverstone</w>":12452,"Rivera</w>":12453,"detainees</w>":12454,"BLOOMFIELD</w>":12455,"AstraZeneca</w>":12456,"Yushchenko</w>":12457,"312</w>":12458,"336</w>":12459,"314</w>":12460,"324</w>":12461,"321</w>":12462,"327</w>":12463,"Average</w>":12464,"Glo":12465,"MR":12466,"Mbe":12467,"MIN":12468,"Nears</w>":12469,"Paper</w>":12470,"RU":12471,"SO":12472,"SON</w>":12473,"Sky</w>":12474,"Tas":12475,"Tough</w>":12476,"UA":12477,"flu":12478,"gar</w>":12479,"p2":12480,"tees</w>":12481,"labels</w>":12482,"erre</w>":12483,"stability</w>":12484,"amen</w>":12485,"rio":12486,"asylum</w>":12487,"opposed</w>":12488,"sisting</w>":12489,"whom</w>":12490,"exec</w>":12491,"twin</w>":12492,"rust</w>":12493,"reaction</w>":12494,"spur</w>":12495,"compan":12496,"008</w>":12497,"dubbed</w>":12498,"sefire</w>":12499,"id720":12500,"id219":12501,"id210":12502,"id220":12503,"id230":12504,"id270":12505,"id598":12506,"id1120":12507,"id420":12508,"id1020":12509,"ando</w>":12510,"stepping</w>":12511,"2009</w>":12512,"dealing</w>":12513,"ractive</w>":12514,"Delays</w>":12515,"graph</w>":12516,"Join</w>":12517,"tribunal</w>":12518,"cloning</w>":12519,"stick</w>":12520,"Collins</w>":12521,"Blazers</w>":12522,"gather</w>":12523,"Cendant</w>":12524,"440</w>":12525,"blockbuster</w>":12526,"Deli":12527,"Grid</w>":12528,"Petroleum</w>":12529,"middle":12530,"tsova</w>":12531,"writing</w>":12532,"statements</w>":12533,"attendants</w>":12534,"Susilo</w>":12535,"Gap</w>":12536,"Benite":12537,"Straight</w>":12538,"Summit</w>":12539,"punch</w>":12540,"Southwest</w>":12541,"glory</w>":12542,"adopt</w>":12543,"astronaut</w>":12544,"originally</w>":12545,"deployed</w>":12546,"Clarke</w>":12547,"chipmaker</w>":12548,"moderate</w>":12549,"Xinhua</w>":12550,"advocates</w>":12551,"businessman</w>":12552,"Crawford</w>":12553,"Vogts</w>":12554,"Kuznetsova</w>":12555,"Kazakhstan</w>":12556,"Buccaneers</w>":12557,"Mbeki</w>":12558,"Benitez</w>":12559,"Bon":12560,"Bloo":12561,"CAN":12562,"LO":12563,"Land</w>":12564,"Lose</w>":12565,"MA":12566,"Pet":12567,"SAS</w>":12568,"Sanctions</w>":12569,"Top":12570,"Yor":12571,"brough</w>":12572,"bbing</w>":12573,"dd</w>":12574,"dit":12575,"ded":12576,"ea</w>":12577,"jans</w>":12578,"xon</w>":12579,"ink":12580,"reh":12581,"tia</w>":12582,"stac":12583,"rage</w>":12584,"rains</w>":12585,"aco</w>":12586,"Thunder":12587,"compromise</w>":12588,"costly</w>":12589,"duty</w>":12590,"mode</w>":12591,"id930":12592,"id970":12593,"id770":12594,"id798":12595,"id310":12596,"id398":12597,"id810":12598,"id830":12599,"id510":12600,"id570":12601,"id1110":12602,"id410":12603,"id430":12604,"id498":12605,"id630":12606,"id1010":12607,"aviation</w>":12608,"incor":12609,"mption</w>":12610,"Worldwide</w>":12611,"Sue</w>":12612,"vens</w>":12613,"Alcoa</w>":12614,"capped</w>":12615,"factor</w>":12616,"Post":12617,"telroo":12618,"Gerrard</w>":12619,"supports</w>":12620,"cornerback</w>":12621,"cripp":12622,"landslides</w>":12623,"negotiate</w>":12624,"mastermin":12625,"detailed</w>":12626,"locker</w>":12627,"Nuke</w>":12628,"Fujit":12629,"Reaches</w>":12630,"screens</w>":12631,"briefly</w>":12632,"prisoner</w>":12633,"patient</w>":12634,"apologi":12635,"violated</w>":12636,"Studios</w>":12637,"challenging</w>":12638,"implemen":12639,"Jazz</w>":12640,"Climb</w>":12641,"mistake</w>":12642,"mistakes</w>":12643,"Independ":12644,"purchased</w>":12645,"Aviv</w>":12646,"Aussie</w>":12647,"differences</w>":12648,"Nistelroo":12649,"swimming</w>":12650,"CFO</w>":12651,"Fulham</w>":12652,"Slips</w>":12653,"nearby</w>":12654,"Honeywell</w>":12655,"conglomerate</w>":12656,"Fujitsu</w>":12657,"223</w>":12658,"DE</w>":12659,"Dean</w>":12660,"EN</w>":12661,"EL</w>":12662,"Every</w>":12663,"FTC</w>":12664,"Gl":12665,"Jin":12666,"Kenter":12667,"Lev":12668,"MAN</w>":12669,"Manny</w>":12670,"SI":12671,"Slow</w>":12672,"Would</w>":12673,"Zur":12674,"aides</w>":12675,"cker</w>":12676,"ew</w>":12677,"jsters</w>":12678,"mps</w>":12679,"xi":12680,"xe</w>":12681,"eating</w>":12682,"ancy</w>":12683,"ider</w>":12684,"aled</w>":12685,"atories</w>":12686,"ama":12687,"unknown</w>":12688,"uncertain</w>":12689,"id170":12690,"compar":12691,"006</w>":12692,"id920":12693,"id820":12694,
[...]
