#version: 0.2 - Trained by `huggingface/tokenizers`
i n
t e
t h
e a
a n
l a
th e</w>
r e
i d
b e
o n</w>
i d</w>
e r
o r
l in
o n
ea d
e n
t i
a r
lin e</w>
t o</w>
in g</w>
x t</w>
h ead
be l</w>
te xt</w>
la bel</w>
head line</w>
e d</w>
o u
i n</w>
e s</w>
i t
r o
e r</w>
o f</w>
s t
a l
i c
i l
an d</w>
a y</w>
a n</w>
e s
r a
o r</w>
o m
i s
a s</w>
u r
a l</w>
s t</w>
e c
a t</w>
te r
e l
a c
d ay</w>
o l
i s</w>
i g
f or</w>
a t
3 9</w>
t s</w>
a m
c h
T h
u n
r i
u s
en t</w>
l o
te r</w>
a g
e n</w>
ti on</w>
v e</w>
i r
l e</w>
l i
er s</w>
te d</w>
n e
a s
id 1
i t</w>
o p
c e</w>
o f
l y</w>
s i
o v
s a
h a
c om
p ro
q u
I n
it h</w>
re s
th at</w>
e m
e d
ou n
Th e</w>
o w
it s</w>
R e
w ith</w>
t a
ter s</w>
s h
ea r
ig h
c on
w h
t h</w>
a d
ti on
s u
a p
e t</w>
e x
o t</w>
c h</w>
o o
d i
m a
t w
l e
l d</w>
b y</w>
k s</w>
p or
f or
d e
sa id</w>
th e
r u
r ea
ar e</w>
h as</w>
u ters</w>
il l</w>
ro m</w>
a b
s p
C h
Re uters</w>
t o
s e</w>
com p
b u
f rom</w>
d s</w>
e e
A P</w>
ou t</w>
it y</w>
i r</w>
a f
t ing</w>
p o
ea r</w>
0 0
re d</w>
c o
i l</w>
h is</w>
N e
igh t</w>
es day</w>
o c
r ic
in g
al l</w>
at e</w>
i m
k e</w>
d u
s e
w ill</w>
f ir
w as</w>
a tion
d ing</w>
on e</w>
w or
b e</w>
U S</w>
m ent</w>
p la
l ed</w>
or e</w>
i c</w>
u p</w>
y s</w>
l ea
re c
m o
ou r
af ter</w>
p er
a tion</w>
g e</w>
i a</w>
il li
ov er</w>
t ra
of f
er e</w>
v er
an y</w>
i es</w>
es t</w>
es s</w>
id 9
u l
id 7
id 2
id 3
id 8
r y</w>
id 5
id1 1
id 4
id 6
s ec
te s</w>
v ic
ha ve</w>
ou ld</w>
t e</w>
r ou
n i
m e</w>
ne w</w>
lin g</w>
p l
k e
g u
t or
p a
the ir</w>
te n
id1 0
s of
t ur
s on</w>
F r
th er</w>
f in
u m
ar d</w>
qu ot</w>
a in
ov er
am e</w>
an d
illi on</w>
p p
an s</w>
l t</w>
i st
k ing</w>
f i
i an</w>
re n
I ra
M on
ac k</w>
y ear</w>
v e
p h
m ar
l u
fir st</w>
M ic
l s</w>
an n
p u
tw o</w>
S t
re e</w>
p ar
re s</w>
c i
al s</w>
a r</w>
ag e</w>
w ee
s ur
il e</w>
e v
s er
res id
m ore</w>
s te
h e</w>
2 00
d ow
bu t</w>
g i
ex p
o w</w>
d er</w>
m on
el l</w>
r is
an ce</w>
an t</w>
U ni
m er
ol d</w>
ou r</w>
M ar
st r
id ay</w>
st s</w>
b o
i e
d is
Mon day</w>
on g</w>
be r</w>
om e</w>
T u
W ed
Wed n
Wedn esday</w>
m in
A n
es ter
ac c
ur s
n ing</w>
d a
Tu esday</w>
id e</w>
it e</w>
g t</w>
m is
on s</w>
Th urs
Thurs day</w>
c ed</w>
th is</w>
u d
tion s</w>
re por
Ne w</w>
oun d</w>
c u
ar y</w>
ear s</w>
a v
comp any</w>
ain st</w>
ro w
la st</w>
g h
s ed</w>
e l</w>
A u
In c</w>
f u
i on</w>
Fr iday</w>
h el
en ts</w>
p ea
si on</w>
off ic
ing s</w>
m an</w>
c a
th an</w>
f f
m s</w>
i ti
in c
e op
ag ainst</w>
Mic ro
t y</w>
h o
ation al</w>
o g
d ed</w>
ation s</w>
p s</w>
in to</w>
h ea
Ira q</w>
In ter
C om
t r
O R
ester day</w>
S h
sof t</w>
k ed</w>
d ea
n ot</w>
ti ve</w>
d e</w>
m er</w>
y esterday</w>
k er</w>
A f
t ro
C or
lo w
0 0</w>
resid ent</w>
m p
p ric
p ol
ra c
Micro soft</w>
en d</w>
ab out</w>
v es</w>
P ro
a m</w>
y ing</w>
over n
D e
at t
wh o</w>
C on
l and</w>
w ere</w>
ac e</w>
en ti
s ea
k et</w>
t u
b ack</w>
E n
du c
b le</w>
al ly</w>
in e</w>
n s</w>
the y</w>
la r
qu ar
am p
S un
n ed</w>
as s
W or
a u
sh i
be en</w>
o ther</w>
ear ch</w>
ti me</w>
m illion</w>
ha d</w>
N E
l ead
g h</w>
A mer
S p
M o
el ec
c oun
I s
Amer ic
wee k</w>
u ro
or s</w>
in s</w>
th ree</w>
f t</w>
c es</w>
k il
g ra
1 0</w>
or k</w>
of f</w>
on d</w>
ic h</w>
a k
s h</w>
es s
ic e</w>
Cor p</w>
S u
en ce</w>
Ch in
s c
w ay</w>
v er</w>
rou p</w>
ne t</w>
d ec
al i
A r
offic i
p re
w a
J o
c ent</w>
la r</w>
g overn
S ta
Sun day</w>
o il</w>
E uro
w ar
ur ity</w>
Uni ted</w>
em ent</w>
t ri
m an
c k</w>
v is
t al
E x
wor ld</w>
ar g
S e
i m</w>
d es
lo o
at ur
s s</w>
B us
A F
j o
c l
g est</w>
a in</w>
B o
ann oun
w s</w>
er al</w>
t on</w>
ir d</w>
v en
eop le</w>
b as
an g
ec ted</w>
w i
A l
In di
w ould</w>
f e
s ti
or d</w>
O N</w>
A S
AF P</w>
y ears</w>
g ame</w>
M a
te st</w>
ri v
n ational</w>
ol og
S atur
sea son</w>
wh ich</w>
c ould</w>
to day</w>
govern ment</w>
tw are</w>
ig n</w>
p eople</w>
pro v
de f
us e</w>
l es</w>
m il
t le</w>
an ts</w>
to p</w>
dow n</w>
g o
ri ti
e st
I N
ig h</w>
P resident</w>
be r
s ing</w>
a st</w>
pric es</w>
sec ond</w>
st ar
M in
v el
t or</w>
n ight</w>
1 9
l ess</w>
pla y
wh en</w>
v i
b all</w>
Satur day</w>
r an
NE W</w>
al es</w>
sa ys</w>
ne xt</w>
b us
por t</w>
ou s</w>
mo st</w>
t in
g en
tor y</w>
us si
j u
Chin a</w>
Wor ld</w>
y ste
A N
c ap
f o
m ed
J ap
vic e</w>
is ter</w>
c lo
lo w</w>
p res
c la
l l</w>
po in
th ird</w>
ti c</w>
per cent</w>
k ers</w>
Y OR
b an
B u
YOR K</w>
g er</w>
c y</w>
es e</w>
w in</w>
te am</w>
tur e</w>
en s</w>
in ter
st ri
d o
R o
T o
n olog
v o
t ry</w>
l y
O N
R ussi
sof tware</w>
Au str
le g
ad e</w>
s en
R es
Bus h</w>
s et</w>
h ol
c t</w>
oo d</w>
u m</w>
Inter net</w>
Is ra
S er
a d</w>
200 4</w>
5 0</w>
ear ly</w>
shi p</w>
e ts</w>
hea d</w>
ow n</w>
it al</w>
pro f
a ir
Austr al
mar ket</w>
ag re
in ess</w>
m ay</w>
ou t
as h
N or
quar ter</w>
i z
on om
a z
b s</w>
C an
b ea
pro duc
s es</w>
t a</w>
announ ced</w>
is h</w>
c an</w>
is t</w>
P al
re lea
W h
f ac
S ec
A T
sec urity</w>
B r
Q u
am es</w>
00 0</w>
b illion</w>
or y</w>
2 0</w>
N o</w>
mil it
gu e</w>
us ed</w>
u s</w>
v ing</w>
ab le</w>
te l</w>
pu b
s ha
er n</w>
w in
e y</w>
d em
O n
O p
te ch
our t</w>
f our</w>
C o
tor s</w>
c al</w>
ch ed</w>
st oc
n er</w>
por ts</w>
c al
co m</w>
I n</w>
1 1</w>
op er
S ou
u t
s ome</w>
C ol
ec onom
Euro pea
1 5
o u</w>
s o</w>
rec ord</w>
t ly</w>
h igh</w>
ec u
po s
P ar
m u
kil led</w>
ve st
L ea
g roup</w>
1 2</w>
an c
vic tory</w>
g le</w>
b r
s el
e red</w>
ie f</w>
F or
in ce</w>
S o
e t
Europea n</w>
ac h
nolog y</w>
1 0
L i
dea l</w>
ec t</w>
u p
P ri
W e
3 0</w>
Ira q
ac h</w>
amp i
b i
offici als</w>
ap p
N o
st ra
Americ an</w>
c as
for e</w>
C ar
il ed</w>
a ted</w>
mon th</w>
p t</w>
G oo
P o
al l
1 4
p e</w>
la un
s yste
is h
Can ad
res s</w>
O ly
f l
O il</w>
Jo h
g ed</w>
3 6</w>
C up</w>
Oly mp
n ow</w>
g row
h igh
p en
st ru
vic es</w>
an ds</w>
f a
S to
s ol
op s</w>
1 5</w>
R E
b oo
e f
am p</w>
com m
ma ker</w>
P h
ur ing</w>
com e</w>
r e</w>
c ar
wi th
te l
p lo
ic s</w>
b ro
s ch
d er
o s</w>
Pal est
I t</w>
B riti
cl ear</w>
Briti sh</w>
pl ans</w>
or ding</w>
in v
st on</w>
oo l</w>
k es</w>
man ag
2 0
at ing</w>
s ales</w>
Palest in
lea d</w>
c en
d ra
g et</w>
v en</w>
Indi a</w>
1 6
S a
c c
b om
coun try</w>
bus iness</w>
ag o</w>
En g
ist an</w>
Jap an</w>
e en</w>
I B
h ome</w>
Min ister</w>
s ig
exp ected</w>
2 5</w>
at ch</w>
ed eral</w>
tw ork</w>
Goo gle</w>
n o</w>
be fore</w>
Sta tes</w>
ke y</w>
m any</w>
iti es</w>
1 7</w>
g o</w>
p ris
a tes</w>
j or</w>
S of
p er</w>
ac k
1 4</w>
re st</w>
Iraq i</w>
s id
1 3</w>
m ed</w>
n ings</w>
1 8
th s</w>
G re
Y ork</w>
lar gest</w>
b ur
us ic</w>
7 6
IB M</w>
2 6
gh t</w>
ju st</w>
1 8</w>
2 4
S te
A ir
d ic
fin al</w>
tech nology</w>
c ks</w>
e i
b ile</w>
repor ted</w>
for mer</w>
rou gh</w>
3 8
W in
L in
r ound</w>
f e</w>
p ow
u e</w>
fi ve</w>
1 6</w>
L a
el d</w>
F l
m ade</w>
3 4
on es</w>
comp u
Pro f
h al
2 9
T ON</w>
K o
A s
2 8
inc lu
2 5
g g
3 6
en g
t ball</w>
an ies</w>
ta ke</w>
ou gh</w>
n o
r an</w>
y ou</w>
lea st</w>
7 4
in du
ci al</w>
c ol
m ov
an e</w>
3 9
th ern</w>
w on</w>
ph one</w>
de vel
er ing</w>
ac ks</w>
G er
d ol
7 9
in vest
7 8
em ber</w>
A pp
be g
3 5
s w
d ers</w>
tw een</w>
ch es</w>
st ry</w>
con tin
un der</w>
st ate</w>
m i
ou s
d uring</w>
at a</w>
2 4</w>
d y</w>
R ed</w>
c o</w>
on y</w>
B la
ch i
es ti
be tween</w>
h op
id e
t t
repor t</w>
ma ke</w>
7 5
s us
ex ecu
sh ow
A ra
r un
tal ks</w>
an k</w>
L e
re a</w>
1 9</w>
l ong</w>
si ve</w>
2 1</w>
We b</w>
3 0
con c
i f</w>
el y</w>
n u
7 0
m y</w>
h it</w>
r ead
inc rea
h er</w>
comp anies</w>
ser vice</w>
is e</w>
am s</w>
ch an
f la
r in
acc ording</w>
wh at</w>
C o</w>
IN G
Sou th</w>
ch ief</w>
p ing</w>
s ide</w>
the m</w>
th rough</w>
hel p</w>
E l
an other</w>
elec tion</w>
w ea
P la
s ay</w>
sp ec
d el
s o
m e
a i
lead er</w>
la w
re less</w>
ti c
oo k</w>
p ri
ea l</w>
F i
U S
fu l</w>
Lea gue</w>
ic al</w>
re tur
ma jor</w>
i al</w>
bas ed</w>
gi ant</w>
st a
4 9
s oc
ru n</w>
Isra el
po si
s our
W ith</w>
su p
A R
P ak
b id</w>
al e</w>
ag es</w>
ca use</w>
pp ed</w>
Austral ia</w>
lo b
M an
d o</w>
z e</w>
ou se</w>
compu ter</w>
th rea
v ie
an t
U N</w>
s m
h im</w>
co ach</w>
mis sion</w>
A d
f ol
ir e</w>
Af gh
w e
er ry</w>
wh ile</w>
c am
T w
A L
hel d</w>
re t
ne ws</w>
H ol
su b
s k
sti ll</w>
S ha
s ince</w>
le ft</w>
E R
s co
Inter national</w>
b ar
ic ations</w>
par t
2 2</w>
d ro
k ee
v ed</w>
2 8</w>
c ra
2 3</w>
vis ion</w>
A N</w>
Af ter</w>
us h
Joh n</w>
da ys</w>
G roup</w>
g a
ch arg
Palestin ian</w>
be ing</w>
G en
Pri me</w>
pla y</w>
2 7</w>
So x</w>
ti es</w>
pol ice</w>
6 9
en se</w>
pla n</w>
indu stry</w>
5 8
b rea
c or
ec h
5 9
h om
rac le</w>
star t</w>
bu il
f ace</w>
b ig
p ed</w>
Op en</w>
C u
w ar</w>
st o
M i
d re
k n
s l
s earch</w>
D i
4 8
j a
3 5</w>
F in
for m
il y</w>
li c</w>
c ourt</w>
ar ds</w>
App le</w>
ash ing
c tion</w>
6 8
D av
dow s</w>
prof it</w>
C ali
devel op
igh ts</w>
in te
ver s
low ing</w>
Ch ampi
agre ed</w>
m usic</w>
ic k</w>
t ou
milit ary</w>
c ur
re ta
mo ve</w>
E N
U n
O ff
Israel i</w>
1 7
pro gra
con su
f un
m en</w>
O racle</w>
on ly</w>
ING TON</w>
mon ths</w>
5 0
cu t</w>
Af ric
2 6</w>
en ding</w>
a y
pro c
2 9</w>
in ed</w>
enti al</w>
On e</w>
Olymp ic</w>
con tro
N AS
d ru
il i
op en</w>
ci enti
lob al</w>
il l
T ra
4 0
M c
le y</w>
i e</w>
ev en</w>
li ke</w>
s ou
G u
U p
con tra
syste m</w>
C en
d on</w>
Russi a</w>
G i
th ing</w>
ac qu
grow th</w>
op en
B ar
nu clear</w>
chan ge</w>
sur e</w>
6 0
In tel</w>
St ate</w>
m ents</w>
sp ace</w>
2 7
V i
r ight</w>
A M
si x</w>
Eng land</w>
B ra
m or
c k
g y</w>
ec ts</w>
offici al</w>
G az
AS H
N ov
n or
i o</w>
p resident</w>
I S
mo bile</w>
pu t</w>
Win dows</w>
c ri
n um
lin es</w>
il ity</w>
cla im
or g
P ol
poin ts</w>
Nor th</w>
H RE
be cause</w>
3 7
E L
W i
str ong</w>
W ASH
ist s</w>
Russi an</w>
on line</w>
b att
A b
3 1</w>
D is
WASH INGTON</w>
B ag
p ite</w>
ren t</w>
loo k</w>
Sof t</w>
HRE F</w>
c rea
m em
n ation</w>
I ran</w>
g s</w>
te n</w>
l an
big gest</w>
inclu ding</w>
ber s</w>
v ir
e ti
P eop
U p</w>
ur ric
an ese</w>
il s</w>
st om
B ank</w>
ru p
w om
hal f</w>
st age</w>
ne y</w>
wh ere</w>
pub lic</w>
S ch
te m
N ational</w>
o te</w>
s ee
ur e</w>
fir m</w>
re ma
p on
fe ren
oo tball</w>
c ity</w>
Euro pe</w>
play ers</w>
it ing</w>
la te</w>
par t</w>
ch ing</w>
ser vices</w>
A G
Gaz a</w>
la test</w>
E ar
Y an
4 4
h and
on al</w>
relea sed</w>
Peop le
B y</w>
Canad ian</w>
D ar
ke ts</w>
9 9
quar ter
People Soft</w>
us ing</w>
6 6
b ra
st ing</w>
id a</w>
t al</w>
da d</w>
8 0
al y
Sto cks</w>
Bag h
b or
pla ce</w>
is su
E U</w>
P C</w>
th ere</w>
re ign</w>
d ou
Pak istan</w>
p resid
Bagh dad</w>
st or
ter r
a head</w>
A g
F o
m un
O r
A t
ta in</w>
o ts</w>
p i
as e</w>
exp lo
S ports</w>
U K</w>
att ack</w>
ul t</w>
S ud
g ames</w>
c el
Bo ston</w>
d ata</w>
re gi
bea t</w>
pub l
o se</w>
Ne twork</w>
3 4</w>
n am
200 5</w>
pro b
3 2</w>
P er
fi eld</w>
our th</w>
F or</w>
A s</w>
3 8</w>
read y</w>
stoc ks</w>
3 3</w>
e ther</w>
B e
Br it
f ound</w>
re et</w>
A si
wor k</w>
tro ops</w>
ea n</w>
lo ss</w>
dol lar</w>
F ren
ide o</w>
W ar
en n
W est</w>
high er</w>
5 5
ag ain</w>
i ous</w>
D ON</w>
H ar
mu ch</w>
p ay</w>
r o</w>
L ON
o m</w>
ro se</w>
en d
in es</w>
Sh ar
ul l</w>
com ing</w>
us ers</w>
bi g</w>
bu y</w>
Tw o</w>
an s
ti n</w>
Isra el</w>
3 7</w>
ro w</w>
Ko rea</w>
ne w
pol iti
c ru
su cc
f ourth</w>
LON DON</w>
n ers</w>
re gu
F al
sha res</w>
G e
ef for
Sec urity</w>
W ashing
H o
Bu t</w>
esti g
S y
ro ss</w>
cu stom
pric e</w>
Washing ton</w>
t ru
li m
di rec
9 0
plo y
contin u
pa st</w>
u x</w>
on ship</w>
l it
te le
8 8
ar ound</w>
wa ys</w>
re la
m ee
J u
O c
h ar
st ro
relea se</w>
stoc k</w>
econom y</w>
tu res</w>
Fren ch</w>
u al</w>
is ed</w>
ear nings</w>
s er</w>
inter national</w>
in ing</w>
tra de</w>
repor ts</w>
cal led</w>
ra tion</w>
I tal
for ces</w>
posi tion</w>
D em
b la
Austral ian</w>
d ate</w>
K erry</w>
f am
k en</w>
Yan ke
d ri
ea t</w>
re r</w>
m es</w>
wee ks</w>
n ear</w>
an cial</w>
H am
is ion</w>
S an</w>
is co</w>
soc i
presid ential</w>
Lin ux</w>
w ell</w>
pro te
ti ves</w>
A n</w>
h ist
c ame</w>
An g
Res earch</w>
e p
H a
f ree</w>
g old</w>
m ing</w>
Americ a</w>
sh ould</w>
Ne ws</w>
Fl or
4 6
As soci
f at</w>
econom ic</w>
ve l</w>
NAS A</w>
e ed</w>
5 6
7 7
1 00</w>
su pp
ev er</w>
tra l</w>
I C
re w</w>
execu tive</w>
w ard</w>
D A
T im
ig ital</w>
si ons</w>
pos si
h ear
T ur
for m</w>
Ne w
sus p
sh are</w>
m ul
t ook</w>
f ederal</w>
tel l
f il
c ar</w>
un der
dis c
clo se</w>
vie w</w>
is m</w>
Flor ida</w>
El ec
feren ce</w>
in sur
cienti sts</w>
C oun
ti tle</w>
off er</w>
Uni on</w>
fu r</w>
f f</w>
Ara fat</w>
riv al</w>
Su n</w>
urric ane</w>
k ely</w>
th or
Ch ar
num ber</w>
T O
s ite</w>
la tion</w>
inv estig
C E
C ity</w>
t ter</w>
st ud
Dar fur</w>
ac t</w>
lead ing</w>
t on
4 0</w>
M us
t t</w>
sh or
se ven</w>
n early</w>
u lar</w>
tw or
ul ts</w>
invest ors</w>
tr on
cam pa
t tle</w>
ser ies</w>
B i
sh ar
h ere</w>
pow er</w>
a im
in ten
j ur
ver y</w>
terr or
P re
S E
t arg
St reet</w>
L on
h ow</w>
c lu
e w
i or</w>
r on
S w
en cy</w>
de b
low er</w>
cas e</w>
W illi
Yanke es</w>
P u
P ress</w>
Fr ance</w>
C ourt</w>
jo bs</w>
in d</w>
kil ling</w>
D o
Oc to
Se p
T V</w>
al leg
S P
contra ct</w>
P ow
ow ard</w>
Qu ote</w>
R ec
t ting</w>
A th
b lo
Octo ber</w>
a th
l th</w>
h un
m ers</w>
ex ten
Jap anese</w>
ap pea
f ell</w>
wor kers</w>
att acks</w>
g lobal</w>
h ard</w>
rec ei
n ia</w>
d om
G ame</w>
ex per
M il
b an</w>
f ic
F ir
Sa ys</w>
h i
Sep tem
qu i
ra ce</w>
Septem ber</w>
9 8
y our</w>
pea ce</w>
sup port</w>
F ederal</w>
at te
M ore</w>
D es
4 5
e y
sour ce</w>
f ra
id ed</w>
ra tes</w>
li fe</w>
B C</w>
I v
ma tion</w>
C la
ti v
sec u
D el
S ing
S t</w>
W all</w>
ver al</w>
re v
des pite</w>
go ing</w>
Brit ain</w>
th ers</w>
ea s
T o</w>
a way</w>
ver sion</w>
med ia</w>
I T</w>
p op
an ti
por t
er gy</w>
Com pu
l em
ec h</w>
se e</w>
li kely</w>
comp eti
Cali for
d on
g es</w>
leg al</w>
p ass
d in
as s</w>
sp o
T ech
l er</w>
a i</w>
be st</w>
L o
ed u
lead ers</w>
sol di
s la
agre ement</w>
V ir
h um
D ol
ish ed</w>
T ex
w ide</w>
S ony</w>
ud ge</w>
u k
em ploy
fol lowing</w>
i um</w>
el s</w>
i ans</w>
bom b</w>
regi on</w>
ed s</w>
al so</w>
7 0</w>
ad v
ha m</w>
Sud an</w>
ma il</w>
ann ed</w>
laun ch</w>
li es</w>
sel f</w>
g y
P l
u t</w>
M er
S ea
te ly</w>
bo ard</w>
du e</w>
wee k
dow n
ess es</w>
dru g</w>
g ing</w>
ma king</w>
Gen eral</w>
O n</w>
p it
en sive</w>
a ir</w>
m ight</w>
a ke</w>
amp ion</w>
ris e</w>
Califor nia</w>
ra te</w>
qu es
rea t</w>
retur n</w>
S en
comp le
f ea
S i
ten t</w>
id ence</w>
oo ds</w>
Canad a</w>
S pa
play er</w>
vi ol
p ur
n er
con f
min ist
ti ce</w>
v ideo</w>
I s</w>
an k
V o
p e
ch ar
progra m</w>
n app
li er</w>
7 5</w>
Nov ember</w>
T ro
o b
an aly
re g
res earch</w>
bo th</w>
Y a
f all</w>
sh ot</w>
gi ve</w>
P ric
be ls</w>
ro r</w>
id1 00
CE O</w>
vers ity</w>
B as
at or</w>
fu ture</w>
mee ting</w>
O S</w>
custom ers</w>
sco red</w>
B A</w>
g ood</w>
ol u
e ball</w>
dem and</w>
m atch</w>
produc ts</w>
B er
v ers</w>
dec ision</w>
M ed
A t</w>
jo b</w>
tion al</w>
fi ed</w>
ta in
Mic ha
part ment</w>
la n</w>
be d</w>
se ts</w>
P ac
Com p
Prof it</w>
campa ign</w>
w are</w>
en ded</w>
ig ned</w>
ain s</w>
P a
run ning</w>
D ec
la y
win ning</w>
R a
dea th</w>
G r
su it</w>
Micha el</w>
E d
ch ang
su ch</w>
cap ital</w>
f ootball</w>
re l</w>
kee p</w>
poin t</w>
C H
Th is</w>
oun ded</w>
fir e</w>
min ister</w>
ch er</w>
rec ent</w>
B ay</w>
c riti
M ay</w>
c er
con sid
Ser ies</w>
Compu ter</w>
f re
charg es</w>
tri al</w>
ch ampion</w>
wi reless</w>
oc ra
ban k</w>
d en
s ing
Prof ile</w>
Sha res</w>
per s
H e</w>
e ight</w>
4 9</w>
C O
m ea
ch ampi
ta king</w>
Willi ams</w>
ch il
tri es</w>
A ir</w>
s em
t om
Com mission</w>
prov ed</w>
chi p</w>
A ri
ak es</w>
with out</w>
mun ications</w>
C O</w>
n e</w>
om e
stra ight</w>
politi cal</w>
us h</w>
syste ms</w>
il ls</w>
ac ked</w>
manag er</w>
S yste
wh ether</w>
m at
po sed</w>
se veral</w>
Tex as</w>
I T
g ress</w>
for mation</w>
po st</w>
Chin ese</w>
9 6
A c
d igital</w>
s ell</w>
conc er
H ea
P e
se tt
n a
t old</w>
un i
pris e</w>
an iz
batt le</w>
4 5</w>
k id
elec tions</w>
H urricane</w>
ac tion</w>
stri ke</w>
fin ancial</w>
ne twork</w>
un ve
be li
er ve</w>
fo rec
N F
h old</w>
en ter
bro ad
T H
inte rest</w>
V er
e es</w>
an a</w>
st ar</w>
our s</w>
str on
laun ched</w>
re d
id8 0
Wi reless</w>
id3 0
prov id
id11 0
id4 0
Pla y
ret ary</w>
regu la
in ning</w>
be come</w>
lit tle</w>
4 1</w>
d en</w>
j ect</w>
id2 0
f igh
m id
w e</w>
sa ying</w>
id7 0
B E
e e</w>
u d</w>
id6 0
is es</w>
ta ble</w>
De f
ju red</w>
g r
id9 0
B el
5 5</w>
sh ow</w>
id5 0
pol ic
sch ool</w>
4 8</w>
am i</w>
P at
h ind</w>
y a</w>
dea d</w>
ap pl
twor ks</w>
H ou
au thor
c ou
ester n</w>
Afgh an
week end</w>
O ct</w>
res ults</w>
row n</w>
Ger many</w>
h u
ou ght</w>
S AN</w>
jur y</w>
6 0</w>
k y
for ce</w>
rac y</w>
t rea
ag ency</w>
ho o</w>
wom en</w>
O S
w at
ter n</w>
ea ch</w>
M ad
e ff
c op
ac ross</w>
n ec
ven ue</w>
Ger man</w>
tic s</w>
c ing</w>
pl an
7 8</w>
M is
O ver</w>
lo st</w>
Afghan istan</w>
co st</w>
hist ory</w>
Ya hoo</w>
k top</w>
St ri
Is la
ph ones</w>
ban k
v il
C A
gen er
p ic
S earch</w>
c er</w>
ed ed</w>
ann ing</w>
A m
f ight</w>
l d
Po d</w>
d oc
z ed</w>
co sts</w>
increa se</w>
oun ds</w>
In don
possi ble</w>
on ds</w>
ke over</w>
mor ning</w>
Indon es
vo te</w>
tou ch
is i
res ted</w>
sh e</w>
be tter</w>
Au gu
manag ement</w>
R AN
ho stage</w>
P or
H al
R u
reta il
ch all
p riv
consu mer</w>
F ac
Ch ic
st and
fo reign</w>
7 2</w>
b led</w>
ous ands</w>
7 7</w>
f oc
f ans</w>
Sp ace</w>
H ouse</w>
us es</w>
acc oun
b and</w>
ur o</w>
Dem ocra
7 9</w>
Indi an</w>
7 1</w>
at ors</w>
gen cy</w>
No v</w>
hop es</w>
pro mis
ph o
di o</w>
Augu st</w>
m ir</w>
ch ers</w>
d ead
j um
id9 8
f ur
7 4</w>
s ter</w>
Ar sen
rup t
id3 8
fe w</w>
atte mp
id7 8
I L
id1 8
id8 8
Afgh an</w>
ta x</w>
id4 8
De partment</w>
4 4</w>
6 4</w>
N ations</w>
id6 8
acc used</w>
id11 8
T O</w>
u fac
ra l</w>
4 7</w>
del i
o ta</w>
id5 8
go ti
oper ating</w>
Afric a</w>
t d</w>
id10 8
4 2</w>
7 6</w>
show ed</w>
5 00</w>
sig ned</w>
Lon don</w>
C ha
s qu
di ed</w>
id2 8
tur n</w>
Fal lu
g ets</w>
L ead
e ing</w>
s si
g as</w>
m en
in t</w>
low s</w>
car ri
rupt cy</w>
Sh i
th ough</w>
Uni versity</w>
Vir g
par ty</w>
ca re
war ned</w>
ant i</w>
er y</w>
su m
For mer</w>
4 3</w>
T al
o p</w>
s ame</w>
in f
to o</w>
4 6</w>
m it
ea se</w>
O U
S ad
Wh en</w>
be hind</w>
lu e</w>
d id</w>
pp ing</w>
NF L</w>
ta kes</w>
l and
la w</w>
D V
am ong</w>
di ff
Bra z
On line</w>
threa ten
5 4</w>
viol ence</w>
milit ants</w>
L ab
Mus li
Spa in</w>
A L</w>
i Pod</w>
Ath ens</w>
Re port</w>
7 3</w>
J ones</w>
R y
an ces</w>
ap pro
per form
ous ly</w>
sm all</w>
claim s</w>
es ter</w>
At lan
tra ding</w>
min u
ol s</w>
F RAN
N BA</w>
em er
l on
in jured</w>
st ore</w>
ur t</w>
proc ess
D eal</w>
5 1</w>
w ins</w>
mar k</w>
Chic ago</w>
Dav id</w>
T ri
c e
d ly</w>
cor por
Bi g</w>
P i
h ouse</w>
Olymp ics</w>
contro l</w>
5 3</w>
B ro
P E
er r
sto p</w>
Afric an</w>
Americ ans</w>
9 0</w>
cas h</w>
Hou ston</w>
d le</w>
in k</w>
at s</w>
Champi onship</w>
p ul
med al</w>
A C
B ow
bar rel</w>
St ar
T est</w>
c and
open ing</w>
AT H
en ds</w>
soldi ers</w>
ic k
am id</w>
res pon
beg an</w>
g ot</w>
in tro
15 1</w>
Gi ants</w>
in formation</w>
Ph ili
T ig
exp ec
d es</w>
b a</w>
al most</w>
L td</w>
Se pt</w>
rin t</w>
Champi ons</w>
cru de</w>
f ull</w>
id s</w>
ste p</w>
Fir st</w>
h e
comm un
Bla ir</w>
s cientists</w>
N ig
n ine</w>
c il</w>
al ls</w>
E ast</w>
con fir
ma kers</w>
Fr anc
stru c
6 5</w>
H igh</w>
P D
z er</w>
prof its</w>
e f</w>
an ding</w>
rea ch</w>
du ce</w>
E S</w>
M id
com es</w>
tur ing</w>
sus pen
ter m</w>
ta keover</w>
8 0</w>
ro c
li f
5 2</w>
Sec retary</w>
C am
tele vision</w>
care er</w>
B om
W al
i ted</w>
ne goti
tr ans
pres s</w>
off ering</w>
E gy
K ar
Up da
A D
ass er</w>
au l</w>
sen ior</w>
EN S</w>
2 00</w>
9 9</w>
j udge</w>
G ames</w>
L ou
S co
stud y</w>
ti l</w>
minist ration</w>
perform ance</w>
C ap
G ar
ear lier</w>
ve y</w>
N ot</w>
v al
en t
sp eed</w>
lea gue</w>
A T</w>
ec e</w>
tr e</w>
su ff
kid napp
I S</w>
S ales</w>
in de
Air ways</w>
R oc
en ergy</w>
un it</w>
qu ali
grow ing</w>
me et</w>
kn own</w>
T A</w>
ab o
M as
m ess
ig u
boo st</w>
bank ruptcy</w>
cu ts</w>
FRAN C
T a
M y
w id
produc tion</w>
nor thern</w>
t g
th ose</w>
l ight</w>
mon ey</w>
H u
Ch i
acc ess</w>
c all</w>
re j
mem bers</w>
Ser vice</w>
S ur
f ic</w>
R i
su per
Shar on</w>
V en
To p</w>
ATH ENS</w>
G ol
f ar</w>
Th ree</w>
T or
b ing</w>
or der</w>
ic ide</w>
Bus iness</w>
Gr and</w>
con ference</w>
man ufac
ai la
K en
in iti
hea v
hel ped</w>
sou thern</w>
publ ic
k es
p ons</w>
dra w</w>
s ses</w>
er a</w>
so on</w>
Asi a</w>
D ea
A B
ris is</w>
mu st</w>
Nig er
h ours</w>
y et</w>
th en</w>
sh ed</w>
beg in</w>
dre n</w>
I f</w>
a st
5 6</w>
O ut</w>
in e
for d</w>
def ense</w>
I R
bo dy</w>
Res erve</w>
K Y
R ad
tu al</w>
cal ls</w>
or ge</w>
di es</w>
du ced</w>
clu b</w>
M e
b ia</w>
et ting</w>
B S</w>
s ted</w>
or ity</w>
ab ility</w>
P aul</w>
t our
FRANC IS
b ility</w>
ch ester</w>
Associ ation</w>
M P
c lim
effor ts</w>
tron ics</w>
H P</w>
d am
hea lth</w>
Arsen al</w>
y ards</w>
sti tu
TO KY
ky o</w>
al ready</w>
la s</w>
ow s</w>
bu s</w>
To kyo</w>
TOKY O</w>
on a</w>
as ter</w>
ap poin
mar kets</w>
charg ed</w>
FRANCIS CO</w>
coun tries</w>
Ital ian</w>
concer ns</w>
l ist</w>
t y
en ger</w>
id5 9
pos ted</w>
D ru
H el
Th ey</w>
id7 9
id3 9
Al l</w>
Syste ms</w>
O ut
id1 9
comp uters</w>
id8 9
f ile</w>
t rou
id6 9
ga ve</w>
sch edu
olu tion</w>
Upda te
s ent</w>
ac tiv
id2 9
pow er
Coun cil</w>
T it
c our
w est</w>
ap er</w>
id11 9
corpor ate</w>
t s
Sof tware</w>
dom in
T E
st rea
ma in</w>
id9 9
id4 9
g ers</w>
w il
ear chers</w>
id10 9
n al</w>
p il
w ood</w>
en ough</w>
gen eral</w>
av aila
low ed</w>
Ge orge</w>
on to</w>
Com munications</w>
tr ying</w>
5 7</w>
B ill</w>
dis pu
contin ue</w>
6 6</w>
C isco</w>
V al
a ti
ar rested</w>
di um</w>
rea ched</w>
ten ti
with in</w>
Ch ief</w>
loo king</w>
c ement</w>
se a</w>
Air lines</w>
5 9</w>
5 8</w>
f res
s ign</w>
vis it</w>
out side</w>
p an
un ion</w>
le vel
fu el</w>
re bels</w>
ta ken</w>
I A</w>
N i
P M</w>
re ti
te ch</w>
shor t</w>
pop ular</w>
a id</w>
r id</w>
un til</w>
op position</w>
star ting</w>
C el
D ell</w>
I D
p le</w>
lar s</w>
d a</w>
dro p</w>
I D</w>
r ing
s ale</w>
T ea
te ams</w>
re venue</w>
A cc
B al
G o
Y asser</w>
w ent</w>
an ced</w>
gi ving</w>
ra ised</w>
ne ed</w>
id5 6
T ai
f av
ov ered</w>
le ge</w>
Iv an</w>
o thers</w>
es sion</w>
Mi ami</w>
F rom</w>
ea st</w>
en ge</w>
id9 6
id3 6
H ew
fin d</w>
fin als</w>
sel ling</w>
dou b
D on
lo cal</w>
id2 6
id4 6
id6 6
Ar my</w>
Palestin ians</w>
Cen ter</w>
continu ed</w>
c s</w>
p rac
sta ke</w>
cand id
M ac
id8 6
Man chester</w>
effor t</w>
st u
illi ons</w>
id10 6
air line</w>
aim ed</w>
C ra
id1 6
fa iled</w>
id11 6
IN G</w>
produc t</w>
dri ve</w>
c ell</w>
ma kes</w>
ran ge</w>
wea pons</w>
hum an</w>
F ed
Q a
ri es</w>
ni e</w>
Wh ite</w>
id7 6
Joh n
T el
Asi an</w>
B AG
on ce</w>
ch air
Dav is</w>
8 6</w>
Tim e</w>
9 6</w>
I m
offic e</w>
t i</w>
w r
an y
di tion</w>
ke tball</w>
quarter back</w>
competi tion</w>
T ech</w>
e z</w>
fin ally</w>
down lo
6 7</w>
In vest
ta tion</w>
Dol lar</w>
se en</w>
cen tral</w>
threa t</w>
lem s</w>
l in</w>
bus in
succ ess
pre vi
inv ol
author ities</w>
c li
th ousands</w>
re bel</w>
re li
id enti
de red</w>
invest ment</w>
org aniz
spo kes
D ev
T rea
st ages</w>
ta tions</w>
pres sure</w>
L u
dra w
DA D</w>
te red</w>
200 6</w>
6 9</w>
B ur
r ing</w>
w ants</w>
AN G
BAG H
a ver
des igned</w>
quarter ly</w>
Mad rid</w>
BAGH DAD</w>
b al
e qui
t own</w>
Th ere</w>
analy sts</w>
ma tes</w>
Ma c</w>
Up date</w>
DV D</w>
H igh
r a</w>
B ri
R ic
di v
Musli m</w>
Franc isco</w>
9 5</w>
c risis</w>
sta te
Pric es</w>
ris ing</w>
ish ing</w>
mov ed</w>
W il
is ing</w>
ho sp
G old</w>
k ia</w>
char ge</w>
F un
fun d</w>
fur ther</w>
6 3</w>
P it
R el
m as
ro l
Sta dium</w>
r ights</w>
t oward</w>
Tra de</w>
f iled</w>
pers onal</w>
X P</w>
b row
ch ec
6 2</w>
B lo
N as
s ome
x ed</w>
af f
fam ily</w>
ter ror</w>
go al</w>
Cali f</w>
Ang el
in jury</w>
rou ps</w>
Mo bile</w>
execu tives</w>
h its</w>
l ic
un g</w>
oun ding</w>
wom an</w>
C P</w>
L os</w>
R eal</w>
sp ending</w>
fl ight</w>
nam ed</w>
TH E</w>
N a
in st
li am
la y</w>
tell ite</w>
r ally</w>
fi red</w>
hear t</w>
chil dren</w>
9 2</w>
H en
al low</w>
di e</w>
M S
g re
lar ge</w>
figh ting</w>
n ess</w>
pro ve</w>
ric ket</w>
cen ter</w>
retail er</w>
ic ation</w>
un es</w>
ag ing</w>
ag ed</w>
de ta
D ut
g ains</w>
g etting</w>
te e</w>
un e</w>
fir ms</w>
A l</w>
M u
w an</w>
le vel</w>
clo sed</w>
stru gg
buil d</w>
s y
ru ling</w>
forec ast</w>
chair man</w>
K or
e k</w>
w estern</w>
com mer
riv als</w>
Cen tral</w>
op ping</w>
Ex p
No kia</w>
dol lars</w>
Bow l</w>
D a
e uro</w>
Th at</w>
oun g</w>
6 8</w>
f ron
ed ge</w>
S il
S am
in dic
ex ic
po tenti
Mar t</w>
M or
y ers</w>
te dly</w>
re hol
Off ic
A p
A stro
AT E</w>
supp ly</w>
power ful</w>
9 4</w>
S m
id9 5
dre ds</w>
r on</w>
Co ast</w>
C ru
C BS</w>
b it</w>
ee k</w>
An n
polic y</w>
M exic
Bo eing</w>
I re
Sp an
New s
Pre mi
Isla m
w an
at ten
id10 5
eng ine</w>
U R
e ve</w>
id3 5
k ra
ter min
lo c
ad s</w>
id5 5
id4 5
id6 5
ren g
Ital y</w>
Sing h</w>
Ry der</w>
6 1</w>
n ame</w>
id11 5
hol iday</w>
dou ble</w>
n es
an ks</w>
wor king</w>
id2 5
oper ations</w>
Del ta</w>
Tal ks</w>
9 8</w>
N H
d riv
id8 5
ann ual</w>
8 8</w>
M usic</w>
t re
id7 5
ph y</w>
brea k</w>
Dut ch</w>
4 00</w>
en tly</w>
pl anned</w>
Mar k</w>
b a
ri st
id1 5
stra te
insur ance</w>
id ent</w>
pri me</w>
8 4</w>
Ne t
Ex change</w>
AM D</w>
W al</w>
l ers</w>
n at
em b
ris k</w>
des ktop</w>
Ire land</w>
8 5</w>
id es</w>
mar t</w>
D u
N ow</w>
ti mes</w>
tur ned</w>
par ti
ci v
Angel es</w>
Astro s</w>
ro ad</w>
ur ities</w>
U kra
mis sing</w>
prov ide</w>
oper ation</w>
9 7</w>
9 3</w>
G ra
T er
Pol ice</w>
confir med</w>
Y uk
ch ance</w>
dec ided</w>
run s</w>
C l
S E</w>
c anc
d ings</w>
f ears</w>
i ed</w>
p ment</w>
la p
en ing</w>
nam ent</w>
T y
f ri
m b
ar my</w>
T e
U PD
ac e
investig ation</w>
N u
T ony</w>
a rea</w>
a tely</w>
c ard</w>
s il
ven d
A P
y ed</w>
hop e</w>
availa ble</w>
t ment</w>
ru les</w>
av o
Par is</w>
attemp t</w>
Yuk os</w>
develop ment</w>
vir on
al d</w>
ne ver</w>
sur g
Gre en</w>
Braz il</w>
J an
W in</w>
g round</w>
ra ft</w>
ha pp
ap proved</w>
da m</w>
Sea ttle</w>
tor ies</w>
Islam ic</w>
UPD ATE</w>
R ed
la b
be ne
ig ns</w>
Ex plo
D ay</w>
over y</w>
cra ft</w>
s old</w>
an i</w>
bas eball</w>
r s</w>
ear ing</w>
p ush
red it</w>
foc us</w>
G overn
N et</w>
P an
b acks</w>
f th</w>
g ol
Dis ney</w>
f y</w>
l et</w>
nolog ies</w>
prob lems</w>
champi onship</w>
u ti
lo t</w>
sh es</w>
claim ed</w>
Th e
ill a</w>
8 9</w>
u r</w>
com b
cla im</w>
beli ev
m ag
p at
p ush</w>
rea d</w>
priv ate</w>
H un
c row
di st
ma in
c y
k y</w>
lin ed</w>
si tes</w>
im p
wor th</w>
ver y
comm it
y s
ser ver</w>
Con su
pres en
Tea m</w>
Ch el
consu mers</w>
cel e
re f
In du
su icide</w>
sp i
W ill</w>
g un
in a</w>
ver si
sur vey</w>
B e</w>
I P</w>
W ins</w>
a il
m a</w>
terror ism</w>
Dec ember</w>
John son</w>
9 1</w>
S ome</w>
st ation</w>
200 3</w>
boo k</w>
La un
Pu tin</w>
I N</w>
N ex
l ands</w>
as ked</w>
targ et</w>
W oods</w>
st reng
iz ed</w>
sto res</w>
rev ea
b ad</w>
da q</w>
vel y</w>
Fi re
ja h</w>
J us
m ember</w>
w ant</w>
al ling</w>
tra ck</w>
war ning</w>
reta il</w>
B rown</w>
F ootball</w>
L ow
U N
er ic</w>
ol l</w>
pro pos
ca st</w>
En ter
abo ve</w>
K ash
ed ged</w>
id7 4
rou ght</w>
show s</w>
S oc
w al
re b
af ter
lea ve</w>
Con gress</w>
unve iled</w>
D own</w>
h am
om ic</w>
wa ter</w>
Gre en
expec tations</w>
se em
id8 4
id5 4
def eat</w>
play ed</w>
Fallu jah</w>
busin esses</w>
o x
id2 4
ran ked</w>
F u
R ea
S us
j our
m it</w>
re n</w>
su gg
se par
id3 4
med i
id1 4
rea l
id9 4
id11 4
id4 4
pa y
fres h</w>
B lue</w>
D ow</w>
an ium</w>
it i</w>
ass in
fl ic
fra ud</w>
8 1</w>
P ho
Y ear</w>
a wa
b loo
f ying</w>
Ch r
Ro d
Mil it
0 5</w>
open ed</w>
issu e</w>
p h</w>
susp ected</w>
M W</w>
g roups</w>
id6 4
sc re
insur g
diff e
b n</w>
id10 4
chi ps</w>
pro be</w>
Par k</w>
Trea sur
T our</w>
f ood</w>
re t</w>
ic on
lo se</w>
sp am</w>
An d</w>
S tor
er ship</w>
lo sing</w>
gi ven</w>
Min nes
B ang
ab ly</w>
8 2</w>
R om
T enn
h and</w>
ver ti
and ed</w>
Minnes ota</w>
b l
li ance</w>
off ers</w>
cur ren
AG O</w>
G a
P C
br ing</w>
Gre ece</w>
em ents</w>
sha rehol
buil ding</w>
eas tern</w>
1 1
il ling</w>
mer ger</w>
Au g</w>
Fo reign</w>
Tai wan</w>
D ata</w>
I P
R ise</w>
T ru
Mi ke</w>
0 4</w>
A S</w>
def ic
Car din
cur rent</w>
employ ees</w>
G lobal</w>
W a
b ill</w>
i ling</w>
k o</w>
ad ded</w>
De tro
pur ch
Indones ia</w>
h er
Re public
pre dic
proc ess</w>
deb t</w>
N Y
or ing</w>
C a
ic ks</w>
ra ise</w>
Detro it</w>
Ste ve</w>
law suit</w>
la ter</w>
ser vers</w>
fac es</w>
Qu ar
vir us</w>
regula tors</w>
Virg in
e z
l ement</w>
an g</w>
Phili pp
oun t</w>
gener ation</w>
touch down</w>
h ou
ra dio</w>
po st
Sp rint</w>
Ear th</w>
Stri p</w>
3 00</w>
B ack</w>
E con
a tive</w>
ad es</w>
Ch rist
ph ia</w>
war t</w>
win ter</w>
har d
alleg ed</w>
Dru g</w>
r i</w>
y le</w>
del phia</w>
tour nament</w>
Virgin ia</w>
g reat</w>
s li
war ds</w>
col l
Pat ri
si on
clo ser</w>
tel ec
Atlan ta</w>
B ec
up gra
spec i
issu es</w>
ur ged</w>
ch o
ad ministration</w>
cap tain</w>
hosp ital</w>
L E</w>
M at
h ic
si st
Democra tic</w>
b it
in o</w>
8 7</w>
I ts</w>
l ish</w>
oc key</w>
new sp
Fac tor</w>
and er</w>
recei ved</w>
spokes man</w>
wan ted</w>
b ir
c lin
f ul
w ounded</w>
x es</w>
ro le</w>
mis sed</w>
A tt
S af
ap pa
loo ks</w>
state ment</w>
Kor ean</w>
e very</w>
lo sses</w>
de vices</w>
pre me</w>
F ord</w>
O w
z ens</w>
Ad v
Ju ly</w>
disc us
equi pment</w>
P en
th er
il ty</w>
bur n</w>
bene f
Kash mir</w>
pla ying</w>
crea te</w>
F our</w>
R O
R og
milit ant</w>
increa sed</w>
acqu isi
8 3</w>
F er
im port
pl om
pris on</w>
brow ser</w>
D en
for ward</w>
fi fth</w>
d id
e qu
t ric
di vision</w>
p ers</w>
u l</w>
Ser ver</w>
Sto ck</w>
Chel sea</w>
F la
L y
i la
j ing</w>
m ate</w>
r ush
Kar z
for ced</w>
ru led</w>
ev ent</w>
La w
News Factor</w>
cele bra
H oward</w>
z z
re rs</w>
it ting</w>
res earchers</w>
pen d
Tech nology</w>
Span ish</w>
O L</w>
p as
s or
St ud
sig ns</w>
liam ent</w>
Cardin als</w>
s on
st and</w>
sc ri
B ei
di stri
sc and
stor age</w>
distri bu
A K
S our
h or
sa fe
qu e</w>
igh tly</w>
ric h
ni fic
out look</w>
tron ic</w>
Cru de</w>
Karz ai</w>
Y ou</w>
Z ea
in fla
Comp any</w>
appl ications</w>
E x</w>
Bei jing</w>
1 2
re qu
hol ding</w>
tru st</w>
ssi c</w>
P ea
n al
rec or
id ing</w>
em p
tu red</w>
rela ted</w>
mul ti
E R</w>
S ol
a w
lin a</w>
di tional</w>
shi ps</w>
Off ice</w>
p ly</w>
s ile</w>
st af
am a</w>
Ne tworks</w>
do es</w>
sup por
IC AGO</w>
NH L</w>
m ur
sp e
anc tions</w>
Pow ell</w>
CH ICAGO</w>
sing le</w>
Nas daq</w>
F A</w>
I ris
m ach
ar m
il led</w>
ci ence</w>
ly wood</w>
Tor onto</w>
L ar
w el
es n</w>
sp ac
tain ment</w>
mon y</w>
ja f</w>
Na jaf</w>
Nex tel</w>
B l
li ed</w>
E ag
t ar
re ly</w>
as sa
ma r</w>
sur vi
au tom
Su preme</w>
p ass</w>
u ary</w>
y er</w>
be s</w>
Mar s</w>
star ted</w>
Rec ord</w>
Tig er</w>
su its</w>
Sen ate</w>
Bas eball</w>
Jan uary</w>
Zea land</w>
S cientists</w>
c lea
f ast</w>
p ool</w>
w it
dru gs</w>
fron t</w>
O ff</w>
b at
e very
bas ketball</w>
aver age</w>
H ome</w>
is ted</w>
did n</w>
b last</w>
k now</w>
off ensive</w>
dow ns</w>
Sta tion</w>
m as</w>
bu l
pl ane</w>
ang ers</w>
Bu y</w>
Ph ila
Lou is</w>
ov a</w>
En d</w>
exper ts</w>
vil le</w>
J er
rea l</w>
deb ate</w>
Phila delphia</w>
B en
H O
K ee
h y
ig an</w>
ve hic
jo in</w>
fo x</w>
Tur key</w>
G row
pro secu
ed a</w>
Car o
c are</w>
f er</w>
ar m</w>
minu tes</w>
Egy pt</w>
Iris h</w>
i o
y al</w>
in tell
mis s</w>
win ner</w>
rema in</w>
Mexic o</w>
L AN
m et</w>
er t</w>
ne tworks</w>
Elec tion</w>
Do d
H op
s ters</w>
al ity</w>
ac king</w>
ir ing</w>
ke ting</w>
threaten ed</w>
d rea
l th
sh ut
chang es</w>
b ly</w>
vic ti
ven tion</w>
e pt</w>
be n
ist ani</w>
De c</w>
stru ction</w>
Hol lywood</w>
War ner</w>
j a</w>
vis i
F e
p tion</w>
wh ose</w>
gu ard</w>
Wh at</w>
hom es</w>
staf f</w>
b ack
se ttle</w>
A OL</w>
W ar</w>
s s
t ings</w>
st ay</w>
pro posed</w>
oc k</w>
fi el
see king</w>
suspen ded</w>
kidnapp ed</w>
tg age</w>
S tra
S um
T unes</w>
g am
Patri ots</w>
S T
S al
r ay</w>
ci p
B onds</w>
ar ra
is on</w>
le m</w>
lea ving</w>
tr a</w>
Br y
retur ned</w>
SE C</w>
hun dreds</w>
V ie
pre pa
hu ge</w>
Ukra ine</w>
A ma
B R
al ong</w>
ev idence</w>
hel ps</w>
it ors</w>
go es</w>
sen ten
p ace</w>
gu n</w>
Mic h
Ma jor</w>
acqu ire</w>
supp lies</w>
Mas ters</w>
F ed</w>
ud i</w>
sour ces</w>
stor m</w>
PE C</w>
s ession</w>
ri a</w>
off ered</w>
pa ir</w>
offic er</w>
Ste wart</w>
Sad r</w>
roc ket</w>
Qa eda</w>
D S</w>
N A</w>
S ti
i Tunes</w>
be came</w>
head ed</w>
ha ving</w>
bea ting</w>
rema ins</w>
Niger ia</w>
Fire fox</w>
e g
n ations</w>
o la
ter y</w>
Bla ck</w>
strea k</w>
J ames</w>
O h
h an</w>
dro pped</w>
m om
ti an</w>
il ities</w>
ig ence</w>
pla ced</w>
ang er</w>
Par ty</w>
no on</w>
cour se</w>
G A</w>
v al</w>
Or g
rej ected</w>
f igu
il legal</w>
ph ins</w>
conf idence</w>
D al
c iting</w>
s wee
s low</w>
co de</w>
ass y</w>
Caro lina</w>
L E
cl eric</w>
cri min
safe ty</w>
B oo
L OS</w>
fin ance</w>
Man ag
explo sion</w>
Tim es</w>
chall enge</w>
it or</w>
D ou
W e</w>
n ation
for ms</w>
de vice</w>
ser v
def ea
J ets</w>
R am
p un
Ro b
ans as</w>
Des pite</w>
F all</w>
P r
th qu
an o</w>
ti e</w>
ra p</w>
bo x</w>
process or</w>
defic it</w>
B re
en viron
Th ail
pro ject</w>
ho stages</w>
med ical</w>
Ge org
Def ense</w>
potenti al</w>
Christ mas</w>
Eag les</w>
C as
e p</w>
g rea
en c
Ch ech
par ts</w>
high est</w>
ANG EL
f el
ar t</w>
res ult</w>
Oh io</w>
C y
F i</w>
a il</w>
th ought</w>
sp ot</w>
ve z</w>
soc cer</w>
Thail and</w>
D ro
H er
b rought</w>
ar s</w>
om in
sum mer</w>
ANGEL ES</w>
spec ial</w>
Sco t
C an</w>
c rac
con flic
do g</w>
sig nific
secu tive</w>
G M</w>
I M
ro om</w>
dec line</w>
inter net</w>
inter im</w>
terror ist</w>
High er</w>
scand al</w>
v ol
do esn</w>
provid er</w>
m illions</w>
Ch arg
fu tures</w>
Ser vices</w>
Ha iti</w>
dispu te</w>
T i
st ates</w>
ec raft</w>
ad verti
i als</w>
te am
is ters</w>
accoun ting</w>
Mich igan</w>
1 3
E M
S T</w>
al led</w>
ir cu
con secutive</w>
tra vel</w>
elec tronics</w>
continu es</w>
H us
r ying</w>
w ri
sa ve</w>
bo ss</w>
En ron</w>
Sing ap
Mer ck</w>
Ari el</w>
Don ald</w>
avo id</w>
propos al</w>
acquisi tion</w>
A gency</w>
di plom
PC s</w>
N L</w>
f loo
s ons</w>
ac kers</w>
Con ference</w>
direc tor</w>
Med ia</w>
chang ed</w>
ld wide</w>
MS N</w>
g res
re fu
ber t</w>
we ight</w>
Ni k
versi al</w>
2 1
g ain</w>
th em
mem ory</w>
Ang els</w>
carri er</w>
a sts</w>
ne l</w>
B ea
M ets</w>
O k
S an
U r
e rer</w>
Bla ck
buil t</w>
initi al</w>
commer cial</w>
T OR
V ic
s ports</w>
sa w</w>
Cor por
ful ly</w>
B A
t ow
z en</w>
mo on</w>
Pri x</w>
Ag ainst</w>
I E
O ak
k ill</w>
th ink</w>
us i
sh oo
schedu led</w>
L ast</w>
ho sti
Ex ecu
bea ten</w>
fun ds</w>
hist or
lon ger</w>
Singap ore</w>
iz on</w>
Sw ed
appea red</w>
W ea
s end</w>
ne eded</w>
ke pt</w>
stri ker</w>
For ce</w>
Sa udi</w>
sl ightly</w>
Ham as</w>
J as
b ri
pro mo
igh t
to tal</w>
ho st</w>
Sta r</w>
Ab u</w>
appl ication</w>
Sour ce</w>
y ware</w>
de fin
comp e
Sto res</w>
ton post</w>
Ven ez
Venez u
i te
w ashing
ne eds</w>
ow ner</w>
im medi
rec ently</w>
washing tonpost</w>
f lo
h im
en ed</w>
sp ar
se es</w>
pl ant</w>
cra sh</w>
contra c
Stud y</w>
S et</w>
s ers</w>
th rew</w>
ar riv
Iv ory</w>
ad o</w>
to g
gu ilty</w>
dis appoin
bas e</w>
conc ern</w>
Cla ssic</w>
Dol phins</w>
import ant</w>
k ie</w>
air craft</w>
shar ing</w>
broad band</w>
pas sed</w>
as n</w>
exp ects</w>
Sou th
Gre ek</w>
Ara b</w>
prob lem</w>
heav y</w>
K u
W eek</w>
h ur
with draw
pris on
Pak istani</w>
Cu bs</w>
issu ed</w>
ner ship</w>
newsp aper</w>
B a
c ro
p ack
ren a</w>
Li fe</w>
develop ed</w>
bor der</w>
Pac i
Fed erer</w>
tog ether</w>
C lu
s anctions</w>
tor ney</w>
pre par
Wh ile</w>
Air bus</w>
appea l</w>
sett lement</w>
div id
ra in</w>
res sed</w>
con nec
su e</w>
bu ying</w>
play off</w>
lay ed</w>
G la
J av
Sec urities</w>
stru ck</w>
M ush
c redit</w>
i tion</w>
id2 7
sec tor</w>
prov al</w>
after noon</w>
T arg
ea s</w>
op ti
stri al</w>
Nor th
devel op</w>
Oak land</w>
N inten
in nings</w>
ac y</w>
im s</w>
kil ls</w>
figu res</w>
him self</w>
i g</w>
j un
s port</w>
or ders</w>
pla t
id9 7
id7 3
ste ad</w>
publ ished</w>
Ari z
icon duc
C A</w>
M an</w>
ea n
ne e</w>
le x</w>
id2 3
For mul
up date</w>
shar ply</w>
Ninten do</w>
Formul a</w>
D ie
O PEC</w>
a red</w>
v s</w>
de but</w>
dec la
eng ine
Lab or</w>
Ariz ona</w>
id7 7
id3 7
id6 7
Jo bs</w>
we b</w>
jum p</w>
negoti ations</w>
candid ate</w>
J ack
x ing</w>
be low</w>
lin ked</w>
id1 3
id1 7
ap e</w>
bu d
id6 3
ke i</w>
id10 7
Mar tin</w>
IP O</w>
P GA</w>
re l
Le ban
succ ess</w>
ton ight</w>
ques tion</w>
prac tice</w>
NY SE</w>
Nik kei</w>
Mush arra
W i</w>
t ough</w>
in su
ru le</w>
id5 7
id11 3
id10 3
Mo z
Ma lay
Sou thern</w>
bom bing</w>
dre w</w>
port un
fea tures</w>
manufac tu
assa ult</w>
Malay si
A I
F an
y oung</w>
ar ms</w>
ic ker</w>
tra c
id3 3
id8 7
gi ves</w>
ca used</w>
Ar gen
tal k</w>
mov es</w>
c amp</w>
id ge</w>
ch ain</w>
Pro te
vo ters</w>
Vi ox
pass es</w>
cer tain</w>
Viox x</w>
G or
T ran
b les</w>
sp an</w>
id9 3
id4 7
ON TO</w>
Nov ell</w>
Pow er</w>
TOR ONTO</w>
F ON
l o</w>
es tic</w>
ban ks</w>
sol u
mov ing</w>
hosti le</w>
B row
P AR
en ted</w>
ro o
om s</w>
tra ining</w>
id8 3
id4 3
wa it</w>
Fl a</w>
pil ots</w>
revea led</w>
Musharra f</w>
C ing
t oll</w>
in ven
Th om
id11 7
nor th</w>
0 1</w>
L oc
o es</w>
ter ing</w>
wor st</w>
pol l</w>
sub sid
contro versial</w>
eas y</w>
Govern ment</w>
spac ecraft</w>
G ets</w>
V e
li ve</w>
to ols</w>
se y</w>
Ear nings</w>
enter prise</w>
Cing ular</w>
H on
n esses</w>
t age</w>
id5 3
mis sile</w>
all er</w>
K ansas</w>
an ia</w>
re ment</w>
is land</w>
pl anning</w>
ain ed</w>
laun ches</w>
see ks</w>
previ ous</w>
infla tion</w>
Paci fic</w>
J am
s is</w>
y ard</w>
co s</w>
Li ver
sou th</w>
Ab out</w>
pul led</w>
K y
ar i</w>
po se</w>
im prov
200 0</w>
Pro duc
Nor thern</w>
Fin ancial</w>
Ama z
K id
V ideo</w>
j ects</w>
ri an</w>
ad d
Mo tor
jo int</w>
Cu t</w>
Sad dam</w>
FON T</w>
0 3</w>
R angers</w>
k ings</w>
ur anium</w>
si onal</w>
res ol
con tent</w>
ist ry</w>
ca u
Mo sco
Pea ce</w>
0 2</w>
0 6</w>
v ar
li ft</w>
per io
dec ades</w>
Ex po
touch downs</w>
Fan nie</w>
M ov
i red</w>
re duce</w>
lead s</w>
gra ph
Mosco w</w>
B ig
M ag
th ese</w>
lin e
it self</w>
sh opping</w>
cen tur
Rad io</w>
D A</w>
b acked</w>
g ri
st ly</w>
im prove</w>
Republic an</w>
D ame</w>
O T
b ab
ric t</w>
mo de
No tre</w>
Pl ans</w>
Hea lth</w>
intro duced</w>
sharehol ders</w>
P ack
b ird</w>
c ore</w>
f oun
l ear
sp ent</w>
off s</w>
ven ture</w>
wea ther</w>
AL E
ques tions</w>
insurg ents</w>
s lu
la di
le tt</w>
pa ti
tu ally</w>
En ergy</w>
Bry ant</w>
P S
ar ing</w>
as k</w>
pro test</w>
ta h</w>
pa id</w>
oper ator</w>
Rog er</w>
g ir
it al
ing ing</w>
announ ce</w>
fic ation</w>
minu te</w>
C level
n y</w>
p rec
op ing</w>
Dev el
Jus tice</w>
Clevel and</w>
g e
th ings</w>
or dered</w>
wor ries</w>
ill er</w>
see k</w>
0 9</w>
U tah</w>
b low</w>
m o</w>
se tting</w>
OR E</w>
dec ade</w>
To m</w>
inte gra
comple te</w>
plan es</w>
iconduc tor</w>
Amaz on</w>
2 2
O K</w>
an es</w>
ou l
sec ure</w>
ak ers</w>
fl u</w>
Ver izon</w>
Mid dle</w>
P ay
ter ms</w>
rec overy</w>
Mar ket</w>
hel ping</w>
Expo s</w>
K ills</w>
su res</w>
Su per
go als</w>
Col om
sch o
respon si
strate gy</w>
Dod gers</w>
Dal las</w>
2 3
S o</w>
T S</w>
T im</w>
b y
in et</w>
la des
de termin
ric h</w>
mov ie</w>
vie w
progra ms</w>
pop u
Bang lades
fiel der</w>
G et</w>
M OS
p rin
or ig
ar med</w>
ac ker</w>
pro per
In to</w>
sur pris
acc ep
sen ding</w>
Iraq is</w>
Pla n</w>
exten ded</w>
inde pend
Jas on</w>
ladi mir</w>
F ree</w>
t ack
it t</w>
con duc
brea king</w>
M ur
k ies</w>
ra ising</w>
ur s</w>
cal ling</w>
show ing</w>
prob ably</w>
prote ction</w>
fil es</w>
pho to
Cha ir
mit ted</w>
mas sive</w>
K n
K ong</w>
m p</w>
u me</w>
sc ra
war ns</w>
anc ing</w>
Pri ze</w>
bro ke</w>
posi tive</w>
stron au
F T</w>
H ong</w>
O ver
t ool</w>
sa tellite</w>
pla ys</w>
ul ner
ser ious</w>
sub scri
Ann an</w>
Liver pool</w>
C N
F re
V ladimir</w>
a ys</w>
s ung</w>
sec onds</w>
pp er</w>
mis sion
bur gh</w>
Tech nologies</w>
pho on</w>
surg ery</w>
C ar</w>
G un
h our</w>
vo y</w>
rema ined</w>
C iti
g l
h i</w>
m id</w>
y en</w>
re sts</w>
Re ta
rou gh
dom estic</w>
Grow th</w>
conflic t</w>
h urt</w>
t ac
ol a</w>
mil es</w>
compu ting</w>
Cu ts</w>
dam age</w>
Hew lett</w>
some thing</w>
imp act</w>
Consu mer</w>
diffe rent</w>
Chair man</w>
0 8</w>
A M</w>
c at
c ricket</w>
m oun
la ys</w>
ir y</w>
ear thqu
ap proval</w>
ric k</w>
hol e</w>
Di vision</w>
targ ets</w>
Green span</w>
Sti ll</w>
histor ic</w>
Moz illa</w>
k nee</w>
s en</w>
ti t
si mp
ov ers</w>
ed ly</w>
ma j
um p</w>
beg inning</w>
Indones ian</w>
B id</w>
O ld</w>
c le</w>
ten n
tri bu
Col in</w>
col lap
we b
struc ture</w>
G O
re place</w>
is cal</w>
Se es</w>
app ears</w>
refu g
S BC</w>
ti vely</w>
wor ds</w>
exp and</w>
cu tting</w>
tri c</w>
tri p</w>
produc er</w>
Col lege</w>
dic k</w>
hop ing</w>
urric anes</w>
arriv ed</w>
Pack ard</w>
H its</w>
c re
ag ree</w>
em an</w>
Micro systems</w>
leg is
out put</w>
fac ing</w>
boo ks</w>
disc overed</w>
beli eve</w>
Sam sung</w>
G ul
d an</w>
ab inet</w>
sur prise</w>
DA Y</w>
jour nal
H ow</w>
h ot</w>
j et</w>
u es</w>
x th</w>
is n</w>
Lea d</w>
ja il</w>
prote ct</w>
trou bled</w>
reli ef</w>
J une</w>
h on
k a</w>
wh y</w>
Ne p
Jo se</w>
ber g</w>
Pit ts
perio d</w>
H is</w>
c tic</w>
u ation</w>
w ks</w>
ol e</w>
Ar e</w>
doc um
Virg in</w>
civ il</w>
F O
R ises</w>
ic i
op pon
pro mp
Mo tor</w>
tri ed</w>
mor tgage</w>
criti c
wat ch
Indu stry</w>
Georg ia</w>
L ank
M illion</w>
O f</w>
a h</w>
d one</w>
re st
en tal</w>
as test</w>
ee ks</w>
200 1</w>
200 2</w>
Col or
Sud anese</w>
Bom b</w>
E as
w ounding</w>
col lege</w>
law suits</w>
progra m
Bra ves</w>
fil m</w>
targ e
Des ktop</w>
AC E</w>
V ote</w>
in s
or n</w>
or row</w>
is s</w>
ap ol
Mar tin
To shi
explo ded</w>
blo ck</w>
Pric e</w>
Clu b</w>
P H
t op
ru pt</w>
wor ldwide</w>
Co ach</w>
ld n</w>
Bro ad
pan el</w>
Hew itt</w>
H om
K az
R em
W om
W estern</w>
b ow
f ee
st ad
si ze</w>
Bo ard</w>
Ma e</w>
Po sts</w>
kee ping</w>
soldi er</w>
dead line</w>
Treasur y</w>
1 50</w>
H um
M anning</w>
te sts</w>
ec tion</w>
high s</w>
Eng lish</w>
Explo rer</w>
Pitts burgh</w>
Toshi ba</w>
2 50</w>
F ood</w>
L ad
S em
f iscal</w>
h ands</w>
l or</w>
r ig
s n
lin s</w>
al lowed</w>
ag u
vo ting</w>
Out look</w>
Rod dick</w>
C S</w>
H y
m n
la hom
pro gress</w>
de v
mo d
bur y</w>
ath le
consid er</w>
Ok lahom
0 7</w>
V s</w>
re presen
lin g
comp la
se ven
ren tly</w>
min e</w>
vi ola
ath on</w>
dead ly</w>
rich ment</w>
Color ado</w>
F il
z one</w>
th a</w>
con vic
po or</w>
sur ge</w>
An other</w>
hea ting</w>
Col um
Lo ss</w>
CA R</w>
mur der</w>
Oklahom a</w>
C D</w>
R I
Z im
l a</w>
t ops</w>
head ing</w>
par liament</w>
ali tion</w>
des cri
announ cement</w>
ach es</w>
strugg ling</w>
N AT
on ed</w>
ti more</w>
In v
de layed</w>
dem ands</w>
sk ins</w>
Bal timore</w>
purch ase</w>
b re
n on</w>
am b
ne igh
res cu
ve ter
ste ps</w>
au ction</w>
pen sion</w>
wil d</w>
downlo ad</w>
D an
F a
J udge</w>
e m</w>
v ia</w>
ad op
tra ff
Mo st</w>
coun t</w>
et ary</w>
kn oc
hand ed</w>
MOS CO
f s</w>
g ar
t our</w>
or ial</w>
sp ecu
Per cent</w>
Ju st</w>
Low er</w>
intell igence</w>
Org aniz
PAR IS</w>
Zim bab
MOSCO W</w>
b un
es p
con sol
le w</w>
Ch all
ten s</w>
tur ns</w>
Mar sh</w>
Pal m
deta ils</w>
Tenn es
Gul f</w>
P res
S ri</w>
ow ners</w>
mar keting</w>
St and
mil iti
fl ights</w>
develop ing</w>
criti cal</w>
suff ered</w>
mess age</w>
adverti sing</w>
F ra
N ear</w>
f alling</w>
s son</w>
st one</w>
ad d</w>
di tions</w>
fin ish</w>
mar y</w>
Tig ers</w>
D igital</w>
V ol
e x</w>
an sw
er o
er ous</w>
on stra
res olution</w>
pit cher</w>
bud get</w>
I l
st le</w>
al ty</w>
tra ders</w>
Mo tors</w>
elec ted</w>
Fi ve</w>
Fallu ja</w>
Premi er</w>
R ead
c able</w>
h man</w>
ec tive</w>
le ts</w>
wor k
pl ead
De b
Ex press</w>
loo ked</w>
AL L
Invest ors</w>
victi ms</w>
Die go</w>
Tennes see</w>
e th
w ic
in th</w>
oc racy</w>
exp an
repor tedly</w>
bom bs</w>
sw it
lab or</w>
C al
T ake</w>
s cienti
w is</w>
ro b
min isters</w>
Ma y
NAS CAR</w>
Pac ers</w>
quali fying</w>
Banglades h</w>
O s
la bor
ar ies</w>
pl es</w>
fi ling</w>
sel ves</w>
ili ar</w>
open er</w>
Sy ria</w>
tele phone</w>
sum mit</w>
Philipp ines</w>
W el
f ts</w>
t um
te sting</w>
or ies</w>
on ey</w>
st anding</w>
ig n
si xth</w>
dri ver</w>
Associ ates</w>
champi ons</w>
stand ard</w>
Sm ith</w>
Jav a</w>
6 00</w>
I I</w>
el a</w>
im age</w>
bo ys</w>
tr an
quar ters</w>
tin y</w>
BE R</w>
Egy p
Corpor ation</w>
v ulner
ing ly</w>
off ense</w>
spec ies</w>
vie ws</w>
num bers</w>
AB U
Execu tive</w>
G ri
P ed
in side</w>
war ming</w>
Satur n</w>
Nor tel</w>
level s</w>
centur y</w>
seven th</w>
B ears</w>
e igh
r al
an im
an ge</w>
at ab
tw ice</w>
ci ties</w>
Bo b
fla t</w>
Tro phy</w>
Atlan tic</w>
Bec k
C ould</w>
D E
M al
S M
c rew</w>
f ect</w>
y ond</w>
or t</w>
per son</w>
Mar tha</w>
pol ls</w>
Con tin
vo ted</w>
chec k</w>
prepa red</w>
E y
M org
g rew</w>
w n</w>
en ces</w>
ec ting</w>
ex change</w>
Ph illi
law i</w>
tenn is</w>
A A</w>
C R
D am
E r
M ul
T en
Z i
om munications</w>
el ds</w>
ag ent</w>
threa ts</w>
na tive</w>
Ric hard</w>
3 G</w>
R av
ch ea
res p
ab ilities</w>
Fi eld</w>
C ase</w>
E v
J or
K illed</w>
g ic</w>
m us
ar eas</w>
St u
Al lawi</w>
Po st</w>
Be fore</w>
men tal</w>
scre en</w>
discus s</w>
b ol
qu ick
Ch il
An ti</w>
prov ince</w>
beg ins</w>
alleg ations</w>
exper i
E ri
W atch</w>
in come</w>
re pla
pa r</w>
Com mit
consid ering</w>
Lead er</w>
W ales</w>
e sts</w>
f astest</w>
th in
ex ports</w>
sc ore</w>
fam iliar</w>
val ue</w>
Red skins</w>
plat form</w>
watch dog</w>
b lue</w>
g ged</w>
be coming</w>
ar rest</w>
us er</w>
pa tent</w>
ho tel</w>
jo ined</w>
Min istry</w>
comm on</w>
Tw ins</w>
Hol dings</w>
stud ents</w>
adv anced</w>
benef its</w>
them selves</w>
expan sion</w>
B rea
S A</w>
S la
on ing</w>
sp ea
id11 1
tur ning</w>
fin ished</w>
batt led</w>
clim ate</w>
Stor m</w>
K re
b ru
n inth</w>
id8 1
id6 1
star s</w>
Br on
up set</w>
car s</w>
Ste el
upgra de</w>
signific ant</w>
Morg an</w>
7 00</w>
C C</w>
H at</w>
k ins</w>
or din
st ory</w>
st yle</w>
as sets</w>
In te
se x</w>
wor d</w>
id7 1
ci pa
Indi ana</w>
def ensive</w>
Fal ls</w>
IT Y</w>
defea ted</w>
i er</w>
in stead</w>
te c
ea sed</w>
re view</w>
li min
ad vis
id2 1
Com mer
air port</w>
rup tion</w>
cop y
Shi ite</w>
commun ity</w>
Val ley</w>
seem s</w>
curren cy</w>
Commit tee</w>
B I</w>
B ul
b ings</w>
e uro
te book</w>
lo s</w>
id3 1
dis play</w>
row ing</w>
Se en</w>
cla ss</w>
Sec ond</w>
tic ally</w>
Cu ba</w>
Char les</w>
comple ted</w>
wit nesses</w>
Beck ham</w>
K ing</w>
k i</w>
re z</w>
re new
ic op
id9 1
id4 1
resid ents</w>
Mar ch</w>
sc oring</w>
atte red</w>
sem i
mission er</w>
M ass
S en</w>
f ran
g us
n ames</w>
op portun
sl ide</w>
cru cial</w>
shar p</w>
SP ACE</w>
Play er</w>
he im</w>
crimin al</w>
opti mis
Argen tin
G ates</w>
L oo
P lu
g en</w>
en richment</w>
id9 2
id3 2
fo ot</w>
AT O
dem onstra
regu lar</w>
SP 2</w>
crow d</w>
G am
re pea
id5 1
ud e</w>
pre v
Wi th
Sch illing</w>
Ham m</w>
Ken ne
O L
en ty</w>
ow ed</w>
tion ed</w>
iz e</w>
az ine</w>
hom er</w>
stro ke</w>
B att
I J
N Y</w>
T elec
b ran
j us
l ity</w>
m ig
p ull</w>
be l
of ten</w>
ma tic</w>
id11 2
Au stri
clo sing</w>
Ro yal</w>
Ph one</w>
direc t</w>
anti trust</w>
chall eng
Fun d</w>
recor ds</w>
Zimbab we</w>
A W
y on
ar gu
ic on</w>
ex tra</w>
for med</w>
id8 2
id4 2
do ing</w>
prof es
fa ir</w>
der ing</w>
bla ck</w>
Pow er
tom orrow</w>
success ful</w>
ALE M</w>
H it</w>
n ar
u ral</w>
ro ll</w>
tra ct</w>
An dy</w>
ef f</w>
car ds</w>
Lin es</w>
hal t</w>
form at</w>
Gol f</w>
Niger ian</w>
Tit an</w>
previ ously</w>
Hus se
decla red</w>
D ow
K ill</w>
f aster</w>
z a</w>
al lows</w>
id5 2
id10 1
and a</w>
pea ce
ach ing</w>
no thing</w>
Ham id</w>
schedu le</w>
Nu clear</w>
Martin ez</w>
A lan</w>
L ong</w>
P in
T icker</w>
h urricane</w>
i x</w>
ra p
as h</w>
Re ports</w>
id2 2
id10 2
Pro be</w>
ban king</w>
fa il
gg ing</w>
ant age</w>
crea ted</w>
Tur k
promis ed</w>
real ly</w>
pack age</w>
Ped ro</w>
H e
J ER
P ur
s cience</w>
de lay</w>
se v
id7 2
str ing</w>
bo dies</w>
coun ter
bea n</w>
Bar ry</w>
retail ers</w>
inf lu
lic en
bloo d</w>
Rav ens</w>
C ricket</w>
M un
T ali
g one</w>
r ine</w>
on ships</w>
id1 2
res ume</w>
du al</w>
sc ape</w>
inclu de</w>
Associ ated</w>
Si x</w>
Play ers</w>
Star t</w>
C assin
F I
M em
u ally</w>
ma ter
ie fs</w>
atur e</w>
Col ts</w>
16 0</w>
Sa tellite</w>
Di rec
manufac turing</w>
Chr is</w>
Tali ban</w>
op tions</w>
dis ease</w>
elec tronic</w>
sco res</w>
Ath le
awa ited</w>
Pr ince</w>
JER US
Cassin i</w>
C lin
V is
W rap</w>
d af
l us
p ro</w>
r ong</w>
th anks</w>
ti le</w>
lo y
Mic ro</w>
Con go</w>
nor th
ey es</w>
eigh th</w>
H as</w>
ac ity</w>
ir o</w>
oun d
Ne xt</w>
id6 2
cla sh</w>
stri kes</w>
Ro oney</w>
br inging</w>
mi xed</w>
pri ority</w>
emer gency</w>
Milit ants</w>
Att ack</w>
A D</w>
C lem
D s</w>
J e
J eff</w>
K ev
O per
P helps</w>
T om
ra ted</w>
ch e
ow ned</w>
Fr ances</w>
exp ect</w>
hol ds</w>
We b
US ATO
retur ns</w>
Vo daf
Chi p</w>
docum ents</w>
USATO DAY</w>
S el
b ought</w>
j ay</w>
v an</w>
w atch</w>
er ation</w>
li t</w>
du l
Con tro
up da
den ied</w>
trea tment</w>
diff ic
Econ om
Lank a</w>
cipa ted</w>
JERUS ALEM</w>
Vodaf one</w>
A G</w>
A lex</w>
B ay
b in</w>
f ig
j ud
re mo
as sist
tra in</w>
dea ls</w>
sou ght</w>
Elec tronics</w>
streng th</w>
quick ly</w>
H or
T akes</w>
c ents</w>
y sl
el ed</w>
ri ed</w>
sh ut</w>
cra shed</w>
custom er</w>
exten d</w>
Kev in</w>
S ain
e back</w>
s ear
la ce</w>
con ditions</w>
ve red</w>
ali z
Ex ten
sid es</w>
Le wis</w>
forec asts</w>
Organiz ation</w>
E uro</w>
H i
N av
P T</w>
p re</w>
in ts</w>
te c</w>
ou th</w>
st un
su ed</w>
Bu il
Eng ine</w>
Sw iss</w>
recei ver</w>
pe er</w>
mat ter</w>
appro ach</w>
Citi group</w>
traff ic</w>
Husse in</w>
A id</w>
F OR
R ally</w>
g oods</w>
l en</w>
ar ti
al ties</w>
ra ises</w>
du p</w>
ca stle</w>
To day</w>
wea k</w>
BE IJ
Dea th</w>
Sus p
Motor ola</w>
Argentin a</w>
BEIJ ING</w>
C ou
L ow</w>
b bed</w>
r are</w>
t an
in ers</w>
ti gh
al ist</w>
om er
ex c
ste ad
Car los</w>
cou ra
prepar ing</w>
A V
C ell</w>
Z ar
b ble</w>
con ten
im pl
St ore</w>
An a
og ra
Sp ec
indu strial</w>
Syste m</w>
activ ity</w>
appa rently</w>
Lad en</w>
f ru
m ass</w>
n am</w>
Th ird</w>
su es</w>
di os</w>
sp yware</w>
co alition</w>
Li ons</w>
Pla y</w>
Pac kers</w>
jum ped</w>
Update 1</w>
believ ed</w>
Steel ers</w>
Turk ish</w>
C li
M it
M iller</w>
s low
qu iry</w>
An d
star ts</w>
inter view</w>
tech n
hand held</w>
Big ley</w>
J agu
S H
a tic</w>
m ic
z er
en tered</w>
ti s
Su p
dec ide</w>
Tro ops</w>
candid ates</w>
Scot land</w>
CN N</w>
maj ority</w>
atab ase</w>
B ran
C ro
G o</w>
J acqu
W enger</w>
a k</w>
d ang
e Bay</w>
h o</w>
t ton</w>
in j
con s
ad ding</w>
Au burn</w>
Ro bert</w>
dem ocracy</w>
up coming</w>
manag ers</w>
US A</w>
contro l
ey e</w>
doc tors</w>
Ana heim</w>
C ur
S l
Re bels</w>
wor ks</w>
app ear</w>
employ ment</w>
cer tain
believ es</w>
D ist
i b
n ov
w on
en a</w>
es is</w>
oo d
amp a</w>
ret t</w>
mode l</w>
C ITY</w>
M el
P enn
a stronau
an ci
be gun</w>
al though</w>
An aly
hel icop
fac ed</w>
dra ft</w>
aim s</w>
alleg edly</w>
R and
p ick</w>
er ce</w>
at us</w>
si ves</w>
sh el
ad mitted</w>
le y
ris es</w>
wa ve</w>
car rying</w>
Sch ool</w>
exper im
Cra ig</w>
Venezu ela</w>
T ampa</w>
s ex
te en
ti ces</w>
it zer</w>
ab use</w>
fin e</w>
Jo e</w>
14 6</w>
New castle</w>
promis e</w>
Chr ysl
Quar ter</w>
independ ent</w>
dev ast
J ew
S ir</w>
n i</w>
n t</w>
t ner</w>
at ory</w>
si sts</w>
ta pe</w>
se eded</w>
inc in
des ign</w>
Ad ministration</w>
Chrysl er</w>
8 00</w>
E D</w>
P ay</w>
d ig
j an</w>
al ways</w>
qu it</w>
co l</w>
co ast</w>
Mon trea
pu ts</w>
sel y</w>
pi racy</w>
regi onal</w>
gr and</w>
reti rement</w>
Devel op
C incin
P ist
k el
es cap
ow l
ad ed</w>
se ed</w>
over time</w>
ev en
wi fe</w>
part nership</w>
Shi p
process ors</w>
Premi ership</w>
nat i</w>
Malaysi a</w>
orig in
Montrea l</w>
Cincin nati</w>
I ran
J az
c ation</w>
c over</w>
ou ts</w>
am mers</w>
In fo
canc er</w>
shoo ting</w>
prison ers</w>
Ky o
L A</w>
p es</w>
on e
st y</w>
de ep</w>
im in
pu tting</w>
rac ing</w>
sc en
est ab
vo ice</w>
with draw</w>
mov ies</w>
sm aller</w>
hear ing</w>
fre ed</w>
Stri ke</w>
invol ved</w>
specu lation</w>
Zi ff</w>
J our
K mart</w>
m al
r y
r d</w>
en ter</w>
ri ve</w>
ex tre
rea son</w>
to col</w>
inclu des</w>
Ag ain</w>
uni ons</w>
Pist ons</w>
H ockey</w>
M o</w>
P A</w>
P ro</w>
R ap
st op
op ens</w>
sa tion</w>
ed ing</w>
vo tes</w>
bro ken</w>
Un der</w>
enter tainment</w>
requ est</w>
H all</w>
S im
l en
m and
la ws</w>
re duc
ou d</w>
sp end</w>
esti mates</w>
Fo rec
anti cipated</w>
adv antage</w>
vil la
fav or
emb assy</w>
immedi ately</w>
remo te</w>
A do
B UR
S even</w>
op tion</w>
bu ys</w>
arg o</w>
terr it
adv ance</w>
pit ch</w>
organiz ation</w>
Egyp tian</w>
D on</w>
Y our</w>
e ful</w>
s al
ti ght</w>
Re public</w>
pu ty</w>
cap acity</w>
No bel</w>
investig ating</w>
gol f</w>
sugg es
withdraw al</w>
Ado be</w>
D ra
c ircu
el imin
li ving</w>
ma ted</w>
pl un
bo y</w>
Le g
vers ary</w>
tiv ity</w>
push ed</w>
Laun ches</w>
mach ines</w>
usi ve</w>
D un
J an</w>
S ay</w>
g row</w>
in divid
ar chi
oun dup</w>
de ploy
sur ged</w>
mu tual</w>
deli ver</w>
trou ble</w>
veter an</w>
I E</w>
O M
S ears</w>
U E
k er
ac u
ex por
oc cu
Su pp
Ma ke</w>
develop er</w>
Gu ard</w>
sing ly</w>
stitu te</w>
activ ities</w>
Laun ch</w>
B ol
E m
s it
head s</w>
el led</w>
un beaten</w>
ri ves</w>
op e</w>
ing ham</w>
ser ve</w>
Se tt
def ending</w>
brea k
cri mes</w>
shor t
stand ards</w>
hard ware</w>
arm ace
Targ et</w>
Il lin
B illion</w>
B AL
E ls</w>
M our
W ay
g as
g ate</w>
i ev
w l</w>
si mi
lea ves</w>
ke y
ten ed</w>
par ties</w>
overn ight</w>
Su per</w>
fo re
Ko be</w>
vers al</w>
Ed wards</w>
mat ches</w>
My an
MP 3</w>
aw i</w>
Dro p</w>
L C</w>
s mo
en h
om ing</w>
ta tive</w>
de stro
fin ding</w>
ain ing</w>
ass i</w>
do m</w>
sk y</w>
Fin al</w>
terror ists</w>
Hel p</w>
Pho to</w>
visi ons</w>
B ir
F CC</w>
K ab
K ABU
g la
g gle</w>
p ical</w>
r ang
ic a</w>
il ton</w>
ra id</w>
ra dic
lea gu
ni versary</w>
dec lined</w>
cri ption</w>
rema ining</w>
Dea d</w>
wr ong</w>
Econ omic</w>
spe ech</w>
vehic le</w>
shut tle</w>
Leban on</w>
ral lied</w>
Jew ish</w>
Myan mar</w>
C E</w>
C lim
L enn
M r</w>
P R
R ac
w asn</w>
lin k</w>
il ian</w>
Th ousands</w>
res er
ab and
ON G</w>
Car ter</w>
Mi lan</w>
plan et</w>
atten tion</w>
Rea l
Wom en</w>
B last</w>
U M
f ly</w>
m ist
r is</w>
be yond</w>
on d
res igned</w>
im ages</w>
im proved</w>
fin ds</w>
bo t
ie ty</w>
offic ers</w>
Indi an
Le e</w>
cam era</w>
At torney</w>
Be g
Shar ap
respon se</w>
mag azine</w>
rush ed</w>
enc ies</w>
apol is</w>
limin ary</w>
renew ed</w>
KABU L</w>
F DA</w>
G ary</w>
K e
S eeks</w>
b less</w>
us ion</w>
wh ite</w>
mon d</w>
min ent</w>
acc ept</w>
sea s</w>
pre mi
acqu ired</w>
Char t</w>
web site</w>
Way ne</w>
C av
M ount</w>
N ic
P eople</w>
R en
d ow</w>
e c</w>
k ind</w>
v owed</w>
re comm
re struc
st re
ur y</w>
con tribu
po ses</w>
Sp ace
br and</w>
sid e
increa singly</w>
Hal f</w>
Acc ording</w>
Lar ry</w>
Jacqu es</w>
Indian apolis</w>
Sharap ova</w>
J r</w>
P il
U T
f alls</w>
m ys
st ret
li p</w>
to m</w>
Ne ts</w>
ann y</w>
St an
str onom
dea ths</w>
bom bings</w>
Bar cel
Ag assi</w>
continu ing</w>
sem i</w>
unve ils</w>
lif ted</w>
quali fi
gre en</w>
happ y</w>
Jack son</w>
stad ium</w>
C ow
J ean
S Y
ri er</w>
of i</w>
con ver
ad ds</w>
our ces</w>
over ing</w>
Sh ell</w>
lead ership</w>
ef ly</w>
eff ect</w>
Soc cer</w>
Chech en</w>
earthqu ake</w>
G il
p are</w>
p atch</w>
s a</w>
lin ger</w>
ru s</w>
Com mun
tr ig
do zens</w>
pri ze</w>
part ner</w>
ili ans</w>
threaten ing</w>
separ ate</w>
telec ommunications</w>
OT T
tack le</w>
Jean ne</w>
A U
F ol
P ad
Y oung</w>
al lowing</w>
ra ther</w>
In de
con struction</w>
co g
wor m</w>
offici ally</w>
direc tors</w>
stron ger</w>
Bri an</w>
Den ver</w>
Vie t
Manag ement</w>
fail ure</w>
D rea
H ass
J en
M akes</w>
an tly</w>
sh ots</w>
ex tra
ex pl
ci ti
tu s</w>
bus ter</w>
sch e</w>
claim ing</w>
Ter ror</w>
suppor ters</w>
senten ced</w>
roo kie</w>
L im
b ar</w>
m et
oc i
ul es</w>
gu ar
att acked</w>
Sp itzer</w>
ish er</w>
sol id</w>
boo sted</w>
Mc N
bor n</w>
Sy man
Ha ve</w>
appea ls</w>
cou p</w>
Wal t</w>
Te h
nation wide</w>
Gor don</w>
Jor dan</w>
Iran ian</w>
I t
L IN
R um
e ze</w>
th o
la ted</w>
re ven
re form</w>
en coura
al liance</w>
ta r</w>
sur ance</w>
Mar iners</w>
dis aster</w>
Au thor
hea t</w>
wa ke</w>
ach er</w>
read ing</w>
increa sing</w>
Ag re
analy st</w>
Cap ital</w>
doub t</w>
E mb
L en
S in
p ot</w>
la h</w>
re qui
lin gs</w>
ch a
su s</w>
su red</w>
sp on
pa rent</w>
ev ening</w>
da k</w>
ass assin
cap tured</w>
do or</w>
Ko dak</w>
US S
Vi jay</w>
jur ies</w>
viol ent</w>
intro duc
super computer</w>
Offic ials</w>
Barcel ona</w>
Syman tec</w>
A Z
A U</w>
C lo
P ack</w>
S ign</w>
l es
re vi
op pers</w>
com eback</w>
ex pla
Mon ey</w>
rac es</w>
car ry</w>
bur g</w>
tem por
exten sion</w>
Vo IP</w>
mea ns</w>
Braz ilian</w>
wid ely</w>
cho ice</w>
Zar q
M au
S on
S ING
k o
u n</w>
us ual</w>
po ised</w>
se ized</w>
tra ditional</w>
def en
def ence</w>
laun ching</w>
bom ber</w>
bur ton</w>
Gen esis</w>
twor king</w>
Lon gh
inf ring
compe te</w>
Brow ns</w>
proper ty</w>
B ER
b ian</w>
f oo
y land</w>
an is
id ers</w>
en try</w>
res ig
po sts</w>
se t
mar ks</w>
repor ting</w>
For bes</w>
susp ects</w>
fea ture</w>
Hal o</w>
squ e</w>
nat ural</w>
Quar ter
fran ch
Viet nam</w>
Teh ran</w>
B eat</w>
P fi
R on</w>
a ward</w>
b oun
f it</w>
f ear</w>
ig ners</w>
qu o
im pres
ver se</w>
ste m</w>
ass oci
NE Y</w>
Ste ph
Un ve
Cla ims</w>
CA A</w>
Enter tainment</w>
reb ounds</w>
Commer ce</w>
simi lar</w>
Zarq awi</w>
C all</w>
N O
ar k</w>
it z</w>
ro ck</w>
ta ined</w>
Au to</w>
comm ents</w>
increa ses</w>
ck y</w>
pers on
vehic les</w>
disappoin ting</w>
solu tion</w>
Thom as</w>
cau ght</w>
D EL
I M</w>
g ian</w>
r ide</w>
te sti
it able</w>
em e</w>
sh oc
ab duc
sea t</w>
Ar ctic</w>
Jo b</w>
vis ed</w>
ck buster</w>
Per vez</w>
dri ves</w>
Sw it
Sea son</w>
chil d</w>
provid ers</w>
prosecu tors</w>
Sal v
Pfi zer</w>
C rea
G E</w>
N CAA</w>
P ic
R w
S ant
W OR
b ling</w>
h ood</w>
re cog
ra tings</w>
un less</w>
sa fe</w>
over all</w>
ren ts</w>
exp ressed</w>
ali zed</w>
tech nologies</w>
Sol di
copy right</w>
th rough
ra c</w>
un likely</w>
ha ul</w>
pro ves</w>
ear ance</w>
St rong</w>
shi ft</w>
Is land</w>
end ly</w>
prote c
Hal li
Democra ts</w>
Tri al</w>
driv en</w>
vend ors</w>
separ ati
sit uation</w>
Kab ul</w>
B L
E l</w>
G reat</w>
d rin
d atabase</w>
th ly</w>
al ter
il ly</w>
li ves</w>
ha wks</w>
Re v
le t
acc ine</w>
part ners</w>
ce re
Tit ans</w>
tow ards</w>
Chall enge</w>
Econom y</w>
SING AP
Halli burton</w>
B BC</w>
G E
G ro
u gh
w av
igh ting</w>
ad ing</w>
rea ching</w>
per fect</w>
gi ants</w>
For ces</w>
eng ers</w>
chan ces</w>
Un it</w>
pass enger</w>
consid ered</w>
pic ked</w>
Chi rac</w>
line up</w>
foun der</w>
Kyo to</w>
K el
b ya</w>
e u
l un
l out</w>
Th ai</w>
tra ded</w>
Lead s</w>
Sco tt</w>
Roc kets</w>
Enter prise</w>
Info World</w>
restruc turing</w>
SINGAP ORE</w>
C I</w>
D C</w>
E qu
a ult</w>
en jo
es sions</w>
Re ti
ex am
Wor kers</w>
au to</w>
wa iting</w>
govern ments</w>
ran king</w>
driv ing</w>
Bob by</w>
G H
M ess
b il
b anned</w>
o is</w>
w all</w>
in son</w>
an niversary</w>
er up
as ks</w>
su le</w>
tra vel
Fr ank</w>
ev ents</w>
cu s</w>
enti re</w>
coun ter</w>
Indi ans</w>
leg ally</w>
Lead ers</w>
emer ged</w>
inde x</w>
vend or</w>
Plu s</w>
prev ent</w>
diffic ult</w>
A pri
C lar
F ound</w>
J ak
z es</w>
la ck</w>
li qu
si er</w>
con dem
Ch ile</w>
announ ces</w>
win ds</w>
et ts</w>
Li bya</w>
sig ning</w>
kee ps</w>
Hen man</w>
son gs</w>
Ship One</w>
Apri l</w>
C oc
K ofi</w>
c ann
c atch</w>
ag encies</w>
ed ges</w>
elec tric
To y
lan gu
Ho stage</w>
cop e</w>
Tenn is</w>
add ress</w>
gir l</w>
M any</w>
l is
in quiry</w>
ea son</w>
lo ve</w>
sh ock</w>
ap ers</w>
ma y
le g</w>
du m</w>
pre liminary</w>
fa iling</w>
dro ve</w>
brea ks</w>
domin ated</w>
invol ving</w>
post season</w>
Tran s
Kid napp
Illin ois</w>
stre ets</w>
B lu
L a</w>
b ound</w>
h itting</w>
m al</w>
t un
t ren
be ll</w>
st reet</w>
sh oul
por table</w>
wor ker</w>
ten ing</w>
sea sons</w>
au th
dra matic</w>
Off er</w>
crea ting</w>
bla sts</w>
Pl c</w>
conf ident</w>
figh ters</w>
Colom bia</w>
mic ro
UE FA</w>
Space ShipOne</w>
A C</w>
N T
R ol
S ite</w>
V I
b arg
p le
on going</w>
us etts</w>
lo ts</w>
ag gres
the red</w>
illi on
ul a</w>
Pro gra
ach usetts</w>
fl ying</w>
plo t</w>
sou th
Spa m</w>
Por t
Mass achusetts</w>
techn ical</w>
B et
F am
W ol
W est
i ously</w>
o d
ch em
ha ps</w>
con v
con serv
shi pping</w>
sc ale</w>
announ cing</w>
AT T
sub st
Qa ida</w>
Ty phoon</w>
ref used</w>
Nep al</w>
3 50</w>
D U
S k
U sers</w>
c ul
i z</w>
s un
te sted</w>
ea ses</w>
er as</w>
res um
de lays</w>
ste ro
dis rup
Se rena</w>
do zen</w>
sk i
mea sures</w>
heav y
Da ily</w>
Adv anced</w>
Jer sey</w>
refug ee</w>
n on
p lea
z y</w>
th r
am ount</w>
sh ing</w>
ma d</w>
por ting</w>
dis missed</w>
coun ting</w>
fe es</w>
cla shes</w>
bro ker</w>
Pu b
Ed ge</w>
mess ages</w>
contrac ts</w>
manufactu rer</w>
scho ols</w>
inj uring</w>
A head</w>
C S
M ach
W S</w>
c king</w>
f eld</w>
er c
li est</w>
li mi
pro spec
Sp e
gra de</w>
Al ital
win d</w>
law yers</w>
sour cing</w>
Off ers</w>
new ly</w>
ent ary</w>
Ann oun
civ ilians</w>
critic ism</w>
ins isted</w>
SY D
Jak ar
Alital ia</w>
G B</w>
H ead
a a</w>
g ely</w>
n d</w>
te ll</w>
re k</w>
st atus</w>
lo ck</w>
qu ite</w>
ta da</w>
Bo b</w>
br idge</w>
Car ib
so lar</w>
Gol d
Treasur ies</w>
mach ine</w>
Sum mary</w>
convic ted</w>
Cow boys</w>
Toy ota</w>
limi ted</w>
Jakar ta</w>
R eds</w>
n an
th riti
ad a</w>
mar athon</w>
ris on</w>
lar ly</w>
pres ent</w>
hol y</w>
manag ed</w>
broad cast</w>
purch as
Saf e
subsid i
opportun ity</w>
SYD NEY</w>
Carib bean</w>
A vi
G ood</w>
H eat</w>
M C</w>
M AN
f an</w>
h ill</w>
w ing</w>
ag on</w>
ten ts</w>
ain e</w>
fi re
ali ve</w>
fa ther</w>
ide a</w>
Ara bia</w>
rela tions</w>
identi fied</w>
grea ter</w>
Colum bia</w>
3 Q</w>
H ear
R F
V a</w>
d i</w>
g ran
k ick</w>
ac tions</w>
con stitu
tor n</w>
An ton
Sun ni</w>
Mo ve</w>
app ing</w>
fla sh</w>
vers y</w>
Mc Lenn
Vi ol
feren dum</w>
cel ls</w>
War ns</w>
possi bly</w>
accoun t</w>
Fer gus
pati ents</w>
McLenn an</w>
C riti
H D</w>
J ays</w>
S cience</w>
c ked</w>
f er
h ockey</w>
te ls</w>
re fl
st ations</w>
ol es</w>
li br
po sing</w>
lea ns</w>
fin ed</w>
est ing</w>
play offs</w>
14 8</w>
Hol linger</w>
Fir m</w>
Del hi</w>
Ta x</w>
every thing</w>
rescu e</w>
thriti s</w>
E SP
d y
g a</w>
p act</w>
w ra
al o
ta ining</w>
con t
rec all</w>
Bus ch</w>
Al i</w>
Vi kings</w>
EL S</w>
explo sives</w>
Coun ty</w>
competi tive</w>
commit tee</w>
swee p</w>
connec tion</w>
Kn icks</w>
collap se</w>
Batt le</w>
B ell</w>
E ven</w>
N ap
S qu
U K
h ear</w>
at cher</w>
li e</w>
Ch iefs</w>
ke t
pa in
pa ying</w>
Mar lins</w>
row s</w>
Ma il</w>
bea ts</w>
sel ls</w>
develop ers</w>
promis es</w>
squ ad</w>
mess aging</w>
Ly n
mom ent</w>
Stand ard</w>
fig ure</w>
B ud
D NA</w>
S lo
W on</w>
m med</w>
p age</w>
s ca
in fra
st al</w>
com mission</w>
em ail</w>
ru m
Ne ther
mo del
tur n
sur r
ei ther</w>
conc lu
cor ruption</w>
Sch um
Ear ly</w>
Fo rest</w>
recei ve</w>
mid dle</w>
Musli ms</w>
val u
Mac Central</w>
push ing</w>
rush ing</w>
resol ve</w>
Mau res
Pub lic</w>
B all
I ON
L ook</w>
a ud
b id
g ly</w>
g ained</w>
m its</w>
en ko</w>
Th rea
sec urities</w>
sec ret</w>
Mar yland</w>
shi p
Su b
10 1</w>
10 2</w>
ep tion</w>
pass engers</w>
pit ched</w>
HO US
bot tom</w>
franch ise</w>
Nether lands</w>
Maures mo</w>
M ON
P lan
m el
y ad</w>
su d
prov ided</w>
hol es</w>
so aring</w>
hear d</w>
pe line</w>
appoin ted</w>
rol led</w>
subscri bers</w>
radic al</w>
Fergus on</w>
E A</w>
f ar
ti ed</w>
ar ian</w>
st ands</w>
de plo
Con f
stru ggle</w>
we igh
bar ra
Lab our</w>
inst ant</w>
fri endly</w>
legis lation</w>
Austri a</w>
through out</w>
A z
B OS
L D</w>
in ation</w>
in spec
en ab
ti s</w>
al ert</w>
sp read</w>
war ded</w>
jo ining</w>
relea ses</w>
10 6</w>
Air port</w>
Fi elds</w>
Pol l</w>
dou bled</w>
fam ous</w>
prac tices</w>
BR USS
Nav y</w>
S ar
V IL
h urricanes</w>
k down</w>
l ig
la tions</w>
be ta</w>
un its</w>
ov o</w>
ta xes</w>
Ch en
dis closed</w>
De ut
tu m</w>
ess or</w>
Ex per
Ma h
olog y</w>
no tebook</w>
law yer</w>
big ger</w>
Pol iti
Pe ter</w>
carri ed</w>
commun ications</w>
dispu ted</w>
Offic ial</w>
hou sing</w>
Charg es</w>
Clem ens</w>
stead y</w>
fru stra
BRUSS ELS</w>
B or
f ought</w>
l ying</w>
in juries</w>
as ion</w>
ad ditional</w>
bo y
Res earchers</w>
agre es</w>
Co Mo</w>
cri me</w>
Do CoMo</w>
journal ists</w>
semi finals</w>
dang erous</w>
Hass an</w>
Coc a</w>
Anton io</w>
1 20</w>
A la
J A
K ey</w>
h it
y u
re y</w>
ow ever</w>
ad em
pl edged</w>
ser ving</w>
jo ins</w>
sk i</w>
Fo x</w>
Or leans</w>
hun t</w>
Cha vez</w>
Longh orn</w>
P ast</w>
T R
s le
el and</w>
at omic</w>
ear n</w>
se qu
ste pped</w>
bo di
tri um
Bu ff
air e</w>
air lines</w>
AT A</w>
Fl ight</w>
Di am
Hea d</w>
intro duce</w>
Cam pa
suff ering</w>
Mat t</w>
appa rent</w>
drea m</w>
lth y</w>
oppon ents</w>
resig nation</w>
1 00
B erry</w>
E dition</w>
F ight</w>
J im</w>
b acking</w>
l ds</w>
si zed</w>
su l</w>
su st
bu y
rec ru
An th
Sh ow</w>
Mo sul</w>
10 3</w>
cas es</w>
del eg
spo t
sem iconductor</w>
identi ty</w>
predic ted</w>
fee l</w>
Jour nal</w>
stop ped</w>
E li
W TO</w>
c ool</w>
e um</w>
l ights</w>
si e
pro duced</w>
In surg
Ch ris
comp en
Con nec
Mo tion</w>
clo sely</w>
fac t</w>
high ly</w>
La w</w>
chi p
fla w</w>
Israel is</w>
sk a</w>
vir uses</w>
Bas ketball</w>
wat ched</w>
Mis s</w>
suspen sion</w>
Update 2</w>
cli ff
fel low</w>
improv ing</w>
mn as
descri bed</w>
C ri
D o</w>
S AP</w>
e on</w>
in ch</w>
er ings</w>
ou l</w>
Wor k</w>
Comp anies</w>
Cam bodi
clim bed</w>
any thing</w>
seem ed</w>
benef it</w>
Swed en</w>
Athle tics</w>
Emb assy</w>
K im</w>
R oo
c ling</w>
f ing
q tada</w>
s ight</w>
u res</w>
ti fied</w>
ou gh
il le</w>
ha i</w>
em ens</w>
De vices</w>
SP OR
ank le</w>
Go v</w>
wri tes</w>
Kaz aa</w>
recog ni
Deut sche</w>
3 rd</w>
B ills</w>
E ver
K en</w>
c ross</w>
f li
s mart</w>
v y</w>
v ide
be y</w>
al lies</w>
il ies</w>
Th an</w>
bu st</w>
ste el</w>
200 7</w>
exp anding</w>
au gu
pre pare</w>
Col a</w>
14 7</w>
US C</w>
ck out</w>
Har ry</w>
Sea hawks</w>
Si emens</w>
deli vered</w>
Net scape</w>
Fla t</w>
Rap tors</w>
C alls</w>
F 1</w>
F av
M ass</w>
S ky
T en</w>
e ling</w>
la ting</w>
ur ges</w>
mo han</w>
fi x</w>
200 8</w>
min d</w>
vis iting</w>
Se a</w>
10 4</w>
14 0</w>
law makers</w>
Ra ises</w>
land mark</w>
rej ects</w>
success fully</w>
clea red</w>
qualifi er</w>
cere mony</w>
model s</w>
HOUS TON</w>
1 st</w>
B ru
D omin
H I</w>
R ules</w>
a ren</w>
b ids</w>
c ia</w>
k h
p se</w>
t z</w>
w er</w>
lin ks</w>
pro duce</w>
In surance</w>
Re g
con ven
offic es</w>
enti ment</w>
NE C</w>
stri es</w>
Wh o</w>
na p</w>
stron gh
Phili ps</w>
responsi ble</w>
Os ama</w>
AW A</w>
A R</w>
B an
D R
F en
H ere</w>
N A
k new</w>
s sing</w>
te mp
th row</w>
ic ious</w>
ec k</w>
qu ality</w>
ta ins</w>
por ted</w>
Ch ang
sec retary</w>
Par t
show down</w>
fea red</w>
Cel tic</w>
sugg ests</w>
prec ed
Clin ton</w>
And re</w>
Schum acher</w>
C z
C ard</w>
F res
F oods</w>
O K
P ent
m anned</w>
n ic</w>
r ush</w>
ing ton</w>
pl ants</w>
pl us</w>
gu err
mar ine</w>
app earance</w>
Po int</w>
Sy d
Ham ilton</w>
susp ect</w>
foc used</w>
Tel e
potenti ally</w>
loc ked</w>
rel ig
plead ed</w>
Pent agon</w>
C our
D oc
F ace</w>
L akers</w>
O ri
R af
R ace</w>
S S</w>
d oping</w>
o line</w>
head quarters</w>
sa v
qu est</w>
ph ys
ca using</w>
og s</w>
Man mohan</w>
Am id</w>
Hel ens</w>
parti cip
OTT AWA</w>
LIN E</w>
infra structure</w>
Syd ney</w>
A ussi
B es
E is
F ile</w>
J ack</w>
S tern</w>
W ay</w>
W is
c a</w>
g er
i ally</w>
n omin
in d
ag ents</w>
ne tworking</w>
sa d
sh o
ear ned</w>
Ch ase</w>
Uni versal</w>
da ily</w>
pol e</w>
hi ke</w>
Ra iders</w>
accoun ts</w>
The ir</w>
wal k</w>
sli pped</w>
inven tories</w>
Hon da</w>
Reta il</w>
Hum an</w>
challeng es</w>
helicop ter</w>
heavy weight</w>
ESP N</w>
cliff e</w>
Eis ner</w>
C lose</w>
c old</w>
l v
fin ancing</w>
exp anded</w>
Mo on</w>
med als</w>
Gu ine
Elec tronic</w>
Char ley</w>
reg ar
pic ture</w>
ick y</w>
Gar tner</w>
kidnapp ers</w>
success or</w>
fri ends</w>
IM F</w>
assist ant</w>
cann ot</w>
BOS TON</w>
Chen ey</w>
Guine a</w>
F ire</w>
G as</w>
M L
S U</w>
T ay
W iz
Y u
f ash
l on</w>
ea sier</w>
ac tive</w>
Th atcher</w>
as ide</w>
co tt</w>
um ps</w>
Al ex
me ter</w>
Or land
Milit ary</w>
Ow en</w>
Vic tory</w>
manufactu rers</w>
militi a</w>
ker age</w>
Viol ence</w>
SPOR TS</w>
Orland o</w>
J un
M ut
Z one</w>
f le
an ian</w>
lar gely</w>
Sta ff</w>
cen tre</w>
pow ers</w>
invest or</w>
bla med</w>
Si ri
Play Station</w>
Hen ry</w>
diffe ren
Black Berry</w>
favor ite</w>
Unve ils</w>
DEL HI</w>
VIL LE</w>
B est</w>
B CS</w>
G AZ
J im
L AM
T re
c ies</w>
e era</w>
l n</w>
m ean</w>
m lin</w>
s ound</w>
en port</w>
il legally</w>
lo ckout</w>
oo th</w>
sp lit</w>
ci vil
acc o</w>
Pro tocol</w>
Qu es
10 th</w>
form al</w>
Dav enport</w>
pi ece</w>
Tit le</w>
any one</w>
insurg ent</w>
CR M</w>
Anth ony</w>
C redit</w>
F ans</w>
N early</w>
P ass
a ker</w>
b o</w>
f al
f ford</w>
t ine</w>
th y</w>
ti um</w>
em o
em is
ta tives</w>
ap s</w>
rec ording</w>
ver sions</w>
pa in</w>
pa rents</w>
Con vention</w>
lar ger</w>
amp le</w>
Sp urs</w>
prof ile</w>
AT LAN
posi tions</w>
kee pers</w>
bra wl</w>
Brit on</w>
pass ing</w>
criti ci
criti cs</w>
cou ple</w>
Kee p</w>
Gla zer</w>
Dow n
VI EN
C urt</w>
G h
G ains</w>
S av
T rac
W ants</w>
X box</w>
Y ears</w>
b acco</w>
r oundup</w>
pro jects</w>
wor lds</w>
ist ing</w>
mar g
Sh i</w>
gg ish</w>
cam eras</w>
ja iled</w>
Ab bey</w>
Har mony</w>
Ho sp
hi bi
dist ance</w>
graph ics</w>
neigh b
Read y</w>
Kre mlin</w>
euro s</w>
Forec ast</w>
Steph en</w>
shoul der</w>
illion aire</w>
ATT LE</w>
subsidi ary</w>
Wiz ards</w>
1 30</w>
2 25</w>
C BC</w>
C ircu
V ER</w>
i v
r ill</w>
y i
te way</w>
re ll</w>
el er
com missioner</w>
oo se</w>
por tation</w>
mar ked</w>
En ds</w>
10 8</w>
10 7</w>
esti mated</w>
Dem and</w>
ty pe</w>
downlo ads</w>
The ft</w>
Att acks</w>
Telec om</w>
Supp ly</w>
Siri us</w>
GAZ A</w>
H E
J ean</w>
k out</w>
n y
o ch
ar thritis</w>
it tle</w>
low est</w>
kil ler</w>
br on
10 5</w>
mul ti</w>
AB AD</w>
Philipp ine</w>
sor tium</w>
targe ting</w>
estab l
territ ory</w>
sugges ted</w>
infring ement</w>
2 nd</w>
C abinet</w>
M O
b as</w>
f ate</w>
re forms</w>
re ferendum</w>
ne ts</w>
ad ap
ma p</w>
sp ect</w>
sp rin
resid ential</w>
mis sions</w>
war nings</w>
Bo s
cap sule</w>
Par liament</w>
SE ATTLE</w>
cou ldn</w>
Cel tics</w>
strate gic</w>
fri end</w>
distribu tion</w>
answ er</w>
langu age</w>
RF ID</w>
Ball mer</w>
F ound
G H</w>
H and
M E
S igns</w>
T err
r out</w>
er ies</w>
ri t</w>
In stitute</w>
con dition</w>
sp ring</w>
sur face</w>
sti c</w>
cap able</w>
Wh y</w>
bro ther</w>
col labor
fol low</w>
see m</w>
cel l
possi bility</w>
provid ing</w>
post pon
LAN D</w>
program me</w>
Sem iconductor</w>
Bron cos</w>
stronom ers</w>
B T</w>
B ook</w>
D ead
O b
U l
n a</w>
n it
es cope</w>
lo t
qu ick</w>
con n
rea c
fir ing</w>
ca ted</w>
tro le
Pro v
lar is</w>
Al though</w>
olog ists</w>
pres ence</w>
pres eason</w>
fac tory</w>
fa x</w>
As k</w>
ous ted</w>
Champi onships</w>
hum an
minist ra
bit ter</w>
Bl u</w>
It anium</w>
mnas tics</w>
F err
M ee
S ince</w>
c abinet</w>
g ear</w>
p y</w>
on a
st ood</w>
al one</w>
ch ur
com for
Re turn</w>
off erings</w>
Mar ia</w>
Mar ines</w>
ca p</w>
ber ship</w>
cap ture</w>
ish es</w>
sig n
politi cs</w>
Gar cia</w>
comb at</w>
control led</w>
astronau ts</w>
Insurg ents</w>
bron ze</w>
A ct</w>
B O
B en</w>
E mp
M AR
k ic
re duced</w>
ec tions</w>
ed y</w>
de puty</w>
pla ces</w>
per haps</w>
mon thly</w>
Pro b
tal king</w>
ash ed</w>
So laris</w>
bro ad</w>
inv asion</w>
38 0</w>
retur ning</w>
kn ess</w>
rela tion
supp lier</w>
wat ching</w>
gun men</w>
Hop es</w>
environ ment</w>
fel t</w>
Swed ish</w>
profes sional</w>
ATLAN TA</w>
1 35</w>
P on
T S
b all
g ro
n ight
in augu
an gu
ic ally</w>
ag s</w>
comp on
comp ared</w>
wor ried</w>
mo stly</w>
mo sque</w>
pp i</w>
Mar ga
Ad rian</w>
wr ite</w>
cli ent</w>
UN IT
engine ers</w>
Jam a
Marga ret</w>
E ight</w>
N eal</w>
T C</w>
i res</w>
i Mac</w>
o red</w>
s sed</w>
th am</w>
en sure</w>
st e</w>
ter ies</w>
tion ing</w>
ste in</w>
gi e</w>
Al liance</w>
Al len</w>
ON LINE</w>
14 5</w>
ack n
ai ling</w>
Ab bas</w>
mee tings</w>
SE OU
emer ging</w>
driv ers</w>
Saf in</w>
Ve gas</w>
tit les</w>
upda tes</w>
sie ge</w>
preced ented</w>
trole um</w>
SEOU L</w>
B at
D O
L ittle</w>
P riv
V P</w>
n ya</w>
o l</w>
ar ra</w>
it as</w>
em en</w>
con s</w>
de partment</w>
sp ammers</w>
An drew</w>
bi o
dra ws</w>
As sa
form ally</w>
tou ch</w>
Elec tric</w>
Ac qu
Rad cliffe</w>
Rel ease</w>
sil ver</w>
Pan el</w>
Jus tin</w>
pay ments</w>
Chech nya</w>
Ur ges</w>
Philli es</w>
Dist rict</w>
Jaz eera</w>
prospec ts</w>
ION S</w>
Found ation</w>
UNIT ED</w>
c overed</w>
i tes</w>
p ounds</w>
p aper</w>
u ps</w>
te x
is tic</w>
ig ning</w>
Re venue</w>
sh rine</w>
im e</w>
mo der
des er
cl es</w>
18 0</w>
wea ker</w>
17 0</w>
Tra fford</w>
lan ding</w>
pi one
hi red</w>
CO L
eff ective</w>
parti cu
commit ted</w>
Eas tern</w>
experi ence</w>
Jagu ar</w>
ackn owl
A h
F ar
H av
R un
S ell</w>
T ops</w>
c ats</w>
f are</w>
f ish</w>
in ho</w>
ti cut</w>
le tter</w>
over seas</w>
An ti
acc using</w>
Wor ks</w>
Su icide</w>
dec isi
bus y</w>
dem anding</w>
14 4</w>
tel ls</w>
pow ered</w>
fol lowed</w>
Hol iday</w>
mea sure</w>
trans fer</w>
pay ment</w>
curren tly</w>
grea test</w>
diplom ats</w>
conduc t</w>
wav es</w>
Nap ster</w>
Connec ticut</w>
Ever ton</w>
C AR
K ris
M emp
W E
b acker</w>
o o</w>
p m</w>
v ard</w>
z en
ra ting</w>
am bi
Th ank
un precedented</w>
tr o</w>
ali ers</w>
Nor way</w>
ach ed</w>
Fin ance</w>
tou gh
contro versy</w>
IS LAM
tru ck</w>
bla me</w>
fre eze</w>
Pe ter
Me et</w>
Ly cos</w>
multi ple</w>
every one</w>
targe ted</w>
Memp his</w>
ISLAM ABAD</w>
H ills</w>
P enti
S ie
S now</w>
s is
s feld</w>
y o</w>
en ix</w>
it arian</w>
um ble</w>
lu lar</w>
dis k</w>
24 0</w>
Per u</w>
Ju ven
prote sts</w>
Democra t</w>
wil ling</w>
stu dios</w>
strugg led</w>
senten ce</w>
Palm One</w>
Cav aliers</w>
Rum sfeld</w>
WOR LD</w>
lv ania</w>
Penti um</w>
B ank
L ine</w>
P ct</w>
R ams</w>
a b</w>
b lew</w>
e ted</w>
e et</w>
f ies</w>
s ong</w>
s entiment</w>
ou ldn</w>
ra i
at torney</w>
lo g
ag er</w>
em ale</w>
sh own</w>
sh ire</w>
Sh ang
inter nal</w>
out sourcing</w>
inv est</w>
appro ve</w>
ring ton</w>
Hun dreds</w>
Republic ans</w>
floo ds</w>
accep ted</w>
ship ments</w>
Campa ign</w>
VIEN NA</w>
M S</w>
S ho
U 2</w>
a warded</w>
m our
y m
con voy</w>
ul ti
acc ident</w>
AS E
gen e
produc ing</w>
fac ility</w>
oper ators</w>
hom ered</w>
kn ows</w>
stor ms</w>
competi tors</w>
uni versity</w>
Ken ya</w>
rol ls</w>
scienti fic</w>
separati st</w>
1 10</w>
C ath
P ul
S and
s giving</w>
v a</w>
te en</w>
id ents</w>
In crea
ex cl
ex ce
off set</w>
des ert</w>
La test</w>
eti tion</w>
nec ess
Fac es</w>
rol ling</w>
Exp ected</w>
sharehol der</w>
EM C</w>
Sup port</w>
individ ual</w>
Thank sgiving</w>
Juven tus</w>
F ighting</w>
K a
N is
U se</w>
b ad
c red
l er
s op
v accine</w>
ea ls</w>
al o</w>
lo ad</w>
res erve</w>
em battled</w>
sh op</w>
mo di
pp ers</w>
br ings</w>
ach i</w>
stra ined</w>
boo sting</w>
Ber lin</w>
fre qu
concer ned</w>
Ry an</w>
uti cal</w>
Ga teway</w>
swee ping</w>
immedi ate</w>
swit ch</w>
optimis tic</w>
Cz ech</w>
Shang hai</w>
M ol
M atch</w>
S ven</w>
g by</w>
g over
r igh
t ch</w>
v ors</w>
w rec
w age</w>
lin ing</w>
ic h
co operation</w>
pa tents</w>
ev acu
au di
Se ts</w>
Al so</w>
me ters</w>
ER S</w>
dro ps</w>
ga thered</w>
fun c
mem bership</w>
bra in</w>
hi p</w>
edu cation</w>
attemp ts</w>
abo ard</w>
equ ity</w>
responsi bility</w>
Mur do
photo s</w>
Develop ment</w>
Rac ing</w>
trig g
3 20</w>
H it
I ow
L ley
M I
d life</w>
e ers</w>
h ackers</w>
h asn</w>
m ass
r id
in y</w>
ti m
ar a</w>
ra ble</w>
wh el
wh ole</w>
for cing</w>
mer ge</w>
min ing</w>
low ers</w>
govern or</w>
Res ults</w>
Co s</w>
Car ds</w>
comm ander</w>
20 12</w>
Win ter</w>
Le hman</w>
sub ject</w>
Med ical</w>
Ra ys</w>
Ri ver</w>
reti red</w>
team mates</w>
wic kets</w>
Eri k
Kenne th</w>
Murdo ch</w>
Lley ton</w>
G P</w>
L CD</w>
S AN
r ounds</w>
s ity</w>
u ph
w ich</w>
z ing</w>
or bit</w>
ec s</w>
pro j
Re view</w>
rea ches</w>
im ports</w>
im posed</w>
lu tion</w>
acc eler
Su it</w>
iz ing</w>
34 0</w>
inclu ded</w>
tru e</w>
fam ilies</w>
Mil o
pho to</w>
IL L
ID C</w>
wel come</w>
Charg ers</w>
Diam ond
strongh old</w>
I A
I O
R is
V ice</w>
p ound</w>
v ac
w ire</w>
in stitu
en tum</w>
ro l</w>
ol ic</w>
am ed</w>
ed ition</w>
sh oppers</w>
co aching</w>
sec re
pl enty</w>
fi erce</w>
produc ers</w>
Li ke</w>
pen ding</w>
col um
Gu ant
den ies</w>
priv ately</w>
threaten s</w>
Cel e
Sm all</w>
Consu mers</w>
South east</w>
popu lation</w>
Pin och
Real Networks</w>
relig ious</w>
hibi tion</w>
Ferr ari</w>
Pinoch et</w>
D om
R ay</w>
a im</w>
In f
oc ide</w>
wor ked</w>
mo ther</w>
um s</w>
ie l</w>
mis t</w>
low ered</w>
De pot</w>
fe et</w>
pen alty</w>
no te</w>
Sch war
Pa lace</w>
Ver itas</w>
nec k</w>
Gol den</w>
crow ded</w>
Pho enix</w>
slu ggish</w>
Broad band</w>
scienti st</w>
gas oline</w>
set back</w>
Iow a</w>
Erik sson</w>
B un
g ship</w>
st ab
ec ially</w>
am o</w>
ma tely</w>
ee red</w>
pl u
St ru
repor ters</w>
ca sting</w>
elec t</w>
Su cc
tri als</w>
des per
19 99</w>
clo thing</w>
14 9</w>
pris es</w>
end a</w>
fil led</w>
employ ee</w>
sett led</w>
provid es</w>
regula tory</w>
cop ies</w>
Sur vey</w>
uti lity</w>
Stor age</w>
crac kdown</w>
Reta il
esp ecially</w>
sev ic</w>
civil ian</w>
Milo sevic</w>
1 25</w>
A v
B U
T I</w>
c rown</w>
f all
s ter
re store</w>
or ds</w>
om eti
sh ore</w>
ex ac
ex erc
fi res</w>
Mon tg
En viron
au dio</w>
man age</w>
26 0</w>
tic ket</w>
consu l
fun ding</w>
Vi vend
hand sets</w>
Ber n
Bri efly</w>
Fu ture</w>
environ mental</w>
esp read</w>
ometi mes</w>
Vivend i</w>
H old</w>
H urricanes</w>
J O
R on
f ted</w>
g ary</w>
h ang
p rint</w>
s y</w>
sa la
pro per</w>
su ing</w>
co aches</w>
wa ters</w>
Se veral</w>
sen se</w>
air s</w>
ach iev
Ph il</w>
38 6</w>
sta ur
see ing</w>
mee ts</w>
deli very</w>
carri ers</w>
AD EL
initi ative</w>
cli ents</w>
back up</w>
gam ing</w>
Ti V
neigh bor
Mun ich</w>
origin al</w>
alter native</w>
Buff alo</w>
compen sation</w>
B an</w>
E ric
F el
L SU</w>
R ice</w>
R icky</w>
S c
S he</w>
S cienti
S mart</w>
T H</w>
g ent</w>
ti cal</w>
al ists</w>
ac he</w>
ol es
at orial</w>
si tive</w>
con spi
su g
for t
de par
rea sons</w>
exp ensive</w>
Bu ys</w>
Ro se</w>
14 1</w>
fla gship</w>
Mc Donald</w>
promis ing</w>
organiz ations</w>
Pan thers</w>
streng th
Tru st</w>
Bl n</w>
Gun men</w>
knoc ked</w>
jus tice</w>
Pil ots</w>
Len ovo</w>
TiV o</w>
B eng
C had</w>
D aim
H AR
N C</w>
S par
f ro
g li
n ic
n av
ra v
un expec
em en
the ft</w>
Mon etary</w>
ci ans</w>
gh es</w>
Su z
est ate</w>
cap abilities</w>
Lea st</w>
Li be
bro kerage</w>
sl ides</w>
hand set</w>
eas ily</w>
Mis sis
pic tures</w>
roc ked</w>
wid espread</w>
Hu ghes</w>
reti re</w>
real ity</w>
Ow ens</w>
anci ent</w>
armace utical</w>
Diamond backs</w>
unexpec tedly</w>
1 15</w>
D P</w>
L au
S ach
t inc
v id
v in</w>
x ury</w>
ar ily</w>
lo ses</w>
ed om</w>
Re bel</w>
co ordin
ver age</w>
vic tories</w>
ris ks</w>
Con tract</w>
NE WS</w>
10 9</w>
Gi ves</w>
explo sions</w>
susp end</w>
Arsen e</w>
fav or</w>
Net fli
Boo st</w>
Leban ese</w>
lear ned</w>
influ ence</w>
sear ching</w>
cons in</w>
Wis consin</w>
relation ship</w>
Suz uk
Netfli x</w>
1 14</w>
7 50</w>
L OU
M BER</w>
O v
X in
f emale</w>
k ar</w>
s lowing</w>
s onal</w>
ti sh</w>
it ation</w>
In fin
ed way</w>
co al</w>
Mon th</w>
ca uti
Sh ows</w>
Pro c
bas sad
16 6</w>
28 0</w>
pi peline</w>
pit ching</w>
gr id</w>
eff ects</w>
TE R</w>
lic ense</w>
cy ber
Soc ial</w>
Fu el</w>
12 th</w>
Ram ad
determin e</w>
legis la
oppon ent</w>
Deb ate</w>
trium ph</w>
Mut u</w>
Missis si
D y
F oc
M AD
b attered</w>
c ir
t ant</w>
an amo</w>
tion ary</w>
ke e</w>
over whel
ci ted</w>
Sh ort</w>
IN D
Co m</w>
15 5</w>
26 5</w>
sw ag
batt les</w>
exper t</w>
comple x</w>
process ing</w>
clea n</w>
Bea ts</w>
spar ked</w>
scen e</w>
Swit zer
tren d</w>
Bes lan</w>
Xin hu
B y
J i
K han</w>
T I
a tives</w>
b on</w>
h ire</w>
l isted</w>
s lowed</w>
u ment</w>
v ows</w>
in ion</w>
ar rives</w>
il las</w>
un employment</w>
ag enda</w>
over age</w>
over haul</w>
ff s</w>
Li ber
16 5</w>
mov ement</w>
hop ed</w>
Gu id
IC C</w>
hum ans</w>
polic ies</w>
Go es</w>
Offic er</w>
vol un
thin king</w>
nar row
slow down</w>
sex ual</w>
extre m
deploy ment</w>
Soldi ers</w>
Equ atorial</w>
ple a</w>
Progra m</w>
deplo y</w>
Ori oles</w>
Guant anamo</w>
C at
C and
M en</w>
S CO</w>
f ers</w>
th ro
ch enko</w>
un expected</w>
sa tis
ex isting</w>
tor al</w>
fi xed</w>
An drea
Sp yware</w>
Op position</w>
stru ments</w>
boo m</w>
sw im
El i</w>
ant as</w>
Dis c
lim it</w>
exten ding</w>
chang ing</w>
Fun ds</w>
gre en
hor se</w>
Fe bru
Pay P
Inv estig
consol e</w>
licen sing</w>
Contro l</w>
citi zens</w>
Safe ty</w>
Tay lor</w>
Mississi ppi</w>
Febru ary</w>
1 13</w>
D ick</w>
J eff
N ames</w>
S eek</w>
b ai</w>
r one</w>
v ast</w>
re sist
ri sts</w>
com ed</w>
pro p
Re gu
Ch ange</w>
to s</w>
per su
ev a</w>
wa p</w>
olog ical</w>
19 1</w>
Pal m</w>
Op en
cal m</w>
bi e</w>
hal f
crea tion</w>
publ isher</w>
inten ded</w>
lem ents</w>
Ru n</w>
ty phoon</w>
domin ant</w>
MS FT</w>
ba rely</w>
main tain</w>
Fol lowing</w>
gran ted</w>
OK s</w>
Switzer land</w>
Andrea s</w>
L as</w>
S ean</w>
b al</w>
i tely</w>
m ming</w>
be comes</w>
st a</w>
ec li
con sortium</w>
ser iously</w>
mis ses</w>
Au tom
Con sid
Indi es</w>
sti cs</w>
est one</w>
Ro y
Res cu
sha ke</w>
29 5</w>
ga tive</w>
Fin ds</w>
vir tual</w>
Or ders</w>
end or
Tech Web</w>
Hea lth
Bel gi
Pi rates</w>
comb ined</w>
prepa res</w>
Penn sy
Pad res</w>
Beng als</w>
E DS</w>
F le
H urt</w>
Q antas</w>
R an
R ates</w>
d ants</w>
g ad
t reat</w>
th in</w>
re vised</w>
en ses</w>
qu ie
sp here</w>
per man
mar t
Mar ion</w>
wa i
19 0</w>
15 6</w>
16 4</w>
76 2</w>
Prof its</w>
eng ines</w>
tic le</w>
AR TA</w>
Hol ds</w>
Fin land</w>
olu me</w>
lif ts</w>
clim b</w>
Ric h
Blo om
clin ch</w>
AK ARTA</w>
wel comed</w>
victi m</w>
GO P</w>
PH IL
Fil es</w>
NAT IONS</w>
Author ity</w>
anis ation</w>
2 10</w>
2 30</w>
A BC</w>
F ur
H R
I mp
S U
b and
b ills</w>
h iring</w>
w ers</w>
th rown</w>
ea ns</w>
re move</w>
en for
ro ad
pu r</w>
Mar kets</w>
up beat</w>
14 3</w>
18 5</w>
kee per</w>
Gen e</w>
Pol ic
stor med</w>
Pat rick</w>
Hu bble</w>
Dev il</w>
deta ined</w>
mom entum</w>
defin ition</w>
rest ric
Bran son</w>
archi tec
Quarter ly</w>
NT T</w>
Mach ines</w>
Belgi um</w>
Pennsy lvania</w>
1 12</w>
6 50</w>
C er
D an</w>
G 5</w>
P S</w>
V IE
W ood
n ea
p en</w>
in er</w>
in nov
th rowing</w>
re sting</w>
it ten</w>
ac re</w>
ta p</w>
ste l
cu sto
Pro secu
Ma o
dem anded</w>
On ly</w>
stoc k
fa ils</w>
76 1</w>
Lin d
36 0</w>
cur b</w>
27 0</w>
Mer rill</w>
minist ry</w>
heav ily</w>
Blo ckbuster</w>
bloo dy</w>
bir ds</w>
promo te</w>
simp le</w>
Inde x</w>
Terr or
F ri
F red
J AKARTA</w>
L am
S po
S top</w>
g lo
z z</w>
ti al</w>
ic es</w>
es ca
ac adem
ha z
ap art</w>
bu ts</w>
wor ry</w>
ten tative</w>
over ty</w>
ali ze</w>
Ar test</w>
Ph ones</w>
18 2</w>
76 5</w>
25 6</w>
25 4</w>
Ju li
investig ators</w>
CO MP
regula tor</w>
Por tu
ssi l</w>
OU R
Invest ment</w>
Ukra in
hou se
Scot tish</w>
consol id
May or</w>
peace keepers</w>
certain ty</w>
Announ ces</w>
Squ are</w>
Az iz</w>
B ack
C op
E D
H ill</w>
L anger</w>
N at
O range</w>
P ope</w>
W TA</w>
b r</w>
b illions</w>
f ill</w>
en voy</w>
el ess</w>
ac om</w>
ir a</w>
ir on</w>
res sing</w>
con vention</w>
um ber</w>
ph ishing</w>
An der
lar ity</w>
Sp ur
man n</w>
bas eman</w>
ang ered</w>
Op ens</w>
sig nal</w>
74 5</w>
sup posed</w>
Mi xed</w>
Gi ve</w>
Pol and</w>
Har vard</w>
Ho t
aim ing</w>
lif ting</w>
Ven us</w>
bal ance</w>
chec ks</w>
simp ly</w>
refug ees</w>
Fen way</w>
Part ners</w>
Ov itz</w>
2 17</w>
w au
ea sing</w>
ol en</w>
as king</w>
ex it</w>
Mic h</w>
Pro ject</w>
Con way</w>
Mo ham
def end</w>
med ic
anc el
tel ling</w>
20 2</w>
18 1</w>
El l
dro pping</w>
ga p</w>
17 9</w>
17 5</w>
Tra ding</w>
Mc C
Gi b
succ eed</w>
Yanke e</w>
Mil wau
adv oc
bal lot</w>
some one</w>
propos als</w>
celebra te</w>
Manag er</w>
determin ed</w>
promp ting</w>
PH IA</w>
reser ves</w>
Circu it</w>
gover ning</w>
Milwau kee</w>
C H</w>
F ish</w>
P ush</w>
R ate</w>
R each</w>
g ren
j it
in spi
re staur
id ly</w>
st alled</w>
ol der</w>
lo an</w>
sh ru
de struction</w>
lu m</w>
ris t</w>
Com cast</w>
Wor ries</w>
Sp eed</w>
19 8</w>
ran ks</w>
clo sure</w>
To t
hop eful</w>
Cu ban</w>
Willi am</w>
conf ron
Lab or
commun ist</w>
ts un
doub ts</w>
Sil icon
sil es</w>
reb ound</w>
North west</w>
photo graph
journal ist</w>
FO R</w>
NAT O</w>
repla cement</w>
leagu es</w>
reven ues</w>
abduc ted</w>
postpon ed</w>
ADEL PHIA</w>
Daim ler
PHIL ADELPHIA</w>
ancel lor</w>
C IA</w>
H amp
K har
M VP</w>
R at
W id
Y en</w>
Y UK
u el</w>
te ral</w>
re pu
id ays</w>
al a</w>
im pose</w>
du mp
tra pped</w>
Fr an
ph ic</w>
hea lthy</w>
coun ts</w>
ess ing</w>
ali ans</w>
Sta ke</w>
def ended</w>
inter c
20 1</w>
26 6</w>
Lin k</w>
25 7</w>
hand le</w>
Fal cons</w>
90 s</w>
Tro jan</w>
Hu go</w>
divid end</w>
Mag ic</w>
surpris ing</w>
represen ting</w>
Ey es</w>
Mul ti
optimis m</w>
Kenne dy</w>
Cambodi a</w>
Silicon Valley</w>
1 17</w>
I ch
N ick</w>
P LC</w>
Q 3</w>
R al
R ight</w>
R ising</w>
W ell</w>
i ation</w>
t ty</w>
w ol
y oun
th ering</w>
or ation</w>
ti z</w>
ti er</w>
ra pe</w>
ch ase</w>
us ted</w>
Ch an
wor se</w>
rou te</w>
St rea
Sh are</w>
Bo th</w>
do ors</w>
Co sts</w>
15 4</w>
15 3</w>
26 4</w>
29 3</w>
74 7</w>
sw ept</w>
17 7</w>
37 5</w>
Or tiz</w>
Ho stages</w>
char ac
mid fielder</w>
Por table</w>
dead liest</w>
commer ce</w>
Govern or</w>
dist rict</w>
commit ment</w>
11 th</w>
Prote ction</w>
view ing</w>
mod est</w>
Rand y</w>
Drea m
surr ounding</w>
Eli ot</w>
critici zed</w>
human itarian</w>
conspi racy</w>
bassad or</w>
Daimler Chrysler</w>
P OR
T D</w>
T el</w>
d anger</w>
p ack</w>
re ver
en ced</w>
il it
ch as
lo ans</w>
con test</w>
ma la
par liam
fac tories</w>
win ners</w>
18 6</w>
26 2</w>
sw ing</w>
30 8</w>
Man ufac
fol io</w>
27 5</w>
disc overy</w>
Char lot
rev eal</w>
reg ime</w>
mea nt</w>
unve il</w>
Mis sion</w>
AP OL
Rom a</w>
Tru mp</w>
recor ded</w>
connec tions</w>
Er nie</w>
assassin ation</w>
Lyn ch</w>
regar ding</w>
kic ked</w>
A ff
L ate</w>
T am
T ow
b at</w>
g ger</w>
m ingham</w>
p in
el se</w>
ac comp
bu cks</w>
bu yers</w>
Mar y</w>
dis c</w>
ho t
pric ing</w>
star ter</w>
Qu e
sol ic
18 8</w>
so ared</w>
49 ers</w>
27 6</w>
Mer ger</w>
den ly</w>
sy n
survi ved</w>
bri ef</w>
Loc al</w>
athle tes</w>
Ey e</w>
ry stal</w>
destro yed</w>
VIE W</w>
Ich iro</w>
C rew</w>
J et</w>
L IN</w>
N Z</w>
P ra
e lan</w>
k age</w>
s at</w>
t ten</w>
al em</w>
ol ds</w>
op er</w>
con i</w>
ex port</w>
sp ots</w>
um ped</w>
par k</w>
min ers</w>
sc ar
vis t</w>
19 4</w>
iz ation</w>
Po or</w>
ish i</w>
16 9</w>
18 3</w>
24 1</w>
29 0</w>
28 3</w>
25 5</w>
fla ws</w>
Ear n
direc tly</w>
Ha iti
inten si
PE G</w>
Roc kies</w>
Chi ps</w>
pil ot</w>
strugg les</w>
cy cle</w>
Cas h</w>
line backer</w>
sev ere</w>
MAD R
enfor cement</w>
APOL IS</w>
1 36</w>
9 00</w>
C F
F ul
L az
M oun
N E</w>
W at
f rac
g aining</w>
p ra
la teral</w>
or i
ou red</w>
st akes</w>
at mo
li ved</w>
rec over</w>
rec overed</w>
ph ase</w>
lu xury</w>
pric ed</w>
Su es</w>
19 5</w>
19 7</w>
gen ocide</w>
15 8</w>
boo sts</w>
ef s</w>
20 8</w>
Ste el</w>
39 0</w>
wea k
threa ten</w>
Fin d</w>
17 4</w>
EL D</w>
Sy rian</w>
rela tives</w>
exten ds</w>
lon g
aff ect</w>
Mexic an</w>
hou ses</w>
telec om</w>
prosecu tor</w>
diplom atic</w>
conduc ted</w>
promp ted</w>
mater ials</w>
Mour inho</w>
guar an
Agre es</w>
tempor ary</w>
BER LIN</w>
YUK OS</w>
Charlot te</w>
H u</w>
H ist
M E</w>
P 2
S ale</w>
W o
Z ook</w>
a el</w>
c oo
d est</w>
f low</w>
i k</w>
i et</w>
an o
re placed</w>
ro bo
sa ving</w>
res ources</w>
Re jects</w>
sp ur
ann er</w>
dis count</w>
rac use</w>
coun tr
jo bless</w>
oper ate</w>
16 1</w>
16 3</w>
24 9</w>
24 4</w>
29 9</w>
28 5</w>
36 2</w>
75 4</w>
Ad ds</w>
sub ishi</w>
27 7</w>
Sy racuse</w>
insur gency</w>
stud ent</w>
Bom bs</w>
Te sts</w>
compe ting</w>
lear n</w>
Gri zz
mater ial</w>
Mit subishi</w>
expor ters</w>
BAL L</w>
stret ch</w>
ugh ter</w>
Exper ts</w>
Fav re</w>
exac tly</w>
cauti ous</w>
PayP al</w>
resist ance</w>
C able</w>
D e</w>
D ies</w>
F id
F ears</w>
I V</w>
K E
K i
O F</w>
U C
a ide</w>
l igh
s an</w>
t ask</w>
w a</w>
re pair</w>
ec tively</w>
us ually</w>
us alem</w>
In tell
ow ing</w>
ap p</w>
ren tal</w>
pu s</w>
exp ands</w>
An war</w>
Sh ut
Con c
Con cer
Sp i
coun ted</w>
16 7</w>
26 9</w>
24 8</w>
29 8</w>
78 0</w>
75 8</w>
30 2</w>
30 5</w>
27 4</w>
37 0</w>
Yan ks</w>
new ratings</w>
Elec tions</w>
Mus ab</w>
hi j
Vir us</w>
Vo ters</w>
push es</w>
Jer usalem</w>
crac k</w>
Malaysi an</w>
view ed</w>
Fra ud</w>
fore igners</w>
aggres sive</w>
Chang es</w>
necess ary</w>
Grizz lies</w>
B anks</w>
F loo
K ir
M ln</w>
Q B</w>
T oll</w>
d le
k swag
p acked</w>
t out</w>
v ement</w>
re ro</w>
ro bust</w>
st able</w>
ec es</w>
ac tually</w>
at trac
Th reat</w>
ha iled</w>
ad ministra
su n</w>
gu ards</w>
Mar ine</w>
low n</w>
19 3</w>
So yu
20 4</w>
18 4</w>
38 5</w>
34 2</w>
gg ets</w>
36 5</w>
74 0</w>
79 8</w>
27 1</w>
37 6</w>
sla m</w>
Sen ior</w>
Bel gian</w>
bank rupt</w>
pul lout</w>
bal lots</w>
Sil ver
Mov es</w>
mod ern</w>
Vol kswag
defen der</w>
Fam ily</w>
alo gue</w>
Infin eon</w>
tsun ami</w>
Soyu z</w>
Volkswag en</w>
A ward</w>
D uring</w>
G DP</w>
M GM</w>
M CI</w>
R ay
i ble</w>
o sa
p ages</w>
la id</w>
re member</w>
un t</w>
ri age</w>
ne tt</w>
pro spect</w>
In jured</w>
wor n</w>
str a</w>
dis cip
Con n
amp ed</w>
go al
Ro y</w>
dem ocra
cas u
Sto ck
20 9</w>
16 2</w>
18 7</w>
24 2</w>
24 5</w>
38 1</w>
38 8</w>
Fl u</w>
34 9</w>
28 7</w>
25 1</w>
25 8</w>
74 6</w>
so red</w>
buil dings</w>
Cu stom
17 1</w>
27 9</w>
37 7</w>
80 2</w>
new est</w>
mat ch
land ed</w>
Cra sh</w>
Mor tgage</w>
pat h</w>
streng then</w>
sli p</w>
Rob inson</w>
Cy ber
Bay ern</w>
omer ie</w>
Beg ins</w>
Rw anda</w>
Jama ica</w>
quie tly</w>
parliam entary</w>
P2 P</w>
A dam</w>
B ANG
C al</w>
K h
T rou
T erry</w>
g ment</w>
h us
l eng
n ogra
r igu
ar ch</w>
at op</w>
ear th</w>
de e
ver sus</w>
ten der</w>
mar king</w>
pre tty</w>
Bo ss</w>
14 2</w>
16 8</w>
26 1</w>
24 6</w>
24 7</w>
38 4</w>
28 6</w>
25 2</w>
39 2</w>
35 9</w>
35 3</w>
75 9</w>
30 6</w>
70 3</w>
sub marine</w>
17 6</w>
37 1</w>
investig ate</w>
Des cription</w>
ey er</w>
OS E</w>
confir ms</w>
Acc ess</w>
doub les</w>
indic ated</w>
Nu ggets</w>
hard t</w>
wit ness</w>
wri ter</w>
gres sional</w>
solu tions</w>
Tom my</w>
aliz ation</w>
stun ning</w>
impres sive</w>
Tre o</w>
Gh rai
Montg omerie</w>
Ghrai b</w>
B acks</w>
F BI</w>
J ar
S ER
on ers</w>
es sive</w>
am ent</w>
Th rough</w>
ex hibition</w>
Ch eck</w>
and an</w>
mon it
Mar athon</w>
mp h</w>
Ma x</w>
19 2</w>
out fielder</w>
Co st</w>
15 7</w>
with drew</w>
20 6</w>
20 5</w>
18 9</w>
76 7</w>
76 0</w>
76 3</w>
26 3</w>
24 3</w>
34 1</w>
34 8</w>
29 7</w>
36 4</w>
39 9</w>
79 6</w>
78 4</w>
78 7</w>
35 7</w>
tou rists</w>
17 8</w>
Tra vel</w>
27 3</w>
37 9</w>
37 2</w>
politi c
Ari st
Tal k</w>
Lou is
Lou isi
strea m</w>
wal ked</w>
her o</w>
suppor ting</w>
Bre wers</w>
subsid ies</w>
Dan iel</w>
eth nic</w>
FI ELD</w>
even tually</w>
Salv ation</w>
fash ion</w>
IA EA</w>
1 29</w>
A ar
E S
G ain</w>
J ona
K ur
b ow</w>
d les</w>
f at
g an</w>
s wi
s burg</w>
re fin
re ls</w>
re moved</w>
ar rests</w>
ro ads</w>
ur ging</w>
el ling</w>
res ign</w>
em barra
ed ers</w>
sh rin
le gi
sp in
Ch en</w>
im mig
pea k</w>
ho tels</w>
war m</w>
riv al
19 9</w>
sha dow</w>
15 9</w>
15 2</w>
Car l</w>
Sa id</w>
26 7</w>
38 9</w>
38 7</w>
34 3</w>
36 7</w>
74 4</w>
74 3</w>
39 1</w>
39 6</w>
39 5</w>
79 5</w>
79 0</w>
78 2</w>
75 3</w>
30 1</w>
30 4</w>
conc essions</w>
70 1</w>
70 6</w>
70 5</w>
70 4</w>
Hol mes</w>
tou m</w>
17 2</w>
bra ce</w>
IC E</w>
week ly</w>
Ber lus
lon gest</w>
availa bility</w>
wr itten</w>
Invest or</w>
Sus pen
Dro ps</w>
Venezu elan</w>
mal icious</w>
villa ge</w>
sal v
occu pi
Son ics</w>
electric ity</w>
bid ding</w>
Ala ska</w>
Chris tian</w>
HR AN</w>
wol ves</w>
Louisi ana</w>
Jona than</w>
A ID
B each</w>
E Bay</w>
J a
L O</w>
R ou
n as
t ally</w>
te g
is se</w>
ha ven</w>
pro of</w>
pro minent</w>
In formation</w>
oo m</w>
po p</w>
per t</w>
ca ir
Com missioner</w>
pol lution</w>
vis its</w>
Se e</w>
AS T</w>
Ma ver
econom ists</w>
For um</w>
So ren
20 7</w>
26 8</w>
38 2</w>
Lin ks</w>
34 7</w>
25 3</w>
74 1</w>
74 8</w>
78 8</w>
35 1</w>
35 6</w>
35 4</w>
AL I
Sha wn</w>
Gi ant</w>
Pol ish</w>
Vo ting</w>
sing les</w>
sett lements</w>
stand ings</w>
dam aged</w>
TE HRAN</w>
Pit cair
ham string</w>
Rom ania</w>
bir th</w>
Adv ance</w>
enc ia</w>
Black burn</w>
ici ent</w>
devast ating</w>
break through</w>
rang ing</w>
lun ar</w>
Spe edway</w>
Guid ant</w>
Fred die</w>
rigu ez</w>
Arist ide</w>
Berlus coni</w>
B ull</w>
C ross</w>
I yad</w>
L et</w>
O C
R AM
S oun
S ab
T un
T our
W ake</w>
d ant</w>
an ic</w>
be headed</w>
er i</w>
en ters</w>
ra ids</w>
si vely</w>
ov t</w>
co a</w>
se l</w>
over come</w>
sur ve
min or</w>
Sp ending</w>
stri pped</w>
sel s</w>
34 5</w>
29 2</w>
28 9</w>
28 8</w>
36 1</w>
36 6</w>
36 3</w>
39 8</w>
39 4</w>
79 9</w>
79 2</w>
79 4</w>
78 6</w>
78 3</w>
75 2</w>
75 5</w>
30 9</w>
70 2</w>
70 8</w>
37 4</w>
Ha wks</w>
hun ting</w>
qui et</w>
port folio</w>
Sur vi
Val encia</w>
invol vement</w>
Ap pl
Low e</w>
sugg esting</w>
Rod riguez</w>
Pen n</w>
vol c
insu rers</w>
ero space</w>
Deb t</w>
expla in</w>
Sant ander</w>
boy cott</w>
emis sions</w>
Suzuk i</w>
MADR ID</w>
E mer
H ard</w>
K lit
N az
P yon
S Q
c overage</w>
d ent</w>
d ance</w>
e i</w>
l ure</w>
n oc
p ounded</w>
p overty</w>
s cu
w ine</w>
te ur</w>
re ject</w>
it ted</w>
ic ated</w>
is tered</w>
ne ys</w>
res ort</w>
sh ook</w>
su ite</w>
off ee</w>
Fr ank
ph ony</w>
ang ry</w>
19 6</w>
hol ders</w>
out come</w>
fa il</w>
20 3</w>
38 3</w>
34 4</w>
29 1</w>
28 1</w>
36 9</w>
74 9</w>
39 7</w>
79 3</w>
78 1</w>
35 2</w>
75 6</w>
30 3</w>
70 9</w>
70 7</w>
chan nel</w>
AR L
cur y</w>
27 8</w>
mor tar</w>
At omic</w>
Sy mb
direc tion</w>
prote sters</w>
gy mnastics</w>
spokes woman</w>
indic ted</w>
tre es</w>
lap top</w>
happ ened</w>
ss i</w>
team mate</w>
engine er</w>
PS P</w>
Susp ected</w>
erup ted</w>
Louis ville</w>
Pitcair n</w>
Soun ess</w>
Pyon gy
5 50</w>
A rena</w>
E th
I r
P as
U sing</w>
X M</w>
d ling</w>
k m</w>
l ess
p led</w>
s est</w>
re min
ar ch
st am</w>
al i</w>
al com
us s</w>
ap ar
ex tinc
ab road</w>
ten ham</w>
fin ishing</w>
ff le</w>
sea ts</w>
ak h
Ar m
pre view</w>
war n</w>
Se oul</w>
Qu alcom
sha pe</w>
On ce</w>
76 9</w>
76 8</w>
34 6</w>
28 2</w>
25 9</w>
gg ling</w>
74 2</w>
78 9</w>
78 5</w>
sw apping</w>
75 7</w>
30 7</w>
17 3</w>
proc e
27 2</w>
37 8</w>
hand er</w>
ques tioned</w>
Sen der</w>
comple ting</w>
pic ks</w>
Pi racy</w>
Roc k</w>
wid er</w>
Hel ps</w>
tric k</w>
bran ds</w>
plun ged</w>
subst anti
rav aged</w>
Roy als</w>
Earn hardt</w>
Aar on</w>
occupi ed</w>
Klit sch
Pyongy ang</w>
Qualcom m</w>
1 21</w>
3 30</w>
A lab
F is
M and
P ey
S li
a p</w>
d ark</w>
p ed
es sed</w>
un usual</w>
ta il
su per</w>
de ter
du st</w>
sur ging</w>
ser ved</w>
Uni x</w>
inc ident</w>
Jo bless</w>
Ma king</w>
cas ino</w>
76 6</w>
29 6</w>
36 8</w>
79 7</w>
35 5</w>
75 1</w>
spec tac
Gu ill
37 3</w>
quarter finals</w>
Ju an</w>
shor tage</w>
Pre view</w>
Pu ts</w>
Fir ms</w>
fre edom</w>
emer ge</w>
hosp it
Sam arra</w>
Indu stries</w>
Wa ter</w>
Dou b
BA I</w>
integra tion</w>
compla int</w>
bun al</w>
Philli ps</w>
Hear t</w>
Raf ael</w>
Ukrain ian</w>
atmo sphere</w>
hus band</w>
Klitsch ko</w>
2 20</w>
J A</w>
L uk
M et
N ine</w>
P O
Q west</w>
T RO
W ant</w>
Y ud
g all
i est</w>
i rez</w>
m on</w>
o gi
t ator</w>
v olume</w>
th u
ro ster</w>
al ore</w>
ra d</w>
el ie</w>
am ps</w>
res igns</w>
de z</w>
Ch ur
ric ul
ul ted</w>
fin ale</w>
min ority</w>
ass et</w>
Sp ac
gra bbed</w>
pre ven
go tten</w>
ber th</w>
AN D</w>
cap tors</w>
Co de</w>
Li kely</w>
76 4</w>
dic t</w>
29 4</w>
28 4</w>
39 3</w>
79 1</w>
Bla sts</w>
tic kets</w>
ER WORLD</w>
charg ing</w>
Ag ree</w>
lim its</w>
Oc ean</w>
recei ving</w>
sett les</w>
enter ing</w>
Cha p
Wal ker</w>
Ri ver
activ ists</w>
revea ls</w>
clin ched</w>
Stra w</w>
Ram irez</w>
Targ ets</w>
insu rer</w>
scra m
Loo king</w>
Leg al</w>
premi er</w>
UT ERWORLD</w>
JA F</w>
ambi tions</w>
Liber ty</w>
ecli pse</w>
Mao ist</w>
COMP UTERWORLD</w>
Tot tenham</w>
SQ L</w>
Symb ian</w>
A H</w>
J P</w>
J ee
K ings</w>
P residential</w>
S A
T RE
g lit
j ets</w>
p al
w oes</w>
x y</w>
y an</w>
z ers</w>
te ct</w>
be t</w>
or b
st ant</w>
ur gent</w>
ne gative</w>
ab e</w>
ke tt</w>
gi ft</w>
ho yon
Sh u
Mo ss</w>
Su ite</w>
sc are</w>
vis itors</w>
Al ber
On tar
up on</w>
ish ers</w>
bur ied</w>
35 8</w>
cor rec
reta in</w>
politi cians</w>
Tro y</w>
champi onships</w>
Def eat</w>
DV Ds</w>
Star s</w>
ty co
Sil icon</w>
Rom an</w>
floo d</w>
bol ster</w>
Kre me</w>
profes sion
rap idly</w>
Pur due</w>
Sain ts</w>
escap e</w>
Lim ited</w>
conserv ative</w>
Roo kie</w>
NA JAF</w>
acknowl edged</w>
Eric sson</w>
Foc us</w>
Soren stam</w>
Yud hoyon
Ontar io</w>
Yudhoyon o</w>
E f
N ad
R overs</w>
h at</w>
i ve</w>
s and
s lower</w>
in tly</w>
la tile</w>
head er</w>
es h</w>
ec tual</w>
ir ts</w>
Re por
sp y</w>
po c
id9 69
mar ch</w>
ev olution</w>
bo xing</w>
Af ee</w>
ass emb
fe wer</w>
Res ources</w>
AT P</w>
Mc Afee</w>
Vi acom</w>
nor mal</w>
Per sonal</w>
bla de</w>
Tim ber
sett lers</w>
deli ver
AC C</w>
Ven ture</w>
ID G</w>
newsp apers</w>
ben ch</w>
cre di
fee ling</w>
viola tions</w>
With out</w>
Ren ault</w>
sud denly</w>
Alex ander</w>
particu larly</w>
Kris py</w>
Pey ton</w>
2 12</w>
I an</w>
L ay</w>
L og
R ut
T ou
V E
a stronomers</w>
d red</w>
d led</w>
f ting</w>
k in</w>
m maker</w>
p ac
u als</w>
on age</w>
as su
em a
ad mits</w>
ma bad</w>
le f
por nogra
sp in</w>
id2 58
id3 69
id11 58
pa ys</w>
ten tion</w>
id10 49
ph armaceutical</w>
Mic kel
bo xes</w>
Se p</w>
19 90s</w>
To o</w>
Par t</w>
manag ing</w>
col m</w>
col or</w>
soc ial</w>
Gu er
rela y</w>
appea led</w>
Med ic
Bel l
Isla mabad</w>
IR O</w>
Fed Ex</w>
busin ess
aff ected</w>
Ap proves</w>
loc ation</w>
gun s</w>
celebra ted</w>
ben t</w>
Bre eders</w>
improv ement</w>
earthqu akes</w>
bow l</w>
anim als</w>
Mal colm</w>
rap id</w>
Hor nets</w>
Spec ial</w>
teen ager</w>
mys tery</w>
GH z</w>
auth enti
vide o
Bru ce</w>
Trac k</w>
Alab ama</w>
Mickel son</w>
1 26</w>
A sh
E sti
J OSE</w>
P av
S ov
T em
T Vs</w>
W as</w>
b one</w>
b our
f lew</w>
t les</w>
in sists</w>
la b</w>
la tor</w>
re in
er able</w>
en em
ra ti
us sels</w>
ir ty</w>
ha vi
In ter</w>
In struments</w>
ad dition</w>
ap i
de ton
de tain
de tec
id9 49
id9 58
id7 48
id7 99
id2 00
id2 49
id2 99
id8 59
ten sions</w>
id10 58
id10 59
fin es</w>
sur ren
mon g</w>
mon itor</w>
jo intly</w>
ran kings</w>
sta yed</w>
fra me</w>
adv ances</w>
Tro pical</w>
analy sis</w>
mat h</w>
Star bucks</w>
negoti ating</w>
Rel i
pat ches</w>
survi vors</w>
signific antly</w>
engine ering</w>
var ious</w>
work force</w>
Ten dul
Inte rest</w>
quo ted</w>
Pic ture</w>
condem ned</w>
conclu ded</w>
sust ained</w>
Cath olic</w>
Spur rier</w>
Khar toum</w>
repu tation</w>
Chan nel</w>
1 16</w>
1 22</w>
2 15</w>
B rett</w>
B OUR
C rac
D r</w>
H is
J ud
K ONG</w>
V A</w>
a c</w>
b on
b old</w>
c af
h n</w>
ic ion</w>
es co</w>
ch oose</w>
un able</w>
ri pped</w>
ag g
as sists</w>
id1 69
id1 99
In tro
oun ce</w>
ad or</w>
oc cur
rec i
id9 59
id7 58
id7 59
id2 68
id3 49
id11 48
id4 49
id10 68
id10 99
mar k
mon t</w>
An k
An tar
acc u
war planes</w>
Ma ur
med ium</w>
ban g</w>
Ro ad</w>
Ro ssi</w>
Br idge</w>
Goo d
Eng ine
18 th</w>
La tin</w>
fla g</w>
ill en
Gaz pro
DA M</w>
susp icion</w>
SE P
Mis sile</w>
Lab s</w>
Ta king</w>
Tel escope</w>
Law yers</w>
Gor an</w>
Produc t</w>
Sla m</w>
upda ted</w>
tan e
Stan ford</w>
spon sored</w>
stero ids</w>
buy out</w>
nit ude</w>
sign als</w>
Sie bel</w>
excl usive</w>
Hit achi</w>
Manufac turing</w>
Maver icks</w>
Timber wolves</w>
B HP</w>
C amp
C amp</w>
D anny</w>
E C
F ool</w>
H ot</w>
H ONG</w>
J ay</w>
L AN</w>
R ights</w>
s wap</w>
t led</w>
w ouldn</w>
y n</w>
la rus</w>
Th or
un lea
id1 49
ed on</w>
tion able</w>
de p
comp ati
our ite</w>
id9 99
id7 69
id3 68
id5 00
id5 58
id5 99
id11 59
id4 69
id4 48
id4 99
id6 58
id10 69
fi xing</w>
da wn</w>
mis siles</w>
iti ous</w>
Is lands</w>
clo ses</w>
Ro ber
Br ussels</w>
bar rels</w>
sl ump</w>
Un der
TO W
author ity</w>
pul ling</w>
pul ls</w>
Bal i</w>
stu dio</w>
div ided</w>
surpris ed</w>
chea per</w>
FOR D</w>
Bir mingham</w>
revi ve</w>
Fres h</w>
trigg ered</w>
Retail ers</w>
Bloom berg</w>
Ander son</w>
Tendul kar</w>
1 11</w>
3 37</w>
A d</w>
D S
L ist</w>
M A</w>
M eyer</w>
N ight</w>
U s</w>
a u</w>
r ings</w>
r ants</w>
v an
en able</w>
us tin</w>
res ses</w>
00 m</w>
se where</w>
pla gu
id7 00
id7 49
id3 00
id3 58
id8 00
id5 49
id5 69
id5 59
id5 68
id11 00
id11 49
id11 99
id4 58
id4 68
id6 59
id6 99
id10 48
um ping</w>
elec toral</w>
Is sues</w>
pres sed</w>
sen sitive</w>
Br un
et own</w>
wea lth</w>
ga thering</w>
Be larus</w>
inten se</w>
clu bs</w>
Pl ane</w>
cop y</w>
chall enger</w>
stand off</w>
Lead ing</w>
ba by</w>
son ville</w>
Ku wait</w>
Brow ser</w>
adop ted</w>
ordin ary</w>
mys ter
cha os</w>
Politi cal</w>
Priv ate</w>
rival ry</w>
D rive</w>
I ON</w>
K er
L M</w>
L ed</w>
W ri
Y et</w>
b ond</w>
k man</w>
v ital</w>
in der</w>
is tent</w>
el ite</w>
ig ner</w>
Th en</w>
ir t</w>
id1 58
id1 48
sp ra
po sting</w>
im bl
mo il</w>
ver ge</w>
id9 68
id2 69
id3 99
id8 49
id8 69
id8 58
id5 48
id4 00
id4 59
id6 00
id6 68
ni an</w>
str o</w>
Sh ot</w>
pres cription</w>
agre ements</w>
ash ing</w>
ish ment</w>
fl ex
Pla ce</w>
inte rests</w>
Mc Gra
War ri
Har d
pur sue</w>
Ber nie</w>
Mad ison</w>
Roc ket</w>
IR A</w>
Dru gs</w>
Tel stra</w>
Rel eases</w>
Mu st</w>
Pen sion</w>
Mov ie</w>
collap sed</w>
ling ham</w>
Palm Source</w>
Chil dren</w>
repla cing</w>
Je re
certain ly</w>
Stan ley</w>
far mers</w>
inaugu ral</w>
audi ence</w>
SER V
Jee ves</w>
Ef for
1 19</w>
1 33</w>
2 13</w>
2 35</w>
A mong</w>
B ird</w>
C au
G en</w>
N ag
V an</w>
W imbl
b illionaire</w>
l i</w>
y lum</w>
er son</w>
ti st</w>
el son</w>
as ters</w>
id1 59
id1 68
sa ver</w>
id8 48
id11 69
over came</w>
sur ing</w>
iti ve</w>
Pro gress</w>
De but</w>
De law
Ar ro
def ends</w>
clo sest</w>
Nor we
Sec ure</w>
AT I</w>
Po ssi
Tra il</w>
Bar gh
sla sh</w>
ner back</w>
ob servers</w>
appro ves</w>
suff er</w>
public ly</w>
Wil d</w>
Gra eme</w>
happ en</w>
autom aker</w>
contrac tor</w>
Hom eland</w>
Contin ental</w>
Eri c</w>
Kidnapp ers</w>
chem ical</w>
Avi ation</w>
ML B</w>
Hosp ital</w>
sug gest</w>
LOU IS</w>
tyco on</w>
Delaw are</w>
1 28</w>
2 21</w>
B OR
B ak
B ad</w>
C K
E p
H an
H ur
K ath
N ation
N ation</w>
O x
R ain</w>
V an
Z en
c ease</w>
f old</w>
m are</w>
n es</w>
u tic
be havi
st olen</w>
un rest</w>
un certainty</w>
li fe
em br
de la
de ep
im proper</w>
id9 48
id7 68
id2 59
id3 59
id3 48
id8 99
id6 69
pl edges</w>
ke l</w>
gu ide</w>
dea lers</w>
Pro per
amp ton</w>
cl earing</w>
Ma j
pres ents</w>
relea sing</w>
fac ilities</w>
Co oper</w>
br id</w>
As sem
sl id</w>
War ning</w>
Har rington</w>
end angered</w>
hun dred</w>
Mer cury</w>
Pa ula</w>
plan ets</w>
TE MBER</w>
draw n</w>
cho sen</w>
bit ration</w>
suppor ted</w>
intell ectual</w>
ST ER
Jack sonville</w>
Jam al</w>
amb itious</w>
Wel ls</w>
FI FA</w>
north east</w>
McN air</w>
Bank ruptcy</w>
perman ent</w>
Fis cher</w>
profession als</w>
His pan
SEP TEMBER</w>
Wimbl edon</w>
2 22</w>
4 50</w>
A ds</w>
B ill
D er
I bra
S lip</w>
V il
W H
m ile</w>
s ometimes</w>
t ary</w>
in os</w>
ad vice</w>
id9 00
id2 48
id11 68
id6 49
id6 48
Fr on
ho sts</w>
Con rad</w>
Sun s</w>
bas es</w>
ber ger</w>
agre eing</w>
Wh ere</w>
Lea ves</w>
So on</w>
pen alties</w>
cen ters</w>
batt ling</w>
pi eces</w>
regi ons</w>
rela tively</w>
Def ence</w>
trea ty</w>
Am elie</w>
Ru ling</w>
inde fin
fav ourite</w>
Lu cent</w>
Da ve</w>
atten d</w>
Bang alore</w>
requ ire</w>
hy dro
Sum mer</w>
gam ers</w>
vulner able</w>
vulner ability</w>
vulner abilities</w>
Loo ks</w>
Buil ding</w>
Jagu ars</w>
Analy sts</w>
Analy sis</w>
Clim ate</w>
BL O
libr ary</w>
fall en</w>
Lind say</w>
Chap ter</w>
Jere my</w>
utic als</w>
Assem bly</w>
1 23</w>
1 37</w>
3 15</w>
A gen
C L
C OR
G al
I AN
M illions</w>
N J</w>
S pea
b lu
j i</w>
k tops</w>
s it</w>
t ley</w>
in ti
on z
ar rive</w>
id1 79
de st
de fi
rea li
ing dom</w>
rec alled</w>
tra cks</w>
id8 36
id8 68
ke ys</w>
ph ere</w>
Con n</w>
Ma ker</w>
mil estone</w>
vo latile</w>
prof itable</w>
et ooth</w>
La ke</w>
Gu ilty</w>
Ho tel</w>
Do zens</w>
blo cks</w>
blo ck
spo ke</w>
sla shed</w>
uni que</w>
Por t</w>
squ ee
domin ate</w>
Fed eration</w>
Wil lingham</w>
predic t</w>
Kee fe</w>
BA R</w>
gar ian</w>
wic ket</w>
rob ot</w>
chea p</w>
thin ks</w>
aliz ing</w>
Exten ds</w>
Cli ppers</w>
expor ter</w>
tempor arily</w>
stero id</w>
cont act</w>
Haiti an</w>
SERV ICE</w>
Norwe gian</w>
1 18</w>
2 33</w>
3 29</w>
3 33</w>
A ims</w>
F M</w>
G ators</w>
K urt</w>
N BC</w>
S om
a lar
b lin
c run
g al</w>
h att
p sy
s u</w>
s in
s ights</w>
t anks</w>
ea u</w>
re di
be st
er o</w>
ti vist</w>
st an</w>
at tract</w>
as cus</w>
ing er</w>
id9 26
id7 24
id7 38
id2 16
id2 34
id2 88
id5 15
id5 36
id5 74
id11 76
id4 16
id4 28
ten ce</w>
id10 88
um i</w>
fu eled</w>
tr ino</w>
De rek</w>
wa b</w>
Se ttle</w>
cl ou
cl us
19 96</w>
ussi ons</w>
Europea ns</w>
Lea ve</w>
up rising</w>
run ner</w>
me tho
Hol ding</w>
sto red</w>
40 1</w>
acqu iring</w>
Vi k
Shar ing</w>
tru cks</w>
Char lie</w>
clu es</w>
employ ers</w>
NF C</w>
BE A</w>
gir ls</w>
viola ting</w>
Dam ascus</w>
slow ly</w>
requi red</w>
associ ation</w>
may be</w>
constitu tional</w>
spot light</w>
fing er
Sky pe</w>
Peter son</w>
mass acre</w>
monit oring</w>
2 32</w>
2 38</w>
3 39</w>
3 10</w>
A bo
C ul
D ee
G y
J on</w>
J PEG</w>
M G</w>
M aine</w>
O T</w>
P op
S ac
U M</w>
U R</w>
V ince</w>
a ling</w>
d ar
f led</w>
s mu
t ree</w>
t ons</w>
un anim
id1 76
id1 24
id1 36
id1 39
si mul
qu ake</w>
Re turns</w>
ma ils</w>
mo tion</w>
per mission</w>
id9 29
id9 28
id9 78
id7 29
id2 76
id3 76
id3 26
id8 76
id8 26
id8 24
id8 39
id5 16
id5 76
id5 24
id5 38
id5 28
id11 74
id4 76
id6 50
tor ious</w>
id10 14
id10 25
id10 39
um es</w>
fu n</w>
hel lo</w>
Ar ms</w>
bas is</w>
vi o
Ser ie</w>
Li ve</w>
sch eme</w>
Air line</w>
App eal</w>
Sch wab</w>
end ar</w>
Char ge</w>
kid s</w>
Update 3</w>
domin ance</w>
ite ms</w>
integra ted</w>
Colom bian</w>
moun tain</w>
represen tatives</w>
Penn ington</w>
devast ated</w>
armace uticals</w>
Blu etooth</w>
valu ed</w>
weigh ed</w>
deleg ation</w>
guerr illas</w>
pione er</w>
IO C</w>
Cand id
Gib bs</w>
Intell igence</w>
myster ious</w>
Vik tor</w>
Abo ve</w>
3 25</w>
3 16</w>
3 35</w>
A ction</w>
C ab
C Ds</w>
D rew</w>
L ess</w>
O r</w>
P act</w>
R ound</w>
V ows</w>
W it
W right</w>
d ogs</w>
s man</w>
t ted</w>
ar ticle</w>
el sewhere</w>
id1 75
id1 90
op ol
ear y</w>
di er</w>
im ag
im um</w>
per cen
id9 16
id9 18
id9 24
id9 34
id9 39
id9 79
id9 40
id7 60
id7 80
id7 90
id2 18
id2 38
id2 36
id2 74
id2 60
id3 19
id3 25
id3 39
id3 78
id8 34
id8 28
id8 75
id8 60
id5 34
id5 29
id5 25
id5 39
id11 16
id11 39
id11 79
id11 88
id4 29
id4 79
id4 90
id6 14
id6 16
id6 29
id6 28
id6 36
id6 79
id6 78
id6 88
id10 24
id10 38
id10 36
id10 74
id10 35
id10 50
id10 60
ste am</w>
mon s</w>
min i</w>
Inter ior</w>
Sh opping</w>
dea lt</w>
elec tric</w>
sc ru
wa ited</w>
do x</w>
Ser b</w>
Can cer</w>
tech ni
No tebook</w>
sour i</w>
cra tive</w>
Bra d
cel lular</w>
Har ris</w>
blo cked</w>
Mis souri</w>
Isla mist</w>
Ru pert</w>
carri es</w>
Me ga
emb argo</w>
Indu strial</w>
scre en
Wa ter
speci fic</w>
Ly on</w>
bul l
diplom at</w>
flo or</w>
tit ude</w>
RI AA</w>
DE TRO
Mem ory</w>
Bol ton</w>
reven ge</w>
resum ed</w>
ski pper</w>
JO H
depar ture</w>
Dream Works</w>
assemb ly</w>
BLO OM
simul tane
DETRO IT</w>
2 27</w>
3 22</w>
3 34</w>
C are</w>
E le
F ast</w>
H ut
L ig
L LC</w>
V onage</w>
a ret
h a</w>
h owever</w>
m outh</w>
s itting</w>
w earing</w>
id ance</w>
il o</w>
om ed</w>
is man</w>
el low</w>
id1 38
id1 28
id1 78
id1 88
of t</w>
ow nership</w>
ear cher</w>
sp l
rec overing</w>
per form</w>
id9 19
id9 14
id9 76
id9 38
id9 25
id9 74
id9 35
id7 15
id7 76
id7 36
id7 74
id7 78
id7 50
id2 15
id2 29
id2 39
id3 14
id3 16
id3 24
id3 79
id3 75
id3 80
id8 15
id8 79
id5 26
id5 78
id5 50
id11 29
id11 25
id11 40
id11 80
id4 26
id4 24
id4 38
id4 35
id6 18
id6 76
id6 34
id6 35
id6 40
ke p
gu y</w>
id10 16
id10 18
id10 28
id10 79
id10 78
id10 80
ren ce</w>
acc ord</w>
fe it</w>
To ys</w>
iz umi</w>
Qu een</w>
sha dow
Op ter
Par mala
br ight</w>
Li thu
wea kness</w>
Man hatt
AM STER
Bra d</w>
Dis pu
Sch o
Be hind</w>
Do es</w>
negoti ators</w>
Cra w
mb ling</w>
Pan ama</w>
mag nitude</w>
bat teries</w>
Pr inc
Wea k</w>
jun k</w>
gri p</w>
Gun ners</w>
Direc tor</w>
experim ental</w>
Rw andan</w>
Port sm
Wol f
Gold man</w>
libr aries</w>
Ques tions</w>
Ris k</w>
gren ade</w>
Shut tle</w>
AID S</w>
Parmala t</w>
Manhatt an</w>
AMSTER DAM</w>
2 16</w>
2 28</w>
2 26</w>
E TA</w>
E ast
H K</w>
H owever</w>
I L</w>
O mar</w>
P s</w>
d ot</w>
k h</w>
s napp
s acked</w>
or ts</w>
ec a</w>
am bassador</w>
us ations</w>
ir i</w>
id1 26
id1 34
id1 29
id1 74
id1 35
id1 50
id1 40
sa f
In su
sp ir
00 1</w>
co c
im minent</w>
our ing</w>
id9 15
id9 75
id9 50
id9 60
id7 16
id7 26
id7 28
id7 25
id7 79
id7 75
id2 24
id2 79
id2 40
id3 15
id3 18
id3 34
id3 28
id3 74
id3 50
id8 19
id8 38
id8 25
id8 78
id8 35
id8 50
id8 88
id5 14
id5 75
id5 40
id5 90
id5 88
id11 38
id11 34
id11 28
id11 35
id11 50
id11 60
id4 15
id4 14
id4 34
id4 25
id4 36
id4 75
id4 80
id6 15
id6 26
id6 24
id6 74
id6 39
id10 19
id10 29
Mic hel
Uni ons</w>
bo l</w>
au gh
NE S
Bus in
clo ck</w>
Bu tton</w>
Res igns</w>
Op portun
Co ke</w>
sol ve</w>
Ko izumi</w>
no tice</w>
pri or</w>
sm en</w>
Afgh ans</w>
Gi amb
stro kes</w>
fil ms</w>
under stand</w>
dom ain</w>
anti virus</w>
Vir tual</w>
Vo tes</w>
Ed die</w>
Mis sing</w>
Mid east</w>
super market</w>
sil icon</w>
bir th
RO ME</w>
sor t</w>
South ampton</w>
var i
independ ence</w>
Pres sure</w>
reduc ing</w>
elimin ate</w>
Beg in</w>
phys ical</w>
sho ot</w>
comfor table</w>
Camp bell</w>
percen tage</w>
1 31</w>
2 11</w>
2 29</w>
3 11</w>
3 13</w>
R A</w>
R ome</w>
R ick</w>
T ool</w>
U E</w>
U AL</w>
o k
r ant</w>
s ys</w>
t ments</w>
w ed</w>
be ef</w>
st ops</w>
el e
un changed</w>
ir s</w>
ed ging</w>
di alogue</w>
ab s
Ch em
bu ck</w>
00 th</w>
id9 36
id9 90
id9 88
id7 14
id7 34
id7 39
id7 35
id7 40
id7 88
id2 78
id2 80
id3 36
id3 40
id3 60
id3 90
id8 14
id8 16
id8 18
id8 29
id8 74
id8 40
id8 80
id8 90
id5 18
id5 80
id11 18
id11 24
id11 36
id11 75
id4 74
id4 60
id6 38
id6 25
id6 75
id10 15
id10 26
id10 34
um bent</w>
mar riage</w>
Mo qtada</w>
gra du
dec lar
fo ssil</w>
vo id</w>
sen ds</w>
dem ark</w>
dra ma</w>
Sha uk
bar dier</w>
cra shes</w>
Ang el</w>
Pu t</w>
hi kes</w>
pur suit</w>
Pa tent</w>
Ver sion</w>
trea ted</w>
Por to</w>
Bom bardier</w>
Fla sh</w>
bat ting</w>
bat tery</w>
inven tory</w>
ling ton</w>
nar row</w>
mand u</w>
circu it</w>
Sett lement</w>
Sin ai</w>
establ ished</w>
MI AM
persu ade</w>
custo dy</w>
Rat ings</w>
Gazpro m</w>
Portsm outh</w>
Giamb i</w>
Shauk at</w>
2 39</w>
2 19</w>
C risis</w>
D ha
E cc
F red</w>
F ame</w>
G at
G roups</w>
J erry</w>
L ight</w>
O reg
T own</w>
a be
k om</w>
l ton</w>
n ear
w ise</w>
th ra
an x
be red</w>
be leagu
lin ers</w>
on g
ti stics</w>
ic als</w>
ri ot</w>
id1 25
id1 60
In stead</w>
wh oles
the ory</w>
Ch ancellor</w>
wor ms</w>
id9 80
id7 19
id2 14
id2 25
id2 35
id2 75
id2 90
id3 29
id3 35
id3 88
id5 79
id11 19
id11 15
id4 78
id4 40
id4 88
id6 80
pl edge</w>
id10 75
Sh oo
vis ited</w>
bas ic</w>
stri king</w>
Col gate</w>
stra in</w>
car tel</w>
ret reat</w>
inte rested</w>
contro ls</w>
Bar ric
Shar p</w>
fil mmaker</w>
blo c</w>
stron gest</w>
Ru ud</w>
men to</w>
AD S</w>
Ri v
draw ing</w>
inst all</w>
inst alled</w>
canc eled</w>
Hun gary</w>
upgra des</w>
Rog ers</w>
celebra tion</w>
Vie w</w>
eg ger</w>
San ta</w>
North east</w>
Produc tion</w>
answ ers</w>
semi final</w>
repea t</w>
jud ges</w>
escap ed</w>
reduc tion</w>
BUR G</w>
aband oned</w>
electric al</w>
Bet ter</w>
zen egger</w>
sop h
Schwar zenegger</w>
stab il
desper ate</w>
green house</w>
long time</w>
casu alties</w>
match up</w>
deton ated</w>
Ibra him</w>
Sac ra
MIAM I</w>
Oreg on</w>
beleagu ered</w>
1 39</w>
1 24</w>
1 27</w>
4 30</w>
A ni
C air
F ALL
G angu
H A
K yle</w>
L and
O t
P ep
P leads</w>
b onds</w>
c argo</w>
f air
i ther</w>
m m
p ile</w>
r it
s or</w>
s ag
s nap</w>
u ght</w>
th rows</w>
be er</w>
ra mp
ag ue</w>
as ser
ow ns</w>
di an</w>
le stone</w>
to bacco</w>
ee l</w>
tra il</w>
id3 38
id5 19
id5 35
id5 60
id11 14
id11 26
id11 78
id11 90
id4 19
id4 39
id6 60
id6 90
id10 76
id10 90
Is sue</w>
pre ne
Al leg
fe els</w>
so m</w>
ER P</w>
sl ight</w>
Wi red</w>
tele phony</w>
Tur n</w>
competi tor</w>
reg istered</w>
doc ument</w>
priv acy</w>
kidnapp ing</w>
Mac ro
reli ever</w>
Bur ma</w>
Rel ief</w>
chec k
Mu qtada</w>
Exp ands</w>
reb ounded</w>
shut out</w>
mom ents</w>
gl omer
Sel ls</w>
occu p
aband on</w>
NO V
disrup tions</w>
sca m</w>
Aussi es</w>
Sov iet</w>
Possi ble</w>
Sacra mento</w>
Gangu ly</w>
1 34</w>
1 32</w>
2 34</w>
2 37</w>
3 19</w>
3 32</w>
A y
A stra
A stronau
K an
L PGA</w>
M y</w>
P rison</w>
t as</w>
t une</w>
re ite
re mark
st aged</w>
il a</w>
ra di
at h</w>
Th ese</w>
lo yal</w>
li sts</w>
id1 80
qu ille</w>
Re presen
sh u
con firm</w>
su bur
Ne goti
off shore</w>
id2 26
id2 50
id4 18
id4 50
id10 40
lu crative</w>
Al most</w>
leg end</w>
fac tion</w>
Ste m</w>
sw eet</w>
ous and</w>
esti mate</w>
sub po
Sha quille</w>
EN T</w>
vir tually</w>
bor o</w>
presid ency</w>
War ming</w>
enn e</w>
tele visions</w>
Tur ns</w>
inten ds</w>
alleg ing</w>
hun ger</w>
sla mmed</w>
Mer c
squ are</w>
roc kets</w>
Ri val</w>
telec oms</w>
Mat the
clin ical</w>
trac king</w>
Hon ey
Produc ts</w>
shoc ks</w>
Port land</w>
Threa tens</w>
MON TRE
sala ry</w>
OC TO
spectac ular</w>
plagu ed</w>
Ecc lestone</w>
Barric hello</w>
2 36</w>
2 31</w>
3 23</w>
D el</w>
I ll</w>
L U
S mi
c ements</w>
d or
d les
m bol</w>
o tive</w>
p al</w>
s ley</w>
s elected</w>
t ol
z ne
en counter</w>
ar rival</w>
it z
ri f
op inion</w>
si tion</w>
con glomer
comp ound</w>
bu o
po is
00 2</w>
id9 98
id7 18
id11 98
id6 19
Mar i
Sh ow
Sh ould</w>
Sh ef
De lay</w>
Su tton</w>
Ar ound</w>
hol idays</w>
cal endar</w>
We igh</w>
sig nal
bur st</w>
Ste ven</w>
La tham</w>
cor ner</w>
hand ling</w>
enn a</w>
Coun try</w>
Mus ic
secu red</w>
Bas que</w>
olu tions</w>
polic emen</w>
eff ectively</w>
Isla m</w>
CA IRO</w>
men tal
mit ting</w>
Tri b
dam ages</w>
cour ts</w>
wil dlife</w>
John ny</w>
presen ted</w>
Milit ant</w>
Ca stro</w>
Hop e</w>
Stra te
Cy ber</w>
Corpor ate</w>
cau tion</w>
RI M</w>
Chil ean</w>
counter part</w>
Agre ement</w>
foo t
Kidnapp ed</w>
Prob lems</w>
tough er</w>
colum n</w>
exerc ise</w>
Hamp shire</w>
Opter on</w>
East man</w>
abs ence</w>
Astra Zen
MONTRE AL</w>
Shef field</w>
2 24</w>
3 28</w>
3 26</w>
A ustin</w>
C L</w>
D w
E ff
E very
G race</w>
H end
L A
M P</w>
V og
Y ush
r ard</w>
s bury</w>
t ying</w>
re fe
en th
ti lity</w>
at i</w>
oun ced</w>
to x
id2 28
id2 98
id6 70
id6 98
gu idance</w>
id10 30
St ay</w>
Com ing</w>
Sh rine</w>
Mo ore</w>
gra b</w>
war s</w>
tin o</w>
poin ted</w>
Bu cc
hol m</w>
hol der</w>
sha red</w>
We igh
grow n</w>
bom bed</w>
US TR
cam ps</w>
58 5</w>
Bar rel</w>
tem per
Ear thqu
succ e
ob j
Dec ision</w>
figh ter</w>
deli be
fres hman</w>
stu ff</w>
Lu is</w>
UR T</w>
import ance</w>
AK E</w>
Kee ps</w>
ben ch
Cas ey</w>
disappoin ted</w>
Ku zne
plat forms</w>
Argen tine</w>
Kaz akh
Bul ls</w>
He isman</w>
Bay er</w>
recomm end
Polic y</w>
inspi red</w>
democra tic</w>
OCTO BER</w>
Trib une</w>
Bucc an
1 38</w>
2 14</w>
3 18</w>
3 38</w>
C old</w>
L ic
L ex
M en
S am</w>
W NBA</w>
c ea
g edy</w>
n ant</w>
s ac
v ous</w>
in tr
re public</w>
on er</w>
ic ate</w>
es si
id1 30
id1 98
ov an</w>
Re gi
wh ales</w>
le header</w>
ru gby</w>
ab led</w>
00 5</w>
00 4</w>
00 7</w>
id9 10
id3 70
id8 70
id11 70
id10 98
tur moil</w>
gi o</w>
acc usations</w>
ho p</w>
tr an</w>
Bo y</w>
Austr alians</w>
Li br
Sa ve</w>
col leagues</w>
App eals</w>
ant as
disc ussions</w>
Lo ve</w>
Si tes</w>
Ya o</w>
Comp etition</w>
Pa k</w>
TH ER
Bel tran</w>
PD A</w>
Mid dles
identi fy</w>
Blo g</w>
tre m
gol den</w>
cy cling</w>
floo ding</w>
Thom son</w>
popu larity</w>
north eastern</w>
Ke ith</w>
met res</w>
Emp loy
ILL S</w>
POR T</w>
Silver stone</w>
River a</w>
detain ees</w>
BLOOM FIELD</w>
AstraZen eca</w>
Yush chenko</w>
3 12</w>
3 36</w>
3 14</w>
3 24</w>
3 21</w>
3 27</w>
A verage</w>
G lo
M R
M be
M IN
N ears</w>
P aper</w>
R U
S O
S ON</w>
S ky</w>
T as
T ough</w>
U A
f lu
g ar</w>
p 2
te es</w>
la bels</w>
er re</w>
st ability</w>
am en</w>
ri o
as ylum</w>
op posed</w>
si sting</w>
wh om</w>
ex ec</w>
tw in</w>
ru st</w>
rea ction</w>
sp ur</w>
comp an
00 8</w>
du bbed</w>
se fire</w>
id7 20
id2 19
id2 10
id2 20
id2 30
id2 70
id5 98
id11 20
id4 20
id10 20
and o</w>
ste pping</w>
200 9</w>
dea ling</w>
rac tive</w>
De lays</w>
gra ph</w>
Jo in</w>
tri bunal</w>
cl oning</w>
sti ck</w>
Col lins</w>
Bla zers</w>
ga ther</w>
Cen dant</w>
44 0</w>
blo ckbuster</w>
Del i
Gr id</w>
Pe troleum</w>
mid dle
ts ova</w>
wr iting</w>
state ments</w>
atten dants</w>
Sus ilo</w>
Ga p</w>
Ben ite
Stra ight</w>
Sum mit</w>
pun ch</w>
South west</w>
gl ory</w>
adop t</w>
astronau t</w>
origin ally</w>
deploy ed</w>
Clar ke</w>
chip maker</w>
moder ate</w>
Xinhu a</w>
advoc ates</w>
business man</w>
Craw ford</w>
Vog ts</w>
Kuzne tsova</w>
Kazakh stan</w>
Buccan eers</w>
Mbe ki</w>
Benite z</w>
B on
B loo
C AN
L O
L and</w>
L ose</w>
M A
P et
S AS</w>
S anctions</w>
T op
Y or
b rough</w>
b bing</w>
d d</w>
d it
d ed
e a</w>
j ans</w>
x on</w>
in k
re h
ti a</w>
st ac
ra ge</w>
ra ins</w>
ac o</w>
Th under
com promise</w>
co stly</w>
du ty</w>
mo de</w>
id9 30
id9 70
id7 70
id7 98
id3 10
id3 98
id8 10
id8 30
id5 10
id5 70
id11 10
id4 10
id4 30
id4 98
id6 30
id10 10
av iation</w>
inc or
mp tion</w>
Wor ldwide</w>
Su e</w>
ven s</w>
Al coa</w>
cap ped</w>
fac tor</w>
Po st
tel roo
Ger rard</w>
sup ports</w>
cor nerback</w>
cri pp
land slides</w>
negoti ate</w>
mas termin
deta iled</w>
loc ker</w>
Nu ke</w>
Fu jit
Rea ches</w>
scre ens</w>
bri efly</w>
prison er</w>
pati ent</w>
apol ogi
viola ted</w>
Stu dios</w>
challeng ing</w>
impl emen
Jaz z</w>
Clim b</w>
mist ake</w>
mist akes</w>
Inde pend
purchas ed</w>
Avi v</w>
Aussi e</w>
differen ces</w>
Nis telroo
swim ming</w>
CF O</w>
Ful ham</w>
Sli ps</w>
near by</w>
Honey well</w>
conglomer ate</w>
Fujit su</w>
2 23</w>
D E</w>
D ean</w>
E N</w>
E L</w>
E very</w>
F TC</w>
G l
J in
K enter
L ev
M AN</w>
M anny</w>
S I
S low</w>
W ould</w>
Z ur
a ides</w>
c ker</w>
e w</w>
j sters</w>
m ps</w>
x i
x e</w>
ea ting</w>
an cy</w>
id er</w>
al ed</w>
at ories</w>
am a
un known</w>
un certain</w>
id1 70
comp ar
00 6</w>
id9 20
id8 20
id4 70
id6 10
Mar at</w>
Mar sh
ie ve</w>
dis arm</w>
inc umbent</w>
tu ral</w>
dec lines</w>
Ar rested</w>
tri ple</w>
ju res</w>
ban kers</w>
grow s</w>
20 th</w>
hal ted</w>
El ena</w>
sta ys</w>
EN G
fun eral</w>
Bra dy</w>
bla sted</w>
Mus eum</w>
fea turing</w>
Med al</w>
Bel ow</w>
inf ected</w>
Gar den</w>
Ken yan</w>
13 th</w>
resol ved</w>
knoc kout</w>
May be</w>
demonstra ted</w>
Cli jsters</w>
Rev olution</w>
sud den</w>
sav ings</w>
Mee ting</w>
Run ning</w>
wrec kage</w>
Arro yo</w>
Kath mandu</w>
block ade</w>
crun ch</w>
coc aine</w>
Opportun ity</w>
Riv als</w>
Nistelroo y</w>
Kenter is</w>
7 25</w>
D or
D enn
J ump</w>
K ey
N vid
O ther</w>
S wee
S cre
U BS</w>
a wards</w>
d amp
i us</w>
k icks</w>
m y
m oud</w>
p on</w>
th ir
la sh</w>
id den</w>
ti ans</w>
il es</w>
is s
ed er</w>
ed ding</w>
ta bles</w>
con cl
con gressional</w>
rea s
ab uses</w>
id3 30
id11 30
tor neys</w>
id10 70
Mar cus</w>
De ta
NE T</w>
des ktops</w>
der ly</w>
As ks</w>
cam pus</w>
hom ers</w>
inte resting</w>
Ab dul
Ear th
Per fect</w>
Bi o
rev olu
Pl ant</w>
ques tionable</w>
OU N
Star ts</w>
Lu ke</w>
Ty ler</w>
Law suit</w>
distribu tor</w>
rich est</w>
Bl un
survi val</w>
Hop ing</w>
Loc kh
subscri ption</w>
GO O
top ped</w>
rig ging</w>
Fil m</w>
experi enced</w>
Sant ana</w>
wra pped</w>
Tele kom</w>
Cour se</w>
compon ent</w>
Ell ison</w>
Concer ns</w>
Arm strong</w>
Chur ch</w>
FALL U
Zur ich</w>
Lockh eed</w>
3 17</w>
3 31</w>
4 th</w>
B C
D H
D ale</w>
E mi
F A
F at
G C</w>
G ren
H ow
M d</w>
N ar
S cra
V ar
d rought</w>
s p</w>
s am
t ore</w>
en ged</w>
en ez</w>
ti l
st ric
al ese</w>
ac tivist</w>
ch air</w>
sh y</w>
con tac
tion ally</w>
ex ample</w>
Ch ampion</w>
00 9</w>
mo tor
id7 10
id7 30
id5 30
exp enses</w>
mon itors</w>
Sh ei
Su isse</w>
Ar med</w>
tal ent</w>
olog ist</w>
prov ing</w>
Br on</w>
fa ke</w>
ef ul
invest ments</w>
Le Bron</w>
pri mary</w>
Sch ro
shor tly</w>
Pu bl
blo g</w>
fra g
Tro jans</w>
Dec line</w>
broad cas
regula tions</w>
doc tor</w>
jum ps</w>
Mas ter
reli ev
Rom anian</w>
visi onal</w>
by e</w>
FO X
bre x</w>
tum bled</w>
bran ch</w>
won der</w>
short stop</w>
side lined</w>
Head s</w>
Jim enez</w>
adap ters</w>
decisi ve</w>
Cele brex</w>
Terror ism</w>
best os</w>
Middles brough</w>
Nvid ia</w>
Emi rates</w>
2 18</w>
A rea</w>
A wards</w>
B R</w>
B in</w>
B am
G etting</w>
I C</w>
K raft</w>
L et
L loy
R us
S ee
S TO
W O
c ite</w>
c ei
f ights</w>
h oo
m ly</w>
s mart
s worn</w>
y n
be lon
ur ge</w>
am bus
ch ron
un ity</w>
qu its</w>
ed on
con taining</w>
im possible</w>
id3 20
id8 98
mar ines</w>
ev al
tr i</w>
shi pped</w>
Mo ya</w>
man i
ang le</w>
est yle</w>
vi o</w>
ran k</w>
Russi ans</w>
econom ies</w>
sid er</w>
read s</w>
Fi res</w>
Sha rehol
Di plom
Cen trino</w>
mem or
under way</w>
Vo ice</w>
ob serv
ome ter</w>
gr ity</w>
ent re
Go ing</w>
Span i
ba g</w>
comb ination</w>
jour ney</w>
Hop kins</w>
Dou ble</w>
Hus kies</w>
Vic ti
tow ns</w>
withdraw n</w>
slu gger</w>
program ming</w>
ALL AH</w>
Brea k</w>
lus ter</w>
Exten d</w>
travel ers</w>
Bud get</w>
Mah moud</w>
guerr illa</w>
Scienti fic</w>
fro zen</w>
Jeff rey</w>
volc ano</w>
video tape</w>
Esti mates</w>
Maur ice</w>
Mega wat
Ani mation</w>
remark able</w>
E ADS</w>
G mail</w>
P TI</w>
R SS</w>
W ash</w>
a erospace</w>
i ons</w>
m at</w>
u k</w>
v is</w>
in vi
re marks</w>
er ror</w>
on ym
ro vers</w>
st al
st ance</w>
st ated</w>
ch i</w>
lo aded</w>
id1 20
In jury</w>
ad ults</w>
por ters</w>
de l</w>
comp reh
bu ff
00 3</w>
id5 20
id11 66
id6 20
mon opol
dis sid
acc uses</w>
da ughter</w>
De puty</w>
coun cil</w>
sc ar</w>
Ar n
tri bal</w>
AN N</w>
cla ssic</w>
To bacco</w>
br igh
plo tting</w>
Gre g</w>
76 ers</w>
me te
AR T</w>
Bar cla
IS S</w>
explo sive</w>
77 6</w>
Mil ls</w>
comple tely</w>
id100 0
sing er</w>
stron gly</w>
pan els</w>
ref using</w>
acquisi tions</w>
gam bling</w>
Bob cats</w>
Brea ks</w>
Sain sbury</w>
estab lish</w>
cell phone</w>
tex tile</w>
interc ep
Ral ph</w>
Tam il</w>
Wo ol
RAM ALLAH</w>
deter i
ricul ture</w>
Macro media</w>
cea sefire</w>
Bam bang</w>
Megawat i</w>
C P
F ea
G RE
K U
L ord</w>
M B</w>
M es
P rin
S n
S cand
W R</w>
W en
b ber</w>
b ears</w>
b anning</w>
c ig
d ry</w>
e v</w>
g ay</w>
o las</w>
t man</w>
t act</w>
u te</w>
y es</w>
te ra
la tors</w>
be d
en o
ag e
ed itor</w>
co w</w>
co ast
ul ous</w>
um in
ve ling</w>
ci ent</w>
tro op</w>
Con serv
enti ves</w>
tu cky</w>
gra v
Bo xing</w>
AN A</w>
out standing</w>
comm and
fol lows</w>
ush es</w>
hom e
bra ced</w>
publ ishing</w>
77 5</w>
spo ken</w>
Lo ses</w>
Sen ator</w>
reg ain</w>
Ed itor</w>
Ru le</w>
attemp ted</w>
deli vers</w>
My lan</w>
Ken tucky</w>
identi fication</w>
aff ili
parti al</w>
Ter rell</w>
defic its</w>
Org anisation</w>
defea ting</w>
Wea ther</w>
Ve ter
integra te</w>
scho ol
compla ints</w>
convic tion</w>
plead s</w>
Contin ues</w>
helicop ters</w>
individ uals</w>
Soldi er</w>
drin k</w>
drin ks</w>
Rol ls</w>
nan dez</w>
night mare</w>
compon ents</w>
Increa se</w>
fat al</w>
Naz i</w>
pornogra phy</w>
birth day</w>
Blun kett</w>
C iv
K in
L un
M id</w>
M um
M ain
O ur</w>
O AK
P lea
P RE
R over</w>
T ry</w>
Y esterday</w>
b ic
c kers</w>
d ar</w>
o co
o ther
p rus</w>
s ors</w>
s kills</w>
t son</w>
v o</w>
w rest
in noc
th ousand</w>
la ser</w>
ar ray</w>
ter ri
ch iefs</w>
ri e</w>
ta o</w>
por n</w>
comp lic
tra dition</w>
ul ty</w>
id7 44
id7 66
id8 44
bo ards</w>
dis man
tr and</w>
tro pical</w>
ess ment</w>
dec lining</w>
cl oud</w>
fe e</w>
19 98</w>
Ro e
Sec ret</w>
Qu at
sha ky</w>
car maker</w>
tel li
Le ft</w>
49 9</w>
AR D</w>
Tw enty</w>
Off ensive</w>
50 2</w>
Gu ar
Ho tels</w>
77 7</w>
id100 8
Ber trand</w>
Stri kes</w>
Sur ge</w>
downlo ading</w>
Bur eau</w>
Wil son</w>
Mor oc
Pho to
coll ection</w>
speci alist</w>
distribu ted</w>
Boo sts</w>
Cy prus</w>
team ed</w>
spar k</w>
resol ving</w>
athle tic</w>
SM S</w>
resp ect</w>
mus cle</w>
shoc ked</w>
protec ting</w>
Plan et</w>
hit ter</w>
chur ch</w>
solic ited</w>
Frank lin</w>
occur red</w>
Warri ors</w>
Smi th
bench mark</w>
Jin tao</w>
Schro eder</w>
B MW</w>
C lea
C ON
D EN
F D
H ackers</w>
M IL
M igu
S olutions</w>
T ies</w>
T rin
V ER
a ware</w>
b is
c offee</w>
e h</w>
k ick
r us
s in</w>
t onom
th ed</w>
la ck
lin er</w>
ro tation</w>
ro yal</w>
el ig
id1 44
ap olog
fir med</w>
id9 55
id2 66
id4 66
id6 44
id6 66
id10 66
Mar ket
dis plays</w>
An cient</w>
hel lip</w>
tr one</w>
tri o</w>
des cen
jo y</w>
pen sions</w>
Prof es
execu tion</w>
ai k
Man uel</w>
tru m</w>
Ha wai
Med i
Ac counting</w>
Pi erce</w>
Bro thers</w>
expec ting</w>
Cl ear</w>
spi rit</w>
Law makers</w>
survi ve</w>
disappoin tment</w>
Kid d</w>
Gri ff
spea k</w>
Drea m</w>
tho dox</w>
may or</w>
cul ture</w>
Conf idence</w>
enab led</w>
Doc tors</w>
sprin ters</w>
Dead line</w>
conn ected</w>
shadow ed</w>
saf ely</w>
Thunder bird</w>
Migu el</w>
D ay
D oom</w>
F ili
G ir
H ILLS</w>
O l
O scar</w>
P un
R ich</w>
R io</w>
T ON
W er
d og
e ting</w>
f ishing</w>
g ling</w>
h edge</w>
h ang</w>
p raise</w>
s ank</w>
v i</w>
re ments</w>
en cer</w>
ic o</w>
es te
es el</w>
ra w</w>
Th ough</w>
lo cated</w>
id1 55
ex ecs</w>
por tal</w>
to y</w>
af i</w>
Ne ed</w>
tra gedy</w>
id9 44
id7 55
id2 44
id5 44
gu s</w>
id10 44
id10 55
mer ly</w>
Mo tley</w>
gra tu
Su u</w>
pre m
AF C</w>
go sla
fo rest</w>
pres sing</w>
iz es</w>
Par ad
comm and</w>
bro kers</w>
Ad ams</w>
Ad verti
kn owl
form ing</w>
fun ction</w>
org anis
77 0</w>
hear t
campa igns</w>
Cla sh</w>
edu c
pe troleum</w>
id80 8
id20 8
mid night</w>
id60 8
id50 8
quali fy</w>
doub leheader</w>
stu dies</w>
Mu ch</w>
Mor ris</w>
Du ke</w>
Red mond</w>
Law suits</w>
hy brid</w>
wri ters</w>
prin ters</w>
moun ting</w>
Nep alese</w>
anim al</w>
resp ond</w>
advis er</w>
Bran ds</w>
teen age</w>
encoura ge</w>
introduc ing</w>
Kel ly</w>
liqu id</w>
Slo v
Yu gosla
fal se</w>
emo tional</w>
gene tic</w>
Bun des
Portu gal</w>
shru gged</w>
Hist ory</w>
UC LA</w>
Custom ers</w>
dee per</w>
xi mately</w>
entre prene
Roe buck</w>
4 15</w>
4 25</w>
A ud
A way</w>
A yad</w>
F ro
L G</w>
L illy</w>
R A
S I</w>
S C</w>
S hel
S end</w>
S ome
T ren
V illa</w>
b its</w>
b alls</w>
h in
k ar
n one</w>
p raised</w>
v ig
y gen</w>
an onym
re well</w>
er ial</w>
ti p</w>
ro te</w>
Th ose</w>
id1 66
pro tocol</w>
ed e</w>
ed ings</w>
oun der</w>
ta wa</w>
tw ist</w>
Ch am
off season</w>
id9 66
id2 55
id3 44
id3 66
id5 55
id4 44
id4 55
id6 55
fin dings</w>
Au ction</w>
ca uses</w>
De fic
En ter</w>
Wor ld
ven ess</w>
Min ing</w>
br anded</w>
kn ock</w>
sl iding</w>
tou ched</w>
succ essive</w>
56 0</w>
77 2</w>
New sp
inten tion</w>
45 9</w>
anti cip
Lo sses</w>
pit ches</w>
id30 8
id110 8
dispu tes</w>
Don ovan</w>
Mac edon
Sil vio</w>
cy ber</w>
Enter prises</w>
multi media</w>
prosecu tion</w>
drea ms</w>
fiel ds</w>
Cas ino</w>
Ky i</w>
var iety</w>
proper ly</w>
rough ly</w>
swit ches</w>
opportun ities</w>
experim ents</w>
Sett les</w>
Mour ning</w>
smo ke</w>
encoura ged</w>
plu g</w>
Ron al
gad gets</w>
Prosecu tors</w>
ori ented</w>
Ray mond</w>
extinc tion</w>
Wri ter</w>
bull pen</w>
Ot tawa</w>
Abdul lah</w>
STO CK
Quat trone</w>
B ash
C it
E duc
F air
G round</w>
G ovt</w>
H B
K F
O s</w>
T oward</w>
U F
W MC</w>
e b</w>
k ud</w>
m aster</w>
p net</w>
re ra</w>
on i</w>
ti ced</w>
ra dar</w>
ur a</w>
ch ose</w>
sa ved</w>
res earcher</w>
ta x
ma tically</w>
for merly</w>
sp reading</w>
Ch ea
id3 55
id8 55
id11 44
id11 55
ni x</w>
fin anci
ve t
ann on</w>
exp ress</w>
exp ense</w>
bo oming</w>
eop ar
Sh or
rac ist</w>
cl early</w>
19 th</w>
pres s
Bu t
out break</w>
Col o</w>
Par aly
anc est
Li kud</w>
sw app
Le on
Di p</w>
Dav id
Dis c</w>
Dis k</w>
Be ta</w>
Dem enti
under go</w>
blo cking</w>
din osa
id40 8
id70 8
id90 8
chall enged</w>
Ta keover</w>
My sk
tg ages</w>
MP s</w>
MP AA</w>
Update 4</w>
Tea ms</w>
Bur un
Exp o</w>
Ter m</w>
Ty rone</w>
Hun garian</w>
wal king</w>
jun ior</w>
improv ements</w>
Wom an</w>
gus to</w>
licen ses</w>
expl oration</w>
boun ce</w>
od ds</w>
purchas es</w>
ASE AN</w>
Sach in</w>
restaur ant</w>
Spi rit</w>
Reli ance</w>
Intro duc
Cair o</w>
Represen tatives</w>
Matthe w</w>
FOX BOR
0 m</w>
5 36</w>
B ou
D ur
E d</w>
F ar</w>
G as
G em
G len
L I
O u
P IT
S ev
U L
U P</w>
V augh
W M
W rig
b ay</w>
b ans</w>
g est
j o</w>
n ish</w>
t an</w>
t ful</w>
th um
head lines</w>
it on</w>
ro id</w>
ter nal</w>
ag no
In fla
ad equ
bu yer</w>
lea k</w>
id8 66
id5 66
sec tion</w>
fi xes</w>
bo dan</w>
hea ted</w>
att acking</w>
Con oco
war l
Ex ecs</w>
cl ears</w>
To dd</w>
Pal mer</w>
Li fts</w>
all est</w>
20 10</w>
bur ning</w>
invest ing</w>
mi x</w>
read ies</w>
69 9</w>
59 5</w>
proc esses</w>
Vi enna</w>
quarter backs</w>
War s</w>
regu lation</w>
tru ce</w>
77 1</w>
Rec ei
gr and
initi atives</w>
tour ism</w>
coll ect</w>
Fer n
Ur ban</w>
Super Sonics</w>
cat cher</w>
Gam ing</w>
Austri an</w>
argu ments</w>
protec ted</w>
enjo yed</w>
conv inc
constitu tion</w>
Slo bodan</w>
valu able</w>
deleg ates</w>
ough ts</w>
differen ce</w>
marg in</w>
Dy nam
extrem ely</w>
half way</w>
academ ic</w>
medic ine</w>
Bill iton</w>
simultane ously</w>
reite rated</w>
sam ples</w>
Mysk ina</w>
Wrig ley</w>
7 37</w>
B anc
F lo
F eds</w>
J ac
J Boss</w>
W oes</w>
Y A</w>
Y ou
f ec
f ty</w>
f lies</w>
g ery</w>
m ans</w>
m ice</w>
m ood</w>
n ell</w>
p lead</w>
s election</w>
an i
ro oms</w>
al bu
am ing</w>
am az
ch e</w>
ri ver</w>
com ment</w>
sh ops</w>
sh attered</w>
su b</w>
de buts</w>
ab using</w>
se ize</w>
ver dict</w>
gu ys</w>
ph as
Mar keting</w>
gh lin</w>
Au gusto</w>
dec iding</w>
tal e</w>
Ma x
cap it
Ro d</w>
leg acy</w>
Br and
Co st
mu d</w>
So oners</w>
cen tra
no tes</w>
Pla ying</w>
59 0</w>
fun ded</w>
AG UE</w>
77 8</w>
77 3</w>
Char lton</w>
fic ial</w>
45 7</w>
Hea vy</w>
author ized</w>
err ors</w>
Phili p</w>
Me g
Me tro</w>
Du bai</w>
upgra ding</w>
Execu tives</w>
Fre ed</w>
tribu te</w>
Stand ards</w>
Dun hill</w>
gla ss</w>
auth or</w>
conven tional</w>
Bos nia</w>
uph eld</w>
hang ing</w>
nav ig
legisla tive</w>
Labor atories</w>
spur red</w>
Conc ern</w>
Stock holm</w>
authenti cation</w>
indefin itely</w>
Dispu te</w>
Dha ka</w>
occup ation</w>
p2 pnet</w>
Profes sional</w>
Dementi eva</w>
7 20</w>
G rea
H and</w>
M EL
N V</w>
O d
P P</w>
P ass</w>
R ain
R oundup</w>
W ade</w>
e re
f arm</w>
g ig
g ood
m ouse</w>
s ed
t one</w>
w ear</w>
z ation</w>
te ars</w>
be heading</w>
or ia</w>
ro cks</w>
es ome</w>
ol dest</w>
ol ive</w>
Ne v
ste mming</w>
dis crimin
An dre
Sp encer</w>
No tes</w>
Ph armaceuticals</w>
eng aged</w>
49 3</w>
Di ff
form ats</w>
Bar bad
crea tes</w>
explo it</w>
Har die</w>
Ho ya</w>
46 0</w>
77 4</w>
Coun tries</w>
investig ations</w>
Cla shes</w>
down town</w>
Ra id</w>
consid ers</w>
broad er</w>
Ver i
appro ximately</w>
FRAN KF
trans port</w>
tour ist</w>
stitu tion</w>
Ni ke</w>
stu ck</w>
inst al
commer ci
Cl eric</w>
gun fire</w>
Lar a</w>
wel comes</w>
Fe w</w>
Charg ed</w>
EM BER</w>
surpris ingly</w>
spea king</w>
Inte gra
peace keeping</w>
Oper a</w>
ley ball</w>
experim ent</w>
met al</w>
testi mony</w>
disrup ted</w>
recogni tion</w>
Bos nian</w>
Ramad an</w>
architec ture</w>
proce edings</w>
orb iting</w>
Weigh s</w>
telli tes</w>
Conoco Phillips</w>
Barbad os</w>
FRANKF URT</w>
7 00th</w>
B s</w>
C re
C row
D ig
D ual</w>
D oping</w>
H ague</w>
J ury</w>
K as
L is
N ow
N elson</w>
O thers</w>
P lot</w>
S OU
U T</w>
c overing</w>
d able</w>
f i</w>
k a
k in
p ride</w>
s ari</w>
t ank</w>
w as
w rote</w>
z i</w>
z ie</w>
an ta</w>
re views</w>
id eas</w>
ti fy</w>
il ever</w>
un disclosed</w>
li kes</w>
ha il</w>
com man
pro to
em brace</w>
ear ning</w>
ap es</w>
for th
de tention</w>
co s
ul ls</w>
id2 96
ud ed</w>
inc y</w>
ho sted</w>
Sh oppers</w>
att ackers</w>
Sp ammers</w>
sc an</w>
Ar t</w>
Bo dy</w>
Al l
fo e</w>
Res pon
Can cel
Co x</w>
Co rey</w>
br ink</w>
ach ieve</w>
Ph ishing</w>
Ste ps</w>
conc eded</w>
wea pon</w>
tic a</w>
Un ilever</w>
ay a</w>
pi rated</w>
har dly</w>
Ra ise</w>
mat ched</w>
uni verse</w>
AC K
Dea ths</w>
Invest ments</w>
Blo ck</w>
Nas a</w>
loc ations</w>
ba il</w>
Explo sion</w>
main ly</w>
emp ire</w>
promo ting</w>
jun ction</w>
prin ci
stun ned</w>
side line</w>
extra dition</w>
Pic tures</w>
Clar k</w>
barg ain</w>
turn around</w>
enab les</w>
lig a</w>
ML S</w>
conn ect</w>
cred itors</w>
Bern ard</w>
strength ening</w>
accomp l
politic ian</w>
nas daq</w>
Guill en</w>
bour ne</w>
TOW N</w>
unanim ously</w>
ele ph
Gat lin</w>
NOV EMBER</w>
Arn old</w>
Bundes liga</w>
H eld</w>
I X</w>
I Pod</w>
L at
O f
P ut
S wi
S asser</w>
T ab
T ER
V and
W W
d ary</w>
d ating</w>
h an
i que</w>
n ing
s porting</w>
s kep
t at
te ers</w>
la sting</w>
re p
ro per
st amp</w>
st opping</w>
al ong
ra h</w>
ra tions</w>
ra tt
Th i
un solicited</w>
lo ved</w>
pro lif
In iti
In dic
res ulted</w>
em ing</w>
em ic</w>
Re la
Re fu
oo dy</w>
di p</w>
pla stic</w>
rec alls</w>
ver i
id3 56
id8 96
id5 96
id4 56
id10 96
tur f</w>
um m
over turn</w>
Mon da
ste ep</w>
Mar ks</w>
dis h</w>
An sari</w>
mis m</w>
Inter fax</w>
sea led</w>
Ar rest</w>
Jo ins</w>
gen dary</w>
out i</w>
Qu ake</w>
For get</w>
ach ers</w>
high way</w>
bom bers</w>
Gre y</w>
As s
contin ent</w>
read ers</w>
Fi fth</w>
sta ying</w>
we ren</w>
sk ies</w>
ga la
69 8</w>
40 3</w>
Bar ro
77 9</w>
Rec ording</w>
45 5</w>
sla ms</w>
ob tained</w>
ob stac
Def ending</w>
CA S</w>
appoin tment</w>
ty pes</w>
Out put</w>
organiz ers</w>
High bury</w>
sy mb
Kor eans</w>
gol fer</w>
main tained</w>
awa its</w>
Wa ve</w>
Adv ances</w>
Den ies</w>
lth ard</w>
21 st</w>
BA Y</w>
promo tion</w>
opti cal</w>
hon or</w>
militi as</w>
militi amen</w>
rob at</w>
Je ter</w>
Cou lthard</w>
Commun ist</w>
introduc es</w>
frustra ted</w>
100 th</w>
recru its</w>
spot ted</w>
fle e</w>
decisi ons</w>
deliver ing</w>
Pav ano</w>
Lithu ania</w>
enth usi
Lex mark</w>
Marsh all</w>
compreh ensive</w>
Barcla ys</w>
Defic it</w>
along side</w>
B P</w>
B rent</w>
D riv
K A</w>
M O</w>
R e</w>
W A
W an
a h
b lown</w>
f a</w>
f ing</w>
g ross</w>
h anding</w>
j ol
k inson</w>
n ears</w>
r iding</w>
s ample</w>
t r</w>
w ish</w>
x el</w>
ou ting</w>
ro of
ic ed</w>
ra il
ra il</w>
is lands</w>
ch ap
un covered</w>
ri ft</w>
ag ement</w>
li on</w>
as sured</w>
ov en</w>
pro bes</w>
con tain</w>
ex es</w>
di visions</w>
du ties</w>
id2 56
id8 56
pp y</w>
St age</w>
ci ences</w>
mer ch
dis rupt</w>
da iry</w>
inc idents</w>
Sh er
tro phy</w>
att acker</w>
sea l</w>
sc rap</w>
Ar chi
Al ban
inter vention</w>
ash es</w>
oper ative</w>
anc ements</w>
Li ving</w>
eng es</w>
esti val</w>
spec trum</w>
so ar</w>
me g
ai red</w>
fol lowers</w>
AL A</w>
ush ing</w>
48 8</w>
48 0</w>
40 2</w>
Wi Max</w>
stor ing</w>
46 4</w>
IC H</w>
clu b
port s
Tex ans</w>
pe pper</w>
fre estyle</w>
mea ning</w>
Ac robat</w>
sett ling</w>
Def ends</w>
pic king</w>
land slide</w>
Tri p</w>
quali fied</w>
Sur gery</w>
Ri vers</w>
Acc used</w>
aff airs</w>
strate g
predic ts</w>
Ben ef
Manag ers</w>
hur dles</w>
lear ning</w>
Super computer</w>
view ers</w>
Contin ue</w>
Telec ommunications</w>
bel l
influ ential</w>
ogra phic</w>
villa gers</w>
Gro k
Mess enger</w>
exce pt</w>
coordin ator</w>
Ramad i</w>
Imp act</w>
Suspen ded</w>
Tour nament</w>
compati ble</w>
behavi or</w>
Denn is</w>
Sharehol ders</w>
Educ ation</w>
Nev ada</w>
Monda vi</w>
B h
B Y</w>
B order</w>
F ear</w>
H AV
I ca
K IE
P ris
R ash
S or
U td</w>
c in
c rushed</w>
d r
g ry</w>
i bility</w>
s essions</w>
w ron
y bean</w>
in ev
in iti</w>
te ment</w>
te books</w>
th ick</w>
ea ger</w>
la shed</w>
re presents</w>
ti ming</w>
ic an</w>
ic ken</w>
ra ided</w>
el ity</w>
ol bar</w>
am oun
lo d
pro pri
sh ine</w>
ear ns</w>
con centra
wh i
le v
Ch o
mo red</w>
our ce</w>
id7 96
id11 56
id10 56
repor ter</w>
ho sting</w>
Com m
Sp ot</w>
Ar ts</w>
tal ked</w>
Ser bia</w>
Br id
win dow</w>
dem ol
Col e</w>
So sa</w>
app earing</w>
car bon</w>
dic tator</w>
indu stries</w>
nu ts</w>
sk irts</w>
ER T
69 7</w>
69 0</w>
59 1</w>
hom eland</w>
form ula</w>
68 0</w>
Tra vel
Cen tre</w>
80 s</w>
At ten
har der</w>
Lo sing</w>
sla in</w>
pe tro
Ac tiv
eff icient</w>
AC H</w>
Cam initi</w>
Cap e</w>
Dea ls</w>
Im age</w>
pat rol</w>
Ow n</w>
emp ty</w>
Wea pons</w>
insu la</w>
tac tics</w>
Chall enges</w>
Dam on</w>
peace ful</w>
Mel bourne</w>
testi fied</w>
West wood</w>
fire wall</w>
particip ate</w>
Hosp it
Acqu ire</w>
ulti mate</w>
ich iro</w>
cyber security</w>
house hold</w>
Hot mail</w>
Bell South</w>
enem y</w>
BOUR NE</w>
refe ree</w>
Victi ms</w>
Griff in</w>
Yugosla v</w>
Bash ir</w>
Paraly mp
Burun di</w>
Infla tion</w>
MEL BOURNE</w>
forth coming</w>
Ica hn</w>
KIE V</w>
4 11</w>
A IN</w>
C ov
C ut
C rystal</w>
F ourth</w>
H oo
I O</w>
J F
K ie
O val</w>
P E</w>
R ole</w>
S ear
c ov
c el</w>
d enti
h es</w>
i op
o k</w>
o tic</w>
t up</w>
w alls</w>
ea th</w>
en tr
it ational</w>
ro p</w>
ic king</w>
ter ia</w>
ol ph</w>
at ro
am ilit
un a</w>
ne sty</w>
qu es</w>
res tive</w>
con sequ
di pped</w>
sp are</w>
to ys</w>
Ne eds</w>
tra demark</w>
id9 96
id7 56
id8 46
id5 46
id11 96
id6 96
id10 46
over shadowed</w>
lu c
min ds</w>
fu els</w>
wa ste</w>
Min isters</w>
19 95</w>
For t</w>
high light</w>
dra matically</w>
Win ning</w>
49 1</w>
bar red</w>
69 1</w>
69 3</w>
59 9</w>
48 4</w>
ill ness</w>
40 8</w>
60 8</w>
lan a</w>
prob able</w>
Brit ons</w>
lit z</w>
fil tra
under going</w>
45 4</w>
ob vi
Comp le
concer t</w>
wat chers</w>
Am ster
foc using</w>
trans action</w>
wid ened</w>
Hen in</w>
Gra ham</w>
curren cies</w>
spe eds</w>
Lar ge</w>
team ing</w>
AI G</w>
gri m</w>
Hy nix</w>
Os se
ABU JA</w>
With in</w>
Web S
BUR GH</w>
PR IN
recomm ended</w>
Commun ity</w>
Jen kins</w>
Author ities</w>
Quarter back</w>
boun ced</w>
person nel</w>
let te</w>
GE NE
liqu id
Blu es</w>
Jun ichiro</w>
Assa ult</w>
Ah med</w>
Stru ggling</w>
fort unes</w>
dump ing</w>
Eth iop
Bargh outi</w>
psy ch
Gren ada</w>
Shei kh</w>
Master Card</w>
monopol y</w>
cig aret
Amster dam</w>
5 30</w>
B ASE
C i
C ay
D R</w>
D O</w>
G O</w>
H ay
J umps</w>
M s</w>
M ea
N um
P rac
R BI</w>
S ul
S AL
U g
W S
a rena</w>
d t</w>
g ence</w>
h ints</w>
n b
n or</w>
p in</w>
u gly</w>
w w
in sp
th ea
re in</w>
on au
ar rang
ch man</w>
un fair</w>
li be
li sting</w>
id1 46
id1 56
id1 96
ap ology</w>
ex cited</w>
por tion</w>
ab b</w>
rec alling</w>
id7 46
id2 46
id5 56
id11 46
id4 96
ci ers</w>
ca teg
Sh ane</w>
Wor k
au tonom
Sp ring
Ar k
inter face</w>
stri p</w>
out going</w>
15 th</w>
Joh ans
fa ith</w>
gg s</w>
gg ers</w>
no se</w>
sm a</w>
fol ks</w>
48 2</w>
48 3</w>
fun dam
vir tu
rema inder</w>
Fo ster</w>
mun ici
Be yond</w>
Ha as</w>
Rec all</w>
45 2</w>
45 6</w>
Sen ds</w>
pe i</w>
Bas ed</w>
Ber kel
Ac ross</w>
Ru gby</w>
Hu ge</w>
Tai pei</w>
any where</w>
equi pped</w>
Da ys</w>
canc el</w>
main stream</w>
awa it</w>
her self</w>
distribu te</w>
Bre men</w>
defin e</w>
hur dle</w>
cro p</w>
Jor d
Susp ects</w>
conten tion</w>
circu lation</w>
plun ge</w>
smo king</w>
introduc tion</w>
Criti ci
refl ecting</w>
alo g</w>
ball istic</w>
modi fied</w>
institu tions</w>
Sach s</w>
Rescu ers</w>
BANG K
substanti al</w>
Luk oil</w>
DS L</w>
hydro gen</w>
Hend rick</w>
GOO G</w>
eval u
mani pu
Mum bai</w>
convinc ing</w>
ww w</w>
Johans son</w>
Berkel ey</w>
7 11</w>
7 12</w>
7 17</w>
7 14</w>
7 23</w>
7 35</w>
7 34</w>
7 33</w>
A HE
B ee
B ase</w>
C ink</w>
E AST</w>
F air</w>
G ig
K ent</w>
K illing</w>
N amed</w>
P oc
R ing</w>
R ig
S ex
S tory</w>
S tel
S even
S vet
T AI
W ee
b b
i ffs</w>
p r
p ig
t ance</w>
in i</w>
re verse</w>
or ities</w>
lin ary</w>
ti mate</w>
st um
es ted</w>
li ties</w>
ha u
ta pped</w>
igh ty</w>
con gratu
ad dic
for man
comp ly</w>
per formed</w>
ul ting</w>
id6 46
id6 56
ni ka</w>
ph i</w>
An nika</w>
inc entives</w>
Inter state</w>
tr illion</w>
tro om</w>
mp ed</w>
Jo se
govern ance</w>
vis a</w>
Can on</w>
bea ch</w>
Col es</w>
Par cells</w>
Li ft</w>
eng agement</w>
49 7</w>
49 0</w>
sub mitted</w>
69 6</w>
69 5</w>
58 1</w>
58 8</w>
brea ch</w>
59 4</w>
Fin ally</w>
68 6</w>
68 7</w>
tou ts</w>
50 9</w>
ill ance</w>
40 6</w>
40 7</w>
60 2</w>
60 5</w>
60 3</w>
mor tgages</w>
Or thodox</w>
cru ise</w>
Sy base</w>
Tur n
hun ters</w>
Cla im</w>
Hou sing</w>
Fac ing</w>
attemp ting</w>
appro ached</w>
Cap ri
Cap tain</w>
suff ers</w>
Mu g
canc elled</w>
The Deal</w>
mag ic</w>
main land</w>
Soc i
awa iting</w>
her al
discus sed</w>
scand als</w>
nation als</w>
crac ked</w>
Ku mar</w>
foun d
foun ders</w>
Eas es</w>
Inv itational</w>
Ten n</w>
Buil d</w>
Cro ati
shel ves</w>
BAL CO</w>
enh anced</w>
Nic olas</w>
expl ore</w>
McN abb</w>
tun nel</w>
conv ince</w>
fer red</w>
frustra tion</w>
marg ins</w>
secre tly</w>
Bern hard</w>
extrem ists</w>
glo be</w>
Repor ter</w>
Antar ctic</w>
dep th</w>
screen saver</w>
Lig a</w>
Princ ess</w>
wholes ale</w>
ded icated</w>
Introduc es</w>
Thi erry</w>
club house</w>
nb sp</w>
7 39</w>
7 30</w>
7 18</w>
7 16</w>
7 21</w>
7 22</w>
7 26</w>
B all</w>
C y</w>
D ER
L ows</w>
N N</w>
N OR
P ace</w>
P AU
T ri</w>
V in
V accine</w>
W PP</w>
d h
h idden</w>
m ud
s an
s lows</w>
t ched</w>
u pper</w>
w edding</w>
in cial</w>
re ques
or dering</w>
un defeated</w>
un manned</w>
ri c</w>
as p
wh ist
di al</w>
ma m</w>
bu g</w>
oc cas
du rable</w>
id9 46
id9 56
id3 46
id3 96
ann els</w>
dis abled</w>
Pro test</w>
ass essment</w>
Wor king</w>
gra bs</w>
wa its</w>
Se bas
des igns</w>
sti ff</w>
bus es</w>
Bu c
Op ening</w>
Co sta</w>
cal e</w>
cal cu
Li by
We is</w>
Goo sen</w>
RE S</w>
Ste p</w>
Ko st
me work</w>
49 5</w>
69 2</w>
58 9</w>
58 4</w>
59 2</w>
59 7</w>
hom etown</w>
48 6</w>
48 5</w>
68 3</w>
17 th</w>
50 1</w>
50 6</w>
50 5</w>
50 7</w>
40 9</w>
Mc Ken
60 9</w>
60 1</w>
stor ies</w>
har m</w>
Ham za</w>
fil ling</w>
45 1</w>
45 3</w>
Del phi</w>
Comp uters</w>
CH ARL
gr ounds</w>
Ru be
OU GH</w>
Tri es</w>
commun ities</w>
lif y</w>
Wal lace</w>
initi ally</w>
aver t</w>
Exp ects</w>
Ty son</w>
lab our</w>
sli pping</w>
coll ective</w>
mur dered</w>
Bry an</w>
prepar ation</w>
slu m</w>
cat ching</w>
web sites</w>
veter ans</w>
Mem bers</w>
assist ance</w>
iev es</w>
Kel log
hit a</w>
yu an</w>
ny se</w>
Nis san</w>
frequ ency</w>
evacu ate</w>
Environ mental</w>
Scienti st</w>
hot test</w>
weak ened</w>
countr ys</w>
sand wich</w>
Proper ty</w>
Brad ley</w>
soph is
check point</w>
Vaugh an</w>
Fern ando</w>
BANGK OK</w>
Svet lana</w>
reques ted</w>
Kellog g</w>
4 20</w>
7 28</w>
7 29</w>
7 31</w>
7 38</w>
D ALL
H ud
J up
M akers</w>
N ame</w>
P at</w>
Q tr</w>
S ame</w>
T W
T r
T IM
U ran
W eeks</w>
a use</w>
b ic</w>
c an
f ed</w>
f antas
g ree</w>
h amp
l ending</w>
o dom</w>
p oo
s ick</w>
t down</w>
u tes</w>
w ary</w>
w rap</w>
in eered</w>
th es</w>
th wart</w>
la tes</w>
re build</w>
be ry</w>
ti ps</w>
Th ink</w>
lo m</w>
com mod
In d</w>
Re p</w>
di ving</w>
for um</w>
ru d
ru ral</w>
sp am
per forman
id4 46
ten se</w>
ph an</w>
St ut
ste aling</w>
mon etary</w>
Sh in
Al bert</w>
Ro sen
air ports</w>
Nor odom</w>
win dows</w>
Op ti
et te</w>
fa res</w>
35 th</w>
so l</w>
49 2</w>
49 6</w>
Ad vis
we ight
bar rier</w>
58 2</w>
58 6</w>
58 7</w>
59 6</w>
59 3</w>
Mi k
48 7</w>
68 9</w>
68 1</w>
68 8</w>
50 3</w>
40 4</w>
60 4</w>
IS H</w>
bor rowing</w>
pi rates</w>
Har rison</w>
IC ANN</w>
Tur in</w>
under went</w>
ew al
rev olution</w>
down gra
ner vous</w>
lay er</w>
jum ping</w>
Cam bridge</w>
clim bing</w>
The o</w>
Hun t</w>
revea ling</w>
bir die</w>
cro ssing</w>
prepar ations</w>
rescu ed</w>
labor atory</w>
Power ful</w>
che er</w>
Sel ling</w>
sear ched</w>
Cou ghlin</w>
cha e
Salv ador</w>
separati sts</w>
barg aining</w>
aggres sively</w>
DU BAI</w>
plea se</w>
pain killer</w>
aud it</w>
Jim my</w>
Pon ting</w>
ulti mately</w>
proj ected</w>
secre ts</w>
Rescu e</w>
restric tions</w>
Que be
apar tment</w>
Alber ta</w>
correc t</w>
lef tist</w>
Ank ara</w>
techni que</w>
tox ic</w>
Libr ary</w>
compan ys</w>
thir ds</w>
Deta ils</w>
reliev ed</w>
Spani ard</w>
coast al</w>
Slov ak
UF J</w>
PIT TS
Jose ph</w>
Capri ati</w>
Mug abe</w>
DALL AS</w>
performan ces</w>
1 bn</w>
4 22</w>
5 75</w>
7 10</w>
7 13</w>
7 32</w>
A zer
B it
C ore</w>
C AM
G ad
H D
I cel
I mam</w>
K night</w>
K ati
L ane</w>
M IC
P RO
Q at
R ow</w>
S op
S port</w>
S TE
T an
V inc
a o</w>
a stro
b ear</w>
e er</w>
h iding</w>
j eopar
k it</w>
m ech
n ights</w>
s oil</w>
in ced</w>
in filtra
th al</w>
th oughts</w>
re luc
id ad</w>
lin i</w>
un ted</w>
un wanted</w>
lo g</w>
ag ers</w>
ne ither</w>
as bestos</w>
sa bo
sh eet</w>
oo p</w>
di ver
di agno
por tra
ing ent</w>
pla te</w>
mo du
bo tt
ca sts</w>
mp se</w>
NE APOLIS</w>
sc ams</w>
des ire</w>
des igner</w>
Ro ss</w>
leg round</w>
Ser vers</w>
out fit</w>
bi lateral</w>
14 th</w>
high lights</w>
nu tri
70 s</w>
Pla t
Fi at</w>
49 8</w>
49 4</w>
bar s</w>
58 3</w>
68 2</w>
68 4</w>
50 8</w>
ill on</w>
40 5</w>
Cen tur
acqu ires</w>
60 6</w>
Dar ren</w>
Or bit
publ ishers</w>
War ne</w>
investig ated</w>
45 8</w>
na sty</w>
unve iling</w>
enter prises</w>
Pi x
respon ded</w>
he igh
Franc is</w>
Cel lular</w>
Dev ils</w>
Wil dlife</w>
pat ched</w>
spi ke</w>
Ga la
sli ps</w>
coll ision</w>
Sour ces</w>
multi billion</w>
Boo ks</w>
Tran sport</w>
Mal one</w>
Chil d</w>
bru ised</w>
Bron x</w>
advis ers</w>
mig ration</w>
Vis a</w>
Clem son</w>
Sl ide</w>
sex ually</w>
Clo ser</w>
Trans portation</w>
thr one</w>
turn overs</w>
reac ted</w>
neighbor ing</w>
Fel ix</w>
strength ened</w>
dump ed</w>
Strea k</w>
goal keeper</w>
Guer rero</w>
clou ds</w>
Hut ch
incor por
other wise</w>
lack luster</w>
bell we
McKen zie</w>
Hud son</w>
PITTS BURGH</w>
Orbit z</w>
4 32</w>
7 15</w>
B ac
C T
C rown</w>
F oo
G U
G b
L ie
L AKE</w>
M ine</w>
M ak
P ear
S istani</w>
T ar
T racy</w>
T rying</w>
T ask</w>
V E</w>
W hol
a sting</w>
a tically</w>
c rushing</w>
f ly
f ications</w>
i ter</w>
m ound</w>
p ill</w>
s i</w>
s ounds</w>
t ag
v a
te ar</w>
re present</w>
it age</w>
ro y
ra ced</w>
ra tely</w>
is o
is ure</w>
ur i</w>
ec tor</w>
ac ts</w>
ac ting</w>
ig no
at ures</w>
am end
ch oo
Th anks</w>
us eful</w>
lo cu
ag ra</w>
op ic</w>
sa fer</w>
res hu
ap points</w>
ex clu
di esel</w>
for get</w>
sp ate</w>
comp o
oc ean</w>
over sight</w>
ste n</w>
Mar wan</w>
min es</w>
An il</w>
Pro mis
enti rely</w>
gra ve</w>
loo m</w>
ban ker</w>
Bu ying</w>
Ro eth
out skirts</w>
az i
Br ing</w>
sel ler</w>
Po stal</w>
Canad ians</w>
tel escope</w>
so ars</w>
58 0</w>
59 8</w>
48 9</w>
48 1</w>
Gu ide</w>
60 7</w>
Nov ak</w>
crea m</w>
66 0</w>
55 3</w>
campa igning</w>
Pre pa
Rec ords</w>
Mil iti
ques tioning</w>
den y</w>
beli ef</w>
Play off</w>
appro pri
val ent</w>
Roc k
Ta j</w>
super computing</w>
dam aging</w>
pil es</w>
Tai w
Im ages</w>
brow sers</w>
seem ingly</w>
Ca es
clin ching</w>
Stud ents</w>
autom atic</w>
Ama teur</w>
ola ted</w>
nation ally</w>
vol leyball</w>
arriv ing</w>
hur ting</w>
Pay ton</w>
sn ea
ling ering</w>
tum ble</w>
tran sist
ral lies</w>
Power Book</w>
mand ate</w>
key es</w>
premi um</w>
contribu ted</w>
chem icals</w>
Pass es</w>
collabor ation</w>
CAR E</w>
bad ly</w>
neighbor hood</w>
Spo t
esca lating</w>
McC ain</w>
Aff airs</w>
scar ves</w>
coo ling</w>
robo ts</w>
tail back</w>
detec ted</w>
Nag pur</w>
spl ant</w>
snapp ed</w>
Insu rers</w>
buo yed</w>
MIN NEAPOLIS</w>
deteri or
OAK LAND</w>
Trin idad</w>
Tren d</w>
roper ability</w>
PRIN CE</w>
Roeth lis
4 74</w>
7 24</w>
7 27</w>
8 50</w>
A pol
A stronomers</w>
B illy</w>
C IN
D IE
E ase</w>
G 4</w>
M L</w>
N ab
O li
Q 7</w>
S D</w>
V AN
V ital
W ire</w>
b il</w>
c rush</w>
c rystal</w>
d less</w>
f ounded</w>
g ation</w>
j i
p apers</w>
w ages</w>
z y
re structure</w>
er mo</w>
ti me
ti veness</w>
ou tra
ro ots</w>
st ats</w>
el derly</w>
ch annels</w>
Th ink
lo oms</w>
li st
sa tellites</w>
res ur
sh irt</w>
ad y</w>
for dable</w>
rea f
bu zz</w>
oc ks</w>
im mun
tra iner</w>
ke field</w>
pa ired</w>
ph en
St ron
ser ves</w>
ste al</w>
OR CL</w>
De layed</w>
ass ist</w>
Wor d</w>
au c
Jo sh</w>
des ign
sti r
IN Q7</w>
gen e</w>
cap tive</w>
Bu ck
vo ter</w>
vo ys</w>
iz ar
produc tivity</w>
win less</w>
Op ec</w>
Col l
ef ty</w>
conc ept</w>
Hol y</w>
cra ter</w>
69 4</w>
Cu be</w>
sl umped</w>
68 5</w>
reta ins</w>
50 4</w>
Vi agra</w>
44 9</w>
Sy n
Tur ner</w>
under mine</w>
inten t</w>
Ath lon</w>
fic ally</w>
char ity</w>
CO U
id20 9
BE ACH</w>
id90 9
hu b</w>
corpor ations</w>
AC K</w>
respon dent</w>
rej ecting</w>
Me te
activ ated</w>
pan sion</w>
bal lo
Bri ef</w>
Wil d
Rel eased</w>
Ap pa
atten ded</w>
sil ence</w>
main frame</w>
after math</w>
Pho tos</w>
Bang ko
sor ship</w>
Ben son</w>
hy pe</w>
Grow s</w>
ben eath</w>
defea ts</w>
Georg ian</w>
flo at</w>
Ba ham
Jav ier</w>
centur ies</w>
mode stly</w>
adop tion</w>
Stu dio</w>
Oper ating</w>
Susp ect</w>
control ling</w>
Rand olph</w>
quo tas</w>
enjo y</w>
conv inced</w>
func tions</w>
chas ing</w>
countr y
Rut an</w>
EC B</w>
Hard enne</w>
Music match</w>
eful ly</w>
Civ il</w>
Hawai i</w>
inev itable</w>
GENE VA</w>
Ark ansas</w>
Liby an</w>
Vital i</w>
Bangko k</w>
4 72</w>
4 bn</w>
7 19</w>
A ung</w>
B ad
B urt</w>
C NET</w>
N O</w>
N AS</w>
P EN
S S
S r</w>
T E</w>
V ID
W is</w>
c at</w>
d il
n ist</w>
n ature</w>
t ling</w>
v or</w>
w rist</w>
in coming</w>
re ward</w>
st ole</w>
al lah</w>
at t</w>
un identified</w>
ri bu
lo ads</w>
li ances</w>
ne g
In dy</w>
res orts</w>
tion ality</w>
ap ps</w>
ma x
de gree</w>
ab y
af fair</w>
mo bil
rou s</w>
lu ck</w>
ste el
str ange</w>
da y
Micro sof
Inter nal</w>
tr usted</w>
Con vic
Mo sque</w>
coun ty</w>
kil ome
Ex pansion</w>
Se x</w>
Bo de</w>
Al b
Ma yer</w>
prov incial</w>
tin i</w>
AN AHE
cla shed</w>
poin ting</w>
Bu s</w>
Bu cs</w>
ON E</w>
Res ume</w>
Ser gio</w>
Can as</w>
Op tions</w>
tech nolog
Co ors</w>
ach ov
app ly</w>
Car s</w>
sol ved</w>
bur ned</w>
no tebooks</w>
devel ops</w>
soc iety</w>
sm ashed</w>
sm allest</w>
we igh</w>
ret ali
sk in</w>
proc eed</w>
Bar rett</w>
hand ful</w>
56 5</w>
deb ts</w>
fea ts</w>
ob taining</w>
Pa ti
Gr ant</w>
id80 9
id110 9
Play boy</w>
mid st</w>
id70 6
id60 9
gr ant</w>
gener ated</w>
Am ban
id88 9
id118 9
appro aches</w>
Gar d
rej ection</w>
Bri en</w>
fron tier</w>
versi ties</w>
Soc iety</w>
ox ygen</w>
celebra ting</w>
shoo tout</w>
bri ef
PS V</w>
accep ts</w>
Egyp tians</w>
spea ks</w>
advis ory</w>
repea ted</w>
bran ches</w>
Spec ies</w>
Sim on</w>
Leg is
lis ten</w>
south western</w>
refl ect</w>
wra ps</w>
Cri me</w>
Ban king</w>
Hav ing</w>
gene tically</w>
evacu ated</w>
IND IAN
Laz ard</w>
Moun tain</w>
pra yers</w>
hospit als</w>
Shu i</w>
finger print</w>
Chem ical</w>
signal ed</w>
temper atures</w>
Scand al</w>
command ers</w>
DEN VER</w>
knowl edge</w>
anticip ation</w>
HB OS</w>
David son</w>
adequ ate</w>
JF K</w>
Jord anian</w>
Caes ars</w>
Roethlis berger</w>
ANAHE IM</w>
1 B</w>
4 10</w>
4 36</w>
4 13</w>
7 E
7 36</w>
A USTR
B AN
E C</w>
F S</w>
F C</w>
I ce</w>
I denti
J ay
J ail</w>
K AN
K umble</w>
L P</w>
M ing</w>
P a</w>
P R</w>
S W</w>
S mo
T X</w>
T esting</w>
U ne
V ick</w>
a w</w>
a xe</w>
i Po
j ected</w>
m am
m all</w>
n ice</w>
s ni
in formed</w>
ea ble</w>
la u
ti red</w>
ic ians</w>
om o</w>
ch amp</w>
Th an
ag ne</w>
con feren
oo s</w>
Ch amp</w>
to ssed</w>
im prison
du o</w>
rec rea
sec uring</w>
mar ched</w>
par amilit
dis close</w>
dis placed</w>
da ted</w>
Pro pos
att ached</w>
Sp y</w>
Ma ath
Min i</w>
19 90</w>
19 80s</w>
cla ssi
To tal</w>
Res idents</w>
Ser g
fac ts</w>
Qu in
Co operation</w>
Co alition</w>
Par tner</w>
app eti
No thing</w>
cas inos</w>
fa ult</w>
car di
bro thers</w>
Lin k
col on
Ger hard</w>
mi racle</w>
execu ted</w>
Le in
sta tistics</w>
AR M</w>
sm ooth</w>
Ad d
Fin als</w>
Fin ish</w>
Fin nish</w>
dru g
Tra in</w>
Tra ff
Mc Car
Per si
direc tories</w>
har m
Ha w
under lying</w>
qui res</w>
Des ign</w>
rev a</w>
comple tes</w>
fea tured</w>
reg ist
reg ister</w>
id100 6
Pe te</w>
id80 6
id30 6
id110 6
id40 6
id20 6
id50 6
id50 9
gener ic</w>
id98 6
id98 9
id78 6
id88 6
id68 9
id58 6
id108 9
err a</w>
err ing</w>
he els</w>
cour troom</w>
Val en
post p
coll ected</w>
visi ble</w>
conflic ts</w>
defin itive</w>
North rop</w>
PS FT</w>
accep table</w>
Rem ains</w>
knoc king</w>
Commer cial</w>
argu ment</w>
counter feit</w>
len der</w>
stret ched</w>
extra ordinary</w>
Sin n</w>
exam ine</w>
CS KA</w>
buy back</w>
Acqu isi
righ ted</w>
Succ ess</w>
narrow ly</w>
half time</w>
Fle et
consolid ation</w>
remin der</w>
Tem ple</w>
fair ly</w>
Employ ees</w>
concl usion</w>
Earth Link</w>
invi ted</w>
Wer der</w>
Parad orn</w>
amaz ing</w>
Veri Sign</w>
Vand er
Barro so</w>
Qat ar</w>
Pix ar</w>
Taiw anese</w>
4 18</w>
4 70</w>
4 79</w>
A x
B and</w>
B AS
B EL
B ids</w>
C LE
E ST</w>
H ilton</w>
K ea
K HAR
K ingdom</w>
M ir
N T</w>
O mn
P ushes</w>
R B</w>
R are</w>
R ange</w>
S G
S anti
T s
T ed</w>
V anc
V illen
W achov
b earing</w>
e ter</w>
h acker</w>
m i</w>
m ol
u c
u pro
u ty</w>
v es
re ts</w>
be tting</w>
er to</w>
ti fication</w>
ti cated</w>
ou st</w>
at torneys</w>
sa ves</w>
ow ski</w>
ta g</w>
con sen
su i</w>
de gre
sp rint</w>
po ison</w>
se eds</w>
mo ons</w>
tra des</w>
ke ters</w>
ph arm
par ach
min er</w>
De buts</w>
kil lings</w>
sc aled</w>
Al a</w>
mil d</w>
pres ti
inter ven
out lined</w>
fac tors</w>
win d
For mat</w>
cc i</w>
Fl ights</w>
eng ineered</w>
ide press
AR A</w>
sub mit</w>
Sha un</w>
brea th</w>
kn app</w>
rup tly</w>
issu ing</w>
Or der</w>
55 8</w>
56 9</w>
hear ings</w>
Rec alls</w>
hun gry</w>
conf usion</w>
Pe rez</w>
id60 6
priv ati
Fac tory</w>
foc uses</w>
id38 6
id38 9
id78 9
id18 6
id48 9
id58 9
id28 6
Star ting</w>
Wal ter</w>
trans portation</w>
ent less</w>
Me tro
organiz ed</w>
Lu c
equi valent</w>
indic ating</w>
Cl ick</w>
Red knapp</w>
crow ds</w>
Fu tures</w>
Bec ause</w>
discus sion</w>
Pen sions</w>
Fer rero</w>
HO LM</w>
cro ssed</w>
pack ages</w>
decla ration</w>
AI M</w>
Prote sters</w>
gri ev
ign ment</w>
tran sition</w>
argu ing</w>
Power 5</w>
Mem orial</w>
Athle tic</w>
arti sts</w>
conten der</w>
dig it</w>
extre me</w>
elimin ated</w>
reser v
Cav s</w>
side lines</w>
requi rements</w>
ko v</w>
subst ance</w>
Bud dh
barra ge</w>
inspec tor</w>
chip set</w>
fle et</w>
achiev ed</w>
road side</w>
Cop y
Labor atory</w>
ES TER</w>
Appl ications</w>
surren der</w>
Fron t</w>
blin d</w>
mastermin d</w>
Fat ah</w>
See king</w>
cov eted</w>
atro cities</w>
sabo tage</w>
INDIAN APOLIS</w>
Than ou</w>
Maath ai</w>
Lein art</w>
Valen tino</w>
Villen eu
Wachov ia</w>
4 17</w>
4 31</w>
5 m</w>
A im</w>
A AP
D illon</w>
E ver</w>
G in
H il
I g
O 2</w>
R ud
R edu
S ric
W on
W ann
b lows</w>
f ren
f oul</w>
g ang</w>
j am
j ols</w>
k ly</w>
p ts</w>
p son</w>
r he
s al</w>
w ound</w>
in struc
re te</w>
re bel
be ts</w>
ou ver</w>
ter ial</w>
ac ted</w>
Th ak
ri ers</w>
lo gic</w>
lo oming</w>
as ia</w>
ha r</w>
ha phan</w>
res ource</w>
em a</w>
ed es</w>
ed ia</w>
ta bly</w>
igh ted</w>
con tested</w>
ex citing</w>
di ox
le gendary</w>
for th</w>
for ge</w>
sp at</w>
sp ree</w>
sp aw
se ver
tra veling</w>
pl um
mar ried</w>
par ade</w>
par tly</w>
ci tes</w>
ste red</w>
bo at</w>
ho b
Sh rek</w>
Con tent</w>
Con firms</w>
shi eld</w>
Ex it</w>
Bo y
Bo x</w>
riti es</w>
ber ry</w>
19 97</w>
cla ss
prof essor</w>
fac tions</w>
pos session</w>
La b</w>
Ara bic</w>
conc rete</w>
ush ed</w>
Di e</w>
Fin ley</w>
tou ted</w>
acqu itted</w>
num erous</w>
org anisation</w>
44 1</w>
44 2</w>
44 4</w>
44 7</w>
66 5</w>
55 6</w>
Ho st</w>
46 1</w>
46 8</w>
46 3</w>
56 3</w>
Pu jols</w>
Do esn</w>
recei ves</w>
down ward</w>
id100 9
CH ESTER</w>
Ac adem
Pe tro
uni form</w>
kid ney</w>
id30 9
IL L</w>
id18 9
id48 6
id68 6
id118 6
trans actions</w>
wid th</w>
tg art</w>
Hu y
tenti ous</w>
gre eted</w>
indic ates</w>
bloo d
bir dies</w>
autom atically</w>
Dou gh
environ mental
Vic tor</w>
Thom pson</w>
Over ture</w>
athle te</w>
euro zone</w>
Vis it</w>
encoura ging</w>
lun ch</w>
Sk ulls</w>
sequ el</w>
temp t</w>
Down load</w>
yi elds</w>
bio technology</w>
Assa m</w>
cir c
Disc uss</w>
prop elled</w>
Regu lators</w>
Nat ural</w>
embarra ssing</w>
Ja iled</w>
surve illance</w>
Medic are</w>
Effor ts</w>
Vil la
Mari ano</w>
Glo be</w>
dit ch</w>
cei ling</w>
ambus h</w>
umin um</w>
elig ible</w>
Market Watch</w>
World Com</w>
STOCK HOLM</w>
albu m</w>
chap ter</w>
Jup iter</w>
Stut tgart</w>
Slovak ia</w>
Santi ago</w>
Vanc ouver</w>
Villeneu ve</w>
Sric haphan</w>
Thak sin</w>
4 19</w>
4 23</w>
4 34</w>
4 37</w>
4 75</w>
4 76</w>
5 19</w>
5 70</w>
5 bn</w>
A PEC</w>
A CAS</w>
F law</w>
G AM
J E
K im
L ance</w>
L arg
L umber</w>
N I
N y
N ed
O sw
S mart
S ciences</w>
T sun
V id
W ill
Y i
c on</w>
d run
d angers</w>
d ressed</w>
h ook</w>
l back</w>
m ered</w>
o t
o x</w>
p it</w>
p oured</w>
y ellow</w>
re es</w>
re mem
ti pped</w>
ar do</w>
ou tr
st ressed</w>
es hip</w>
ra v</w>
el ler</w>
ch icken</w>
li ers</w>
ne gl
ha bit
qu ez</w>
ed gling</w>
oun ces</w>
Re form</w>
bu gs</w>
wor sen
rou tine</w>
ni fer</w>
gu ese</w>
ten sion</w>
ph ew</w>
ann ually</w>
gi fts</w>
Con te</w>
Con gol
man eu
gen s</w>
cap ping</w>
cap ability</w>
cap tivity</w>
all ying</w>
all ist</w>
comm it</w>
Fl eming</w>
read er</w>
EL E
batt leground</w>
44 5</w>
66 6</w>
Ag riculture</w>
Be e</w>
cru ised</w>
Ho d
har sh</w>
ep id
46 9</w>
Pu erto</w>
ey ed</w>
rev ol
Tech s</w>
Lo eb</w>
sla lom</w>
hum ili
conf igu
pers istent</w>
Ari z</w>
id40 9
Bel ich
polic eman</w>
gener ate</w>
gener ally</w>
id28 9
perform ing</w>
negoti ator</w>
My s
TE D</w>
stu n</w>
Tel ev
lap tops</w>
Ty co</w>
Green e</w>
jour nal</w>
speci fication</w>
equ al</w>
celebra tes</w>
zz ling</w>
Vie ira</w>
spar king</w>
withdraw ing</w>
Big gest</w>
OT BALL</w>
FO OTBALL</w>
Dan ish</w>
Fa ils</w>
Ev idence</w>
licen sed</w>
Oper ations</w>
Hi ke</w>
tigh tening</w>
impl ement</w>
key board</w>
enh ancing</w>
trig ger</w>
Jen nifer</w>
south eastern</w>
surr ounded</w>
DR AM</w>
sprin ter</w>
CAR ACAS</w>
mour ning</w>
acceler ate</w>
Cele bra
consul ting</w>
Libe ration</w>
Ji ang</w>
stel lation</w>
Portu guese</w>
restaur ants</w>
Laz io</w>
Fid el</w>
Fid elity</w>
Floo ds</w>
immig rants</w>
Tun g
unlea shed</w>
Agen cies</w>
vio lation</w>
Alleg ed</w>
Strate gy</w>
BC CI</w>
WO O
bed ded</w>
gest ure</w>
Refu g
petro l</w>
BASE BALL</w>
Poc ket</w>
sophis ticated</w>
Uran ium</w>
Quebe c</w>
Whol es
Kea ne</w>
Huy gens</w>
Congol ese</w>
Belich ick</w>
3 A</w>
4 24</w>
4 21</w>
4 28</w>
4 35</w>
4 26</w>
4 29</w>
4 77</w>
4 71</w>
C ities</w>
D I
D ak
F ull</w>
H IV</w>
O g
S ports
T on
T ens</w>
U ef
W AT
W EL
k ens</w>
p ine</w>
s ister</w>
s na
w eary</w>
te ed</w>
la p</w>
re organization</w>
ti er
ou k</w>
ic it</w>
ur ry</w>
el bow</w>
ac uation</w>
at ol
ch at</w>
un clear</w>
us age</w>
ha ils</w>
Re ported</w>
ta ps</w>
ta ste</w>
sh ell</w>
ad ei</w>
ma x</w>
ma inten
le tting</w>
ab o</w>
ab ruptly</w>
Ch er
to ya</w>
im er</w>
mo tiv
tra ins</w>
tra ined</w>
rou tes</w>
tor ture</w>
fin ances</w>
fi ber</w>
Mon toya</w>
mar red</w>
mon ds</w>
ff er</w>
Pro bes</w>
Sp lit</w>
Ar ti
Ex tre
cl ist</w>
19 70s</w>
pres erve</w>
inter ior</w>
et t</w>
app an</w>
fl edgling</w>
sol id
sid ed</w>
Air craft</w>
sus hita</w>
run ners</w>
sm ic</w>
Ad d</w>
AL L</w>
AL CS</w>
ret rea
develop ments</w>
Off ering</w>
44 3</w>
66 9</w>
66 4</w>
66 7</w>
55 5</w>
Shar ply</w>
Ho kies</w>
46 7</w>
56 2</w>
under standing</w>
deb ates</w>
fra u
Compu ting</w>
Pa is
id70 9
id90 6
Cha in</w>
PE I</w>
commun ication</w>
Cap it
Cra shes</w>
avo ided</w>
Law rence</w>
requ iring</w>
arm ament</w>
tar iffs</w>
crimin als</w>
Dou bles</w>
ight ning</w>
Ve er
add resses</w>
prin ting</w>
Colum bus</w>
Vol vo</w>
copy righted</w>
che ese</w>
Dun can</w>
impres sed</w>
associ ated</w>
Criti cal</w>
ind exes</w>
fash i
Anti trust</w>
WE ST</w>
Peter sburg</w>
overwhel ming</w>
stel lar</w>
intensi fied</w>
robo tic</w>
Kur dish</w>
immig ration</w>
api xel</w>
Hispan o</w>
Candid ates</w>
HA I</w>
innoc ent</w>
proto type</w>
Swi ft</w>
Osse tia</w>
Num bers</w>
commod ity</w>
VAN COU
KHAR TO
AAP L</w>
Tsun ami</w>
Will is</w>
Wholes ale</w>
Uef a</w>
mainten ance</w>
VANCOU VER</w>
0 th</w>
3 Com</w>
4 12</w>
4 14</w>
4 16</w>
4 27</w>
4 38</w>
4 78</w>
4 73</w>
A 9</w>
A O</w>
A DV
A void</w>
B ond</w>
C ool</w>
D in
E u
E E</w>
G ay</w>
G AR
G onz
K al
L AS</w>
N al
P icks</w>
S R
T F</w>
T ol
a iled</w>
b ite</w>
f ence</w>
f itting</w>
g rou
m ln</w>
s elec
s ounded</w>
v ian</w>
in tru
in sisting</w>
an et</w>
er ated</w>
ti e
ar d
ro ver</w>
al t</w>
ter son</w>
ri ots</w>
ne tic</w>
si mu
ov ina</w>
In side</w>
em phas
ex plan
co ol
wor ths</w>
rec la
Mon aco</w>
sur fers</w>
ste dt</w>
dis misses</w>
An y
ho l</w>
Com ments</w>
low ering</w>
De vice</w>
Sun Trust</w>
war ding</w>
Bo ise</w>
go s</w>
gen es</w>
ju ana</w>
ban dian</w>
ly n</w>
sha ped</w>
Co aches</w>
br is</w>
Joh an</w>
RE C
Sof t
Pla ys</w>
sk y
cor p</w>
Bar adei</w>
Pol ls</w>
44 6</w>
66 2</w>
66 8</w>
55 2</w>
55 7</w>
Shar man</w>
bla ming</w>
46 6</w>
56 6</w>
pass words</w>
din and</w>
employ ed</w>
lay offs</w>
Ed ges</w>
sem ents</w>
na tives</w>
dead lock</w>
id108 6
Pi peline</w>
PD As</w>
Bom ber</w>
Bom bings</w>
Wal kman</w>
Tor re</w>
IR S</w>
MP UR</w>
fres h
downlo aded</w>
Wil kinson</w>
Exp and</w>
NH L
ref uses</w>
Wa kefield</w>
NY S</w>
Mat sushita</w>
Fer dinand</w>
Grow ing</w>
Sal es
Ram allah</w>
Rob in</w>
Her nandez</w>
Ur ged</w>
BA E</w>
defin itely</w>
spar ks</w>
Ba ker</w>
cro ps</w>
jun ta</w>
AI R</w>
Mur phy</w>
moun ted</w>
mn ast</w>
athle tics</w>
Gam e
argu ed</w>
gas es</w>
enh ancements</w>
ond ary</w>
citi zen</w>
requi res</w>
assassin ated</w>
Spe ech</w>
Safe way</w>
dy nam
Reg gie</w>
Mee ts</w>
night club</w>
Mol son</w>
Mol ik</w>
Environ ment</w>
fort une</w>
gli mpse</w>
Open er</w>
rever sed</w>
guaran tee</w>
leng thy</w>
gall on</w>
preven ting</w>
McGra dy</w>
Bak eries</w>
Nation als</w>
dela ying</w>
Dee p</w>
Gy mnastics</w>
Wit nesses</w>
scru tiny</w>
sag a</w>
LU MPUR</w>
dissid ent</w>
Wool worths</w>
KU ALA</w>
Adverti sing</w>
Newsp aper</w>
Ronal do</w>
Glen n</w>
amoun ts</w>
TAI PEI</w>
Plat form</w>
Telev ision</w>
Tung sten</w>
Pais ley</w>
KHARTO UM</w>
Nal bandian</w>
4 39</w>
5 20</w>
5 29</w>
A k
D ue</w>
E T</w>
G S
H al</w>
H earing</w>
I NE
I II</w>
K il
L ag
L av
O E
P I</w>
P age</w>
T iny</w>
V iz
V end
Z afi</w>
b rew</w>
h all</w>
j ew
k id</w>
k up</w>
s k</w>
s ack</w>
v id</w>
v ow</w>
w yn</w>
in ches</w>
in mates</w>
te a</w>
re moving</w>
re eling</w>
or th</w>
ar bitration</w>
ou th
ra cial</w>
is tics</w>
el le</w>
un k</w>
us al</w>
as te
si m
In ven
sh oes</w>
ad mitting</w>
for tified</w>
to ss</w>
comp l
af fordable</w>
se izing</w>
wor thy</w>
ul tra</w>
id4 45
rou ted</w>
ke red</w>
Mon t
Mon ths</w>
sur plus</w>
ris en</w>
Mar io</w>
inc ur
Com es</w>
Sh ock</w>
Con stitution</w>
sc opic</w>
AN S</w>
med allist</w>
pres er
Bu y
Wh it
Br ig
Br ings</w>
pos ite</w>
Goo ds</w>
Ph ys
Palest ine</w>
Le h
Le vel</w>
AL ORE</w>
Sha q</w>
dro me</w>
hom ore</w>
kn orth</w>
consu mption</w>
Gu tier
Ab use</w>
crea tor</w>
mem ories</w>
66 1</w>
bor ne</w>
55 9</w>
55 4</w>
Ang lo</w>
46 2</w>
46 5</w>
56 1</w>
56 8</w>
56 7</w>
New sw
disc s</w>
Pre dic
Lo st</w>
pe lines</w>
char t</w>
Mis ses</w>
fur ious</w>
Tal la
Bom bing</w>
val ues</w>
My er</w>
Rad ical</w>
domin ating</w>
ANG HAI</w>
Blo gs</w>
Mu tual</w>
Low ers</w>
Fla ws</w>
autom akers</w>
Her itage</w>
promo ted</w>
Gla x
North eastern</w>
rel entless</w>
prin ter</w>
cat astro
critic ally</w>
Dan i
plead ing</w>
Cal gary</w>
mus eum</w>
counter parts</w>
Sain t</w>
tan ker</w>
SH ANGHAI</w>
destro y</w>
weigh ing</w>
lig ament</w>
Ban knorth</w>
Consid er</w>
innov ative</w>
Moham mad</w>
youn ger</w>
BANG ALORE</w>
salv age</w>
caf es</w>
Engine ering</w>
flex ible</w>
defi ant</w>
vari ant</w>
recommend ations</w>
swapp ers</w>
comman ding</w>
propri etary</w>
Rube ns</w>
Spot light</w>
Gard ner</w>
Link sys</w>
Gutier rez</w>
1 m</w>
2 Q</w>
4 33</w>
5 10</w>
5 40</w>
A Q</w>
A ge</w>
A ja
B ear
C at</w>
E ve
F F
F L</w>
F B</w>
F ew
G og
H AGUE</w>
N NN</w>
P AL
Q U
V ES</w>
W are</w>
X stra
d ale</w>
f estival</w>
h at
k icker</w>
l ighting</w>
m ir
m ere</w>
m ally</w>
m eat</w>
o be
o ted</w>
p etition</w>
s now</w>
s nu
t ing
x ers</w>
in flic
te achers</w>
an te</w>
re bu
re state</w>
re start</w>
er as
ti en</w>
ar gue</w>
il lu
om y</w>
ch est</w>
li ber
as se</w>
ov ic</w>
ha te
In quiry</w>
ed ure</w>
ear liest</w>
con qu
con tentious</w>
di et</w>
Ch ev
Ne ill</w>
lea p</w>
id9 45
id2 45
id11 45
rou ters</w>
ni um</w>
ke ted</w>
gu ided</w>
pa use</w>
fin alized</w>
um p
fi ted</w>
lu cky</w>
ann a</w>
St un
gi ous</w>
An y</w>
mis leading</w>
pol ling</w>
rac ked</w>
Wor m</w>
Ar rington</w>
Ex ec</w>
Al ter
AS T
def end
ran som</w>
fo es</w>
Sec tor</w>
Qu incy</w>
Op inion</w>
br illi
app lied</w>
boo k
with draws</w>
dra gged</w>
Ko s
no ticed</w>
me th
US T</w>
buil ds</w>
Un til</w>
Up set</w>
IS Ps</w>
see kers</w>
44 8</w>
66 3</w>
55 1</w>
56 4</w>
stud ying</w>
ath lon</w>
Si erra</w>
Bas ra</w>
uni ted</w>
mid size</w>
Pat h</w>
Pat terson</w>
Bow den</w>
Mas on</w>
super b</w>
ty pical</w>
reti ring</w>
fav our</w>
Fun k</w>
aff ecting</w>
parti san</w>
upgra ded</w>
autom otive</w>
Fe in</w>
Rob son</w>
Mov ing</w>
accep ting</w>
conduc ting</w>
maj ors</w>
Hom er</w>
represen tative</w>
tran sm
demonstra tion</w>
tigh tened</w>
conten ders</w>
Mit tal</w>
qualifi ers</w>
Gil lette</w>
guar ded</w>
Crea tive</w>
Gold wyn</w>
Tele graph</w>
bio tech</w>
particu lar</w>
By rd</w>
Wood ward</w>
innov ation</w>
confron tation</w>
Sab an</w>
Som al
Cab rera</w>
frag ile</w>
WebS phere</w>
munici pal</w>
Buc keyes</w>
bellwe ther</w>
Prepa res</w>
Baham as</w>
Amban i</w>
7E 7</w>
appeti te</w>
consen sus</w>
outr ight</w>
Mys tery</w>
Extre me</w>
Veer appan</w>
Newsw ire</w>
Aja x</w>
Xstra ta</w>
A ston</w>
C az
C alling</w>
D ate</w>
D ome</w>
E ach</w>
E cli
F an</w>
F ine</w>
F arm</w>
G AS</w>
J es
L one</w>
L ou</w>
M ead
M ist
M IT</w>
N am
N ai
N umber</w>
O tel
P ound</w>
P re</w>
P atch</w>
R ho
S ig
T um
W ood</w>
b i</w>
b ones</w>
d irty</w>
e line</w>
g rin
g earing</w>
n est</w>
t all</w>
t back</w>
in al</w>
th ur</w>
an air</w>
re vis
lin king</w>
st an
ra in
ra ys</w>
ri mp</w>
Re ven
con tained</w>
su m</w>
ex changes</w>
di g</w>
for tun
de ple
ab or
Ch ec
Ch ance</w>
comp liance</w>
po dium</w>
fir mly</w>
pla sma</w>
off en
id7 45
rou d</w>
ten ure</w>
mar ket
ci ous</w>
ci tement</w>
Mar vel</w>
Mar rio
bo sses</w>
rac ism</w>
De Lay</w>
En h
ass ess</w>
Wor th</w>
Wor ds</w>
au ge</w>
shi pment</w>
Sp rin
gra ced</w>
sc rea
dec ides</w>
Ar rests</w>
Ar bitration</w>
pre dec
wa ter
Jo ey</w>
Ex pl
des k</w>
cl ick</w>
Al ready</w>
sti f
prov o
est rian</w>
19 92</w>
med ics</w>
cla ri
So lar</w>
So ars</w>
stra pped</w>
Po ints</w>
sid ers</w>
sw ung</w>
ide lines</w>
Le isure</w>
so ybean</w>
lob by</w>
Gi ven</w>
tru th</w>
disc over</w>
Coun t</w>
shar k</w>
down hill</w>
Sen ten
Ber ti</w>
Ed ward</w>
cer y</w>
den ial</w>
chil d
uni versities</w>
Ry anair</w>
Mid way</w>
Sco res</w>
organiz e</w>
Ric hard
Explo sions</w>
comb ine</w>
ref usal</w>
Nex t
ham mered</w>
distribu ting</w>
recor ders</w>
every where</w>
Jer ome</w>
EM ENT</w>
orig in</w>
proper ties</w>
Lank an</w>
yon ic</w>
Sel ig</w>
jud gment</w>
tigh ten</w>
won dering</w>
scen es</w>
Forec asts</w>
enh ance</w>
UM B
Jen son</w>
foo tage</w>
person ic</w>
Reti re</w>
DU P</w>
Sk i
conven i
Dead ly</w>
frequ ent</w>
func tionality</w>
SAN TA</w>
discip linary</w>
Spea king</w>
Scho ols</w>
spir its</w>
Astronau t</w>
subpo en
Swee p</w>
eno ve</w>
Cancel s</w>
princi ple</w>
mech an
phen om
paramilit ary</w>
Wann stedt</w>
frau dul
Leh mann</w>
Few er</w>
Caz enove</w>
Otel lini</w>
Marrio tt</w>
Richard son</w>
2 bn</w>
3 bn</w>
4 3A</w>
5 12</w>
A dela
B RE
C ome</w>
C AL
G a</w>
G ran
H as
H app
J AN</w>
L ap
M UM
N ature</w>
P MG</w>
R ow
S lu
W hea
W azi
Y es</w>
b ackers</w>
d ell</w>
d ying</w>
e Server</w>
g ates</w>
i tions</w>
i hood</w>
m ale</w>
m ighty</w>
n op
n ow
n earing</w>
s ore</w>
s anc
s lew</w>
u tri</w>
z ar</w>
la cher</w>
id en</w>
be u</w>
er red</w>
or ange</w>
en cing</w>
it a</w>
it ated</w>
st y
st aging</w>
ra s</w>
is er</w>
is tering</w>
el ding</w>
ch ell</w>
op h
com mon
em aker</w>
ed er
ap pla
ap point</w>
ex posed</w>
de bu
de pend
de tect</w>
ru bber</w>
ab sor
sp ell</w>
Ch iron</w>
comp act</w>
im port</w>
im aging</w>
du mp</w>
se gment</w>
lea ked</w>
id3 45
id8 45
id5 45
id6 45
pa ving</w>
pa irs</w>
id10 45
St reng
dis armament</w>
ff led</w>
ho s</w>
Sh ev
De pt</w>
Con stellation</w>
coun ties</w>
Ex tra</w>
Se par
cl er
ang o</w>
IN S</w>
19 94</w>
cap ital
fo iled</w>
Ro h</w>
Ser ge
Qu ick
br ity</w>
der ail</w>
no torious</w>
me ga</w>
brea thing</w>
form ance</w>
Pol e</w>
Ear lier</w>
Har b
Sy mbol</w>
prote sting</w>
anti le</w>
Sea gate</w>
Ber na
Hea throw</w>
na ling</w>
CA PE</w>
OU T</w>
Val u
div ide</w>
Pit cher</w>
chec king</w>
Ap proval</w>
avo iding</w>
after shocks</w>
ham mer</w>
sli m</w>
speci fically</w>
appa rel</w>
Den mark</w>
zz le</w>
Sol berg</w>
Kee gan</w>
Dod ge</w>
BR IT
Ur ge</w>
ean t</w>
by pass</w>
Hom es</w>
swit ching</w>
He in
Cur se</w>
Rand all</w>
Jour nal
ry p
Ke ys</w>
OTT E</w>
Clo ses</w>
drin king</w>
Wol ver
plea sed</w>
MAN CHESTER</w>
aud itors</w>
Politi cs</w>
Cri min
vide os</w>
nomin ee</w>
nit ure</w>
Pul ls</w>
sop homore</w>
SAN TI
Xinhu anet</w>
spin ner</w>
Appl ication</w>
Log ic</w>
VE GAS</w>
spra ined</w>
blu ep
Ele ven</w>
Michel le</w>
Busin ess
Merc antile</w>
THER FORD</w>
RU THERFORD</w>
implemen tation</w>
Diplom ats</w>
kar nop
warl ord</w>
Diff e
Grok ster</w>
consequ ences</w>
obvi ous</w>
Cay man</w>
WS J</w>
Hutch ison</w>
Acquisi tion</w>
hate ver</w>
Adela ide</w>
MUM BAI</w>
Serge i</w>
Berna beu</w>
SANTI AGO</w>
karnop utri</w>
5 76</w>
A chil
A delphia</w>
C iting</w>
C ALI
D ir
F ru
F aster</w>
G all
J P
K I</w>
M el</w>
M ade</w>
N f
R att
R ouse</w>
S ag
T ire</w>
T ass</w>
T esco</w>
W IT
W ounds</w>
Y el
a stronom
e th</w>
f its</w>
h overed</w>
i ors</w>
m u</w>
p ct</w>
p ump</w>
r allying</w>
s lo
s by</w>
s ement</w>
s elect</w>
t ants</w>
t ones</w>
v ent</w>
w o
w ounds</w>
x 86</w>
y cle</w>
re pri
or ic</w>
ti re</w>
ar sen
it an</w>
it orial</w>
st ine</w>
st aff
al ter</w>
al co
om et
ur ban</w>
el ev
am y</w>
op posing</w>
pro visional</w>
qu ota</w>
ad ult</w>
por tedly</w>
ru bble</w>
ab used</w>
to sh</w>
af ford</w>
Ne bra
im ent</w>
im plan
Mon te
pu tt</w>
ev ol
dis mis
dis ruption</w>
dis closure</w>
An field</w>
da tes</w>
gra phy</w>
sc ope</w>
dec rea
Ar lington</w>
Al ger
cap s</w>
pres ses</w>
Bu en
Bu cks</w>
Ro ad
Ro bo
out lets</w>
Qu est</w>
oper ates</w>
Sou rav</w>
sol e</w>
RE VIEW</w>
der by</w>
bur den</w>
El Baradei</w>
sup pl
Di v
inte roperability</w>
cur se</w>
Ab du
Per u
Per formance</w>
Be ing</w>
Be tween</w>
enn y</w>
direc ted</w>
rela tive</w>
IC O</w>
blo gs</w>
Cla ss</w>
rev amp</w>
Si han
lay an</w>
Ed g
Ac quires</w>
Bel tre</w>
eff ici
Por n</w>
land scape</w>
he imer</w>
My SQL</w>
Sur prise</w>
super star</w>
trou bles</w>
power house</w>
fav ou
any way</w>
Lu x
indic ate</w>
indic ation</w>
rist an</w>
happ ens</w>
crow ned</w>
pay rolls</w>
PC I</w>
predic ting</w>
hor ror</w>
bul k</w>
bul lish</w>
Rob ot</w>
shoo ts</w>
contrac tors</w>
determin ation</w>
tack les</w>
hon our</w>
demonstra tors</w>
fail ures</w>
Oper ation</w>
exc eed</w>
archi tect</w>
short ages</w>
revi val</w>
defen ses</w>
Reti rement</w>
micro processor</w>
thr illing</w>
pain ful</w>
Bor land</w>
Domin ican</w>
COL UMB
Sie ge</w>
Increa ses</w>
trigg ering</w>
colum nist</w>
Lau ren</w>
Investig ators</w>
Back man</w>
charac ter
rever sing</w>
Trou bled</w>
Effor t</w>
embr yonic</w>
metho ds</w>
declar e</w>
revolu tionary</w>
Veter an</w>
Brand on</w>
wron g
Ethiop ia</w>
CHARL OTTE</w>
Kati e</w>
igno red</w>
Think P
Wild cats</w>
iPo ds</w>
presti gious</w>
Copy right</w>
Sales force</w>
Gog h</w>
Ecli pse</w>
Wazi ristan</w>
Sihan ouk</w>
4 Q</w>
5 22</w>
5 79</w>
5 43</w>
7 th</w>
A li
A gg
D rives</w>
F all
G rum
G annon</w>
H ali
H EL
H SBC</w>
I de
I AN</w>
J on
K on
K ro
K PMG</w>
L ef
L ei
L CS</w>
R OUN
S K
S ide</w>
S au
S ometimes</w>
T ic
T ak
U C</w>
W ide</w>
Z D
Z v
a wat
b b</w>
b out</w>
b ags</w>
b anner</w>
d n</w>
e ping</w>
f it
f eat</w>
p ounding</w>
p acking</w>
s mar
s nat
w rea
w oo</w>
in sec
in ations</w>
ea ger
re storing</w>
re lev
er on</w>
il o
is ys</w>
is olated</w>
el sen</w>
ch ains</w>
Th abo</w>
li ti
li able</w>
li van</w>
as es</w>
id1 45
si Co</w>
ha ir</w>
qu el</w>
In come</w>
em ma</w>
em ented</w>
Re b
ad mit</w>
ex ternal</w>
Ne tworking</w>
ation ists</w>
our g</w>
fin ishes</w>
ev acuation</w>
Mar t
Mar c</w>
bo dy
dis order</w>
pol is</w>
tri a</w>
announ cements</w>
fe ed</w>
fo rests</w>
Bu d</w>
Bu ick</w>
Qu its</w>
up ward</w>
No tt
boo ked</w>
plo y</w>
inv itation</w>
Gre e
Win ner</w>
no body</w>
buil der</w>
Mc Dow
stom ach</w>
tru ly</w>
har med</w>
Dem ocracy</w>
rev amped</w>
anti spam</w>
comple tion</w>
Dec la
ld ogs</w>
appro aching</w>
Tri ple</w>
My Doom</w>
Chi p
Na than</w>
Sil ver</w>
Ap pro
atten ding</w>
loc ate</w>
emb ourg</w>
sil ent</w>
ref use</w>
pay roll</w>
autom ated</w>
EM I</w>
Mag azine</w>
simp lify</w>
Broad casting</w>
rob i</w>
Inte ractive</w>
Bul ldogs</w>
Pin sent</w>
Exten sion</w>
FOR T</w>
Spec i
Mit chell</w>
villa ges</w>
BUR N</w>
expla ined</w>
Crea te</w>
barg ains</w>
cont am
trium ph
ona reva</w>
zen ship</w>
excl usi
Spar ks</w>
satis faction</w>
Health Day
haz ard</w>
house holds</w>
medic ines</w>
interc eption</w>
politic ally</w>
shrin king</w>
Thor pe</w>
McGra th</w>
Pep siCo</w>
Earthqu ake</w>
succe eded</w>
smart phone</w>
FOXBOR OUGH</w>
SOU TH</w>
Prac tice</w>
poo rest</w>
Shin awat
DIE GO</w>
remem bered</w>
NHL PA</w>
Nai robi</w>
Shev chenko</w>
Achil les</w>
Nebra ska</w>
Lux embourg</w>
Grum man</w>
Zv onareva</w>
eager ly</w>
HealthDay News</w>
3 D</w>
5 46</w>
5 73</w>
A venue</w>
A ires</w>
B ovina</w>
C em
C alled</w>
E cu
H er</w>
H ear</w>
I da
L ack</w>
M illen
O R</w>
P er</w>
P ap
S ong</w>
S EN
S abo
T ack
T ata</w>
V ia</w>
W GC</w>
c ous
d ome</w>
f an
f on
f umble</w>
g ru
h ed</w>
h ide
h oven</w>
k ni
l ery</w>
p et</w>
te ction</w>
te urs</w>
th igh</w>
re mov
re vered</w>
on ic</w>
on ium</w>
ti gli
ic ial</w>
ra tor</w>
ra tified</w>
ec ho
ec oming</w>
el ls</w>
ig nor
ch eered</w>
li ter
ne z</w>
com a</w>
In stant</w>
ta il</w>
su les</w>
ab les</w>
sp er
sp inning</w>
co inc
our self</w>
Mon ty</w>
dis mal</w>
dis eases</w>
min imum</w>
urs ing</w>
inc en
Inter im</w>
gra ss</w>
ess ential</w>
Jo int</w>
Ex porting</w>
loo se</w>
Al ert</w>
med alist</w>
ban e</w>
inter ference</w>
sen ator</w>
So ar</w>
up start</w>
bi ke</w>
app liance</w>
pri mar
Ad ministra
proc edure</w>
IS T
nam ents</w>
ep ic</w>
DA V
under ground</w>
pit chers</w>
pur portedly</w>
ob tain</w>
Pat s</w>
gener ator</w>
jum per</w>
confir mation</w>
suspen sions</w>
Kar achi</w>
Gar ci
AB ID
Mac in
Cl ears</w>
Green berg</w>
Wa it</w>
Ca use</w>
Christ op
Rog ge</w>
spac eship</w>
Rob bie</w>
them e</w>
Jam mu</w>
Motor sports</w>
Mur der</w>
Fre eze</w>
moun tain
hon ored</w>
Palm olive</w>
tran splant</w>
bol stered</w>
bru tal</w>
Sl ightly</w>
Develop er</w>
territ ories</w>
Dra w</w>
elimin ating</w>
recomm end</w>
GE OR
Clar a</w>
condem ns</w>
south west</w>
Hear ts</w>
Criti cs</w>
Plan es</w>
inspec tors</w>
JA H</w>
sle ep</w>
100 m</w>
emis phere</w>
Hand held</w>
Bat man</w>
deser ved</w>
desper ately</w>
fall out</w>
endor sed</w>
declar ing</w>
shu ts</w>
obj ections</w>
UA E</w>
Independ ent</w>
broadcas ter</w>
Moroc co</w>
But tigli
ratt led</w>
enthusi as
Bh ut
Sebas tien</w>
Mik hail</w>
izar re</w>
steel maker</w>
Microsof ts</w>
regist ration</w>
SG I</w>
Academ y</w>
Dough nuts</w>
explan ation</w>
Buen os</w>
Hali fax</w>
McDow ell</w>
Shinawat ra</w>
Ida ho</w>
ABID JAN</w>
Buttigli one</w>
5 16</w>
5 78</w>
5 42</w>
B hop
E ind
G on
G ur
G av
H are</w>
H AM</w>
J ake</w>
L N
L as
P ain
P ER
Q 4</w>
R C
R ite</w>
R enter
S olution</w>
U ps</w>
U PS</w>
V O
X i
Y as
b by</w>
b aller</w>
f end</w>
f lows</w>
g lob
h ee</w>
k ling</w>
t ators</w>
w et</w>
y os</w>
y outh</w>
in tact</w>
ea gle</w>
la i</w>
la tive</w>
re ve
re construction</w>
on ics</w>
ti fic
ou f</w>
ro ared</w>
ra ig</w>
un ting</w>
ri b</w>
ri k</w>
li kel
ne phew</w>
qu ad
res ti
ed o</w>
sh ee
con ditional</w>
ad ers</w>
su r</w>
rea son
Ch and
to ol
ee ling</w>
du g</w>
mo b</w>
ren tial</w>
Mon ster</w>
ann ers</w>
sur ges</w>
exp ires</w>
mer cen
Mar ino</w>
min i
An ast
row er</w>
ca m</w>
inc es</w>
De feats</w>
Con struction</w>
En ters</w>
shi fts</w>
Sp ad
Mo to
Mo bil
Su karnoputri</w>
Ex ports</w>
ang s</w>
mil k</w>
star ters</w>
pres sures</w>
inter views</w>
To olbar</w>
air plane</w>
Wh ether</w>
pos s
Pri est</w>
fa i
Fl ex
show er</w>
Ara bs</w>
conc ili
pri est</w>
Ad ap
Ad mits</w>
brea st</w>
Up sets</w>
Peop les
Sch al
99 0</w>
Fo re
pi pelines</w>
Fren chman</w>
inten sive</w>
Willi e</w>
Rec overy</w>
sla ying</w>
Pl anned</w>
Mer ri
ob lig
Pa c</w>
mea sured</w>
kid nap</w>
broad en</w>
gr ound
Hal t</w>
ick en
Cap sule</w>
reti res</w>
Im per
Gra ph
dist rac
wal ks</w>
Ow ners</w>
rush es</w>
hor izon</w>
LE D</w>
Dou g</w>
defin ed</w>
Gla us</w>
surpris es</w>
tack ling</w>
subscri ber</w>
Rem ain</w>
Direc tors</w>
Vis its</w>
exc eption</w>
nov el</w>
key note</w>
PR Newswire</w>
Pad raig</w>
testi fy</w>
Progra ms</w>
mel ting</w>
inspec tions</w>
Ul tra
Prov idence</w>
Bank rupt</w>
Proc essor</w>
satis fied</w>
Disc overy</w>
gad get</w>
band width</w>
Wid ens</w>
guaran teed</w>
Spac ecraft</w>
glit ches</w>
poc ket</w>
rati fication</w>
deep ly</w>
inti mid
alar m</w>
metho d</w>
Busin esses</w>
middle ware</w>
FALLU JAH</w>
contac ts</w>
Lloy ds</w>
entreprene ur</w>
Cost co</w>
ERT IS
Hospit ality</w>
Ug anda</w>
Stel co</w>
heral ded</w>
max imum</w>
epid emic</w>
Dak ota</w>
market place</w>
Next Wave</w>
now here</w>
Hein z</w>
Garci ap
Macin tosh</w>
Bhop al</w>
Eind hoven</w>
Renter ia</w>
Peoples oft</w>
5 39</w>
5 15</w>
5 25</w>
5 13</w>
5 32</w>
5 38</w>
5 48</w>
9 th</w>
C R</w>
D atabase</w>
E X
H S</w>
H ad</w>
H ER
K E</w>
K le
K end
K nee</w>
L ands</w>
M e</w>
M ig
M AT
M ach</w>
N ash
O bas
P ages</w>
P ick</w>
P LO</w>
R out</w>
S D
S mar
S ims</w>
S LAN</w>
T esti
T Ds</w>
U ru
V M
V C</w>
V EL
W r
W ang
Y us
a x</w>
a ren
b atch</w>
c ad
g les</w>
j er
k le</w>
o bile</w>
p lex</w>
s and</w>
t ness</w>
w ling</w>
z o</w>
in ched</w>
in ner</w>
te d
an is</w>
an jo</w>
re stored</w>
id ential</w>
ti les</w>
ra m</w>
is ation</w>
is tence</w>
ac le</w>
ac tor</w>
ch an</w>
un ite</w>
un happy</w>
un limited</w>
lo vers</w>
ne u
com mission
em bar
ad ju
di c</w>
di tionally</w>
le thal</w>
for gotten</w>
de bris</w>
bu mp
Ne te
Ne ver</w>
im ed</w>
im al</w>
mo tor</w>
tra ces</w>
ver t</w>
ul o</w>
and ro</w>
mer a</w>
str anded</w>
An n</w>
An sw
An nu
da h</w>
hel m</w>
inc redi
Con ten
sea ls</w>
En dang
lar d</w>
shi fting</w>
Su its</w>
tri m</w>
Bo t
ang led</w>
Al tria</w>
Min aya</w>
19 80</w>
AN NES
stri fe</w>
air waves</w>
out looks</w>
Qu it</w>
Qu ali
sha kes</w>
For ward</w>
pen nant</w>
16 th</w>
Ger ry</w>
sw ir
reta ined</w>
explo its</w>
tele vised</w>
Dem ands</w>
supp liers</w>
hear ts</w>
susp icious</w>
Sw im
appea ling</w>
tiv o</w>
Pl um
pur suing</w>
pe ers</w>
sem is</w>
IT unes</w>
Ac eh</w>
Hea ting</w>
BE SLAN</w>
Shi ft</w>
Pi erre</w>
Cam era</w>
Out sourcing</w>
pil lar</w>
Go al</w>
reli able</w>
Fun ai</w>
deta il</w>
wan ting</w>
canc els</w>
Explo sives</w>
telec ast</w>
sor ry</w>
pun ishment</w>
San Disk</w>
South eastern</w>
Die bold</w>
Prote sts</w>
pati ence</w>
PS 2</w>
prec ious</w>
gl ance</w>
Eas y</w>
bow ler</w>
compla ined</w>
bre wer</w>
consol es</w>
Pres eason</w>
Read er</w>
tum n</w>
repla ces</w>
Mass u</w>
Tom orrow</w>
Hi ma
arti ficial</w>
exc ess</w>
AV E</w>
AV ER
len ders</w>
short fall</w>
destro ying</w>
Pil ot</w>
alter natives</w>
tren ds</w>
south east</w>
nan ometer</w>
rum ors</w>
deplo ying</w>
neighb ors</w>
modi ties</w>
volun tary</w>
Consid ers</w>
band it</w>
Prosecu tor</w>
stock piles</w>
administra tors</w>
ARL INGTON</w>
Maj ority</w>
clus ter</w>
Cul pepper</w>
JOH ANNES
Dw ight</w>
Regi on</w>
complic ated</w>
prem ature</w>
dinosa ur</w>
Integra tion</w>
Kie v</w>
cigaret te</w>
diver ted</w>
choo sing</w>
Traff ic</w>
Osw alt</w>
Ton ight</w>
atol lah</w>
ADV ERTIS
Soft bank</w>
OE CD</w>
Valu able</w>
ZD Net</w>
Nott ingham</w>
Ecu ador</w>
Millen nium</w>
Christop her</w>
Anast asia</w>
Garciap arra</w>
Wang ari</w>
Endang ered</w>
JOHANNES BURG</w>
ADVERTIS EMENT</w>
5 11</w>
5 27</w>
5 35</w>
5 26</w>
5 31</w>
5 37</w>
5 41</w>
A B</w>
A bu
A ere</w>
A live</w>
B lin
B ris
C U</w>
C oper
D owner</w>
F ab
G Mail</w>
L ak
L akes</w>
M om
M ight</w>
M BA</w>
M ean
O re</w>
P O</w>
S as
S IN
T een</w>
V W</w>
Z em
b red</w>
b lan
b illing</w>
b litz</w>
c overs</w>
d ash</w>
h as
h efty</w>
k ingdom</w>
k owski</w>
m ingly</w>
s mann</w>
t off</w>
t ney</w>
t opping</w>
te aring</w>
th ouse</w>
th ieves</w>
or i</w>
or ian</w>
ar io</w>
al ism</w>
es c
is eum</w>
ig ent</w>
at titude</w>
op pose</w>
ov ich</w>
In spec
em bedded</w>
Re f
Re ed</w>
ta bility</w>
ad ul
ma iden</w>
for ay</w>
Ch e
comp at
im proves</w>
im pending</w>
se ve
lea ning</w>
rec order</w>
ver son</w>
ni er</w>
tor ic</w>
ten don</w>
mar tial</w>
bo ar
ho tly</w>
hea ts</w>
hea lth
Com eback</w>
tr on</w>
Sh ia</w>
enti als</w>
amp agne</w>
lead er
ali e</w>
tri pled</w>
tal ented</w>
bas ket</w>
fe ud</w>
sti r</w>
Ma ter
riv ing</w>
ber ing</w>
ju ven
poin ter</w>
inter pre
do se</w>
To ols</w>
leg es</w>
Op tim
Col iseum</w>
ach o</w>
Pri mera</w>
fl urry</w>
sol o</w>
sig naling</w>
Ste ady</w>
La ura</w>
fla wed</w>
AR E</w>
lob b
sm oo
sm ile</w>
Ad ri
cra shing</w>
sto l</w>
Di ps</w>
Un isys</w>
Mc Ga
Gu y</w>
AM P
Ab ra
pon ents</w>
Har t
clu tch</w>
Rec ent</w>
Cla rett</w>
gy mnast</w>
reg ained</w>
den ying</w>
broad casting</w>
mid day</w>
wat ches</w>
Am it</w>
inf o</w>
Bro m
suspen ds</w>
suff icient</w>
Update 5</w>
Val ue</w>
ring ers</w>
Tel ls</w>
High s</w>
chec ked</w>
Mor ning</w>
bene fited</w>
cy clist</w>
cele brity</w>
her o
discus sing</w>
mur dering</w>
clea ning</w>
Kee ping</w>
environ ments</w>
San jay</w>
Produc er</w>
Contin u
spea kers</w>
sear ches</w>
Analy st</w>
teen agers</w>
enjo ying</w>
liqu or</w>
Trans actions</w>
Threa ts</w>
Cambodi an</w>
fing er</w>
recogni ze</w>
particip ants</w>
Alex and
yi eld</w>
pione ering</w>
exce eded</w>
Ris ks</w>
institu tional</w>
Retail er</w>
narrow ed</w>
Fle et</w>
Fur cal</w>
Moham ed</w>
Floo d</w>
Kir k
dee pen
preven ted</w>
scram bled</w>
Rut gers</w>
Ox ford</w>
onz o</w>
sin ks</w>
Pop u
Candid ate</w>
Wolf sburg</w>
abe th</w>
subur ban</w>
pois oning</w>
Tas er</w>
bis hop</w>
Cov entry</w>
Sul livan</w>
Opti mism</w>
Centur y</w>
Militi a</w>
KAN SAS</w>
circ um
WOO D</w>
Kos ovo</w>
Bhut to</w>
Obas anjo</w>
Nete grity</w>
Annu al</w>
McGa hee</w>
3 M</w>
5 17</w>
5 18</w>
5 24</w>
5 28</w>
5 23</w>
5 33</w>
5 72</w>
5 77</w>
5 71</w>
5 44</w>
D ang
F it
F ail
G ill</w>
G row</w>
H ad
H IS</w>
I tar</w>
I GH
I verson</w>
K ids</w>
L op
N S</w>
R OS
S imp
S core</w>
T igh
V ulner
W ag
b ac
b lin</w>
f ab
f our
f ading</w>
g auge</w>
k shire</w>
n m</w>
n ate</w>
s ov
s ink</w>
t ter
t als</w>
u lator</w>
v ag
w ings</w>
y on</w>
th war
th ander</w>
la ying</w>
la vis
la sted</w>
re do</w>
re pay</w>
be lt</w>
be head</w>
er onau
ou ter</w>
ic y</w>
ic ian</w>
il er</w>
om a</w>
at ami</w>
ch ess</w>
un ear
un armed</w>
ir ut</w>
qu e
In nov
In doors</w>
em ed</w>
Re yn
ta tively</w>
ex ist</w>
por tivo</w>
de tection</w>
comp iled</w>
co d
co operate</w>
ing e</w>
pla in</w>
pla cing</w>
mo s</w>
id7 17
id2 27
id3 17
id4 37
id6 77
sec tors</w>
ni ans</w>
pl ut
pa lace</w>
sur passed</w>
Mar ty
dis counts</w>
dis engagement</w>
mis ery</w>
ff ed</w>
low een</w>
De portivo</w>
Con trac
enti n</w>
gra des</w>
Su SE</w>
IN E</w>
IN TC</w>
star tup</w>
19 91</w>
pres sion</w>
do d
do omed</w>
vo ices</w>
vo iced</w>
oper ated</w>
app reci
all or
Sa o</w>
Lin ked</w>
run off</w>
del ighted</w>
US E</w>
Pak ist
AL H</w>
sco re
bar a</w>
part ments</w>
Di ouf</w>
IS E</w>
mem o</w>
quarter final</w>
80 5</w>
80 4</w>
Or ig
Be irut</w>
Ge off</w>
recei vers</w>
hi bit</w>
adv ancing</w>
Si be
pur pose</w>
Gr ay</w>
sing led</w>
mat ching</w>
BE IR
gr illed</w>
Bel la
cop es</w>
cop per</w>
Am nesty</w>
Por ter</w>
Hal loween</w>
fur niture</w>
IL A</w>
Mid west</w>
tour naments</w>
Bri stol</w>
Ap p</w>
Ap ache</w>
main tains</w>
ys sey</w>
her oes</w>
cho ices</w>
Saf e</w>
Pen insula</w>
hor n</w>
hor ri
Pea ce
pun ish</w>
Bea gle</w>
IE TF</w>
inven ted</w>
Devel op</w>
stad t</w>
rig ged</w>
bun dle</w>
Dam age</w>
repea tedly</w>
Mun ch</w>
north western</w>
Contro versy</w>
fig er</w>
stun t</w>
Sup porters</w>
devast ation</w>
sugges tions</w>
Em battled</w>
gla ciers</w>
exam ined</w>
od d</w>
MAN ILA</w>
Roo m</w>
Yu g
MAR K</w>
ball park</w>
Fran con
Wat son</w>
administra tor</w>
Conn ect</w>
Kh atami</w>
leng th</w>
Emer gency</w>
Guill ermo</w>
scram jet</w>
accu rate</w>
squee ze</w>
squee zed</w>
vio late</w>
ramp ant</w>
Ay atollah</w>
Every one</w>
Earthqu akes</w>
Lic ense</w>
middle weight</w>
wrest ling</w>
Gir l</w>
hin ted</w>
Grea ter</w>
Driv ers</w>
Wan ted</w>
roof s</w>
chae ologists</w>
Sop hos</w>
appropri ate</w>
Buck ingham</w>
kilome ters</w>
Buddh ist</w>
Hil figer</w>
retrea ted</w>
deple ted</w>
Wolver ines</w>
Business Week</w>
Peru vian</w>
Bris bane</w>
Coper nic</w>
plut onium</w>
BEIR UT</w>
3 m</w>
5 14</w>
5 21</w>
5 34</w>
5 49</w>
5 47</w>
A lo
A RE
A CH
B our
B orders</w>
E ther
F ees</w>
G ot</w>
H iring</w>
L Y
L B</w>
L ama</w>
M uk
M MC</w>
P ull</w>
R s</w>
S hea
T old</w>
V az
Y ellow</w>
a z</w>
b lowing</w>
d out</w>
d ler</w>
e els</w>
f um
f lown</w>
g ovt</w>
l friend</w>
l lery</w>
m one</w>
p ses</w>
r c</w>
s field</w>
s rc</w>
w i</w>
w is
w ashed</w>
x boro</w>
z h
ea red</w>
la d
re open</w>
re house</w>
or ns</w>
en za</w>
al ities</w>
ic ator</w>
om es</w>
ig ni
ch ants</w>
ch rist</w>
us sion</w>
lo ver</w>
ne t
ne red</w>
sa d</w>
Re ject</w>
sh ouldn</w>
ad ic</w>
le field</w>
de ga</w>
sp ace
im g</w>
du ed</w>
du el</w>
rec t</w>
id7 27
id7 77
id2 17
id8 17
id8 27
id11 17
id11 37
id11 77
id6 17
id6 27
sec ondary</w>
ke en</w>
Mon itor</w>
ve to</w>
pu bs</w>
St al
sur faced</w>
ste ering</w>
ris ky</w>
mer gers</w>
dis appeared</w>
lar e</w>
ak i</w>
Ar thur</w>
prov en</w>
med ley</w>
out ages</w>
bea ches</w>
Br and</w>
sha ken</w>
For m</w>
et ty</w>
Car ling</w>
fa ulty</w>
Ph on
bro ok</w>
dra g</w>
Lin e
Lin da</w>
Fl ying</w>
As sets</w>
gg les</w>
no ted</w>
indu stri
pri x</w>
Fi x</w>
Fi red</w>
Hol tz</w>
bar ak</w>
Gen er
Di ana</w>
Fin ding</w>
ay ev</w>
proc edu
NAS D</w>
Bra in</w>
Wi Fi</w>
Bag le</w>
bor g</w>
presid ents</w>
pi vo
Per haps</w>
Brit ains</w>
regu late</w>
bla mes</w>
ep ts</w>
New man</w>
CE MBER</w>
jur ors</w>
Des ert</w>
fra mework</w>
pass age</w>
din ner</w>
sla shing</w>
sla ught</w>
down grade</w>
ob ject</w>
CO M
mea suring</w>
ome tric</w>
concer ning</w>
forec asters</w>
Def ensive</w>
trea tments</w>
Shi p</w>
Pi pp
respon ding</w>
Franc o</w>
Kar l</w>
Upda tes</w>
IR O
Out side</w>
Ni elsen</w>
ID F</w>
any more</w>
Ric o</w>
Mu barak</w>
sy mbol</w>
lap se</w>
Te xt</w>
bl n</w>
Dou g
North western</w>
Prote ct</w>
Devel oping</w>
Colom bo</w>
Over time</w>
top ics</w>
Sem i
bun ch</w>
work stations</w>
eth ics</w>
Cal pers</w>
DE CEMBER</w>
Ev ans</w>
spea ker</w>
With draw
arti llery</w>
mic ro</w>
zer o</w>
Cro ssing</w>
cons istent</w>
break away</w>
contribu te</w>
met als</w>
abduc tion</w>
Bet tman</w>
conserv ation</w>
Mah al</w>
NA IRO
ny der</w>
Ah mad</w>
Sand ers</w>
Ka h
acceler ated</w>
Av aila
sug ar</w>
Jeff erson</w>
restric ted</w>
photograph er</w>
charac ter</w>
Tow er</w>
Ki wis</w>
attrac tive</w>
swi ft</w>
Rou ge</w>
glit ch</w>
api ece</w>
Som ali</w>
Astronau ts</w>
tol er
itz ki</w>
delibe rately</w>
apologi zed</w>
Publ isher</w>
mete or</w>
kick off</w>
instal lation</w>
Now itzki</w>
rail way</w>
entr ance</w>
heigh tened</w>
list ings</w>
CLE VEL
fren zy</w>
plum me
GS M</w>
Talla dega</w>
PAL M</w>
JP Morgan</w>
dismis sal</w>
liti gation</w>
Cem ex</w>
primar ily</w>
Administra tor</w>
Spad ea</w>
Graph ics</w>
Uru gu
Hima layan</w>
seve rely</w>
CLEVEL AND</w>
5 th</w>
5 74</w>
A H
C D
C atch</w>
D L</w>
D id</w>
F ing
F ly
K S</w>
K ra
L es
L ion</w>
M iz
M oody</w>
O lus
P oul
S ide
S part
S ense</w>
S lows</w>
S UN
S kins</w>
T 5</w>
T ie</w>
U sed</w>
W BC</w>
b izarre</w>
c ric
c ry</w>
c ally</w>
e gun</w>
f ish
f righ
i juana</w>
m One</w>
m anner</w>
p ling</w>
s ville</w>
t ags</w>
x ist</w>
y field</w>
z oo</w>
in jures</w>
la ugh
re wards</w>
re join</w>
id al</w>
be n</w>
be half</w>
st ack</w>
om ar</w>
ter pillar</w>
ac es</w>
ch ew
un disputed</w>
lo sers</w>
as ted</w>
as co</w>
id1 77
op posite</w>
si es</w>
In clu
res sion</w>
em ar
Re id</w>
wh eel</w>
ma ine</w>
sp ying</w>
Ne il</w>
pla cement</w>
rec k
off ences</w>
id9 27
id9 77
ul ties</w>
id2 37
id3 27
id8 37
id8 77
id4 17
id4 77
id6 37
rou j</w>
pa d</w>
pa iring</w>
id10 17
id10 77
um a</w>
mar ijuana</w>
Mar xist</w>
dis ast
dis appear</w>
cu rement</w>
av ian</w>
hel ds</w>
Com mon
Com men
Af ter
Pro mp
Mo ja
IN A</w>
Min n</w>
Ro b</w>
air liners</w>
out post</w>
bea uty</w>
Qu ick</w>
ut tering</w>
Li qu
bi ology</w>
Car ly</w>
Car mel
Po ised</w>
Ph illy</w>
bur ial</w>
La os</w>
Ger mans</w>
tt i</w>
law ed</w>
we ed</w>
hom eless</w>
hom ecoming</w>
inte ractive</w>
Tra vis</w>
Gi ving</w>
Bar nes</w>
Wi fe</w>
Yan g</w>
Fo ssil</w>
prob ing</w>
War ren</w>
succ ession</w>
IC AN</w>
New ton</w>
twor th</w>
Willi am
Pow ers</w>
exten sive</w>
hi res</w>
Compu ware</w>
sla pped</w>
ner ve</w>
pe g</w>
consid eration</w>
mat ters</w>
TH E
Play offs</w>
Shi ps</w>
pul sion</w>
Nig er</w>
trans mission</w>
IR E</w>
Rad io
TE L</w>
doub tful</w>
Bur ns</w>
some what</w>
Sam uel</w>
Pan ath
Ca terpillar</w>
tric ks</w>
Law yer</w>
scri pt</w>
wel fare</w>
tar s</w>
tar ily</w>
crac ks</w>
San tos</w>
Loc u
Kid de</w>
Mov ement</w>
moun tains</w>
sn aps</w>
atab ases</w>
SM B</w>
SM Bs</w>
Ev olution</w>
mus ical</w>
Brea k
Gam ble</w>
influ enza</w>
diffic ulties</w>
aliz es</w>
Hi res</w>
favor able</w>
elimin ation</w>
Clim bs</w>
conver ted</w>
Gil christ</w>
Lim a</w>
It alians</w>
les son</w>
revi ved</w>
expla ins</w>
let ters</w>
Equ ity</w>
enab ling</w>
cell phones</w>
chur ches</w>
gro cery</w>
hang s</w>
Libe ria</w>
youn g
charac ters</w>
Survi vors</w>
pal mOne</w>
Guer rouj</w>
enem ies</w>
Bak ar</w>
radi ation</w>
Negoti ations</w>
subpo ena</w>
CAN AVER
ama teur</w>
Scre en</w>
Wen tworth</w>
ancest or</w>
Meg son</w>
jol ted</w>
Alban ian</w>
meg apixel</w>
autonom y</w>
Croati a</w>
Kost as</w>
Rosen borg</w>
Icel and</w>
Vinc ent</w>
reluc tant</w>
Lie ber</w>
locu sts</w>
time table</w>
Quin n</w>
sever ance</w>
fashi oned</w>
incur sion</w>
brilli ant</w>
child hood</w>
Mart nez</w>
likel ihood</w>
Moto GP</w>
Schal ke</w>
Mean while</w>
esc u</w>
leader board</w>
Mater ials</w>
unear thed</w>
Reyn olds</w>
Francon a</w>
Vaz quez</w>
Pipp en</w>
NAIRO BI</w>
Olus egun</w>
disast rous</w>
Moja ve</w>
Carmel o</w>
5 45</w>
A lar
B B
B rom</w>
B ren
D id
D og
E PA</w>
F ig
G L
G 20</w>
G PS</w>
J et
J AVE</w>
K line</w>
K hal
M allor
P ounds</w>
R B
S on</w>
S ON
S mu
T ight</w>
T win
U ph
U Conn</w>
V P
V ision</w>
W y
W A</w>
W ally</w>
a ter</w>
a ked</w>
b lower</w>
c it
e tra
e ggs</w>
h ide</w>
h ills</w>
i ph
j ack
k son</w>
l oud</w>
m illionaire</w>
n ished</w>
o v</w>
p ens</w>
p iled</w>
p ron
t unes</w>
v acc
w ick</w>
y ourself</w>
z in</w>
z abeth</w>
in b
in ks</w>
la tter</w>
re match</w>
re viewing</w>
ar ma</w>
head ache</w>
it ability</w>
ro e</w>
al le
il ey</w>
Th ings</w>
un authorized</w>
ri tes</w>
us en</w>
id1 27
qu itting</w>
em bled</w>
Re g</w>
Re illy</w>
sh rimp</w>
con tains</w>
ad jus
su rer</w>
ap y</w>
di am
ma keover</w>
de pos
de portation</w>
ing Point</w>
wor rying</w>
id9 17
id7 37
id3 37
id3 77
id4 27
ni al</w>
ke ter</w>
id10 37
tur bul
pp le</w>
ph e</w>
St one</w>
exp ressing</w>
mon ed</w>
Mar dy</w>
dis asters</w>
Au th
fu eling</w>
og le</w>
Sh am
pol itan</w>
De fin
sea son
En voy</w>
ass igned</w>
ak a</w>
Ar rives</w>
pre fer</w>
Sta kes</w>
war rant</w>
Bo dies</w>
Al lies</w>
Al onzo</w>
prov inces</w>
def ra
19 18</w>
inter rup
Res ort</w>
produc es</w>
sha king</w>
sha dows</w>
fa rewell</w>
manag erial</w>
Ste vens</w>
As set</w>
no d</w>
dol phins</w>
Bla de
me rely</w>
tic ore</w>
we ights</w>
Tw icken
AL IA</w>
Hol e</w>
Gen e
Di g</w>
reta iling</w>
EN A</w>
Un likely</w>
Afric ans</w>
bla ck
New ly</w>
mul ls</w>
Lon g
blo gging</w>
Pl edges</w>
pur poses</w>
reg ret</w>
na il</w>
Ver a</w>
mid way</w>
polic y
Pat rol</w>
Hou se
men tally</w>
Pi one
quali fication</w>
Mas ter</w>
wid ens</w>
Hu b</w>
Sur ges</w>
fav ored</w>
bal anced</w>
Ric ardo</w>
rol lout</w>
inst alling</w>
fron ts</w>
Sam my</w>
indic ators</w>
Du rable</w>
Du blin</w>
uti ful</w>
Hun ter</w>
imp asse</w>
discus ses</w>
celebra tions</w>
Ben nett</w>
vol umes</w>
cro ft</w>
Gla s
popu lations</w>
scra mbling</w>
critic ised</w>
top pled</w>
bow ling</w>
descri bes</w>
answ ered</w>
Ev il</w>
Stu art</w>
Batt les</w>
north west</w>
jud icial</w>
Hor se</w>
stead ily</w>
SH IP</w>
shel ters</w>
contribu tion</w>
contribu tions</w>
Gil ber
expl oring</w>
Bet tis</w>
cul tural</w>
resum es</w>
fire works</w>
conclu de</w>
Conf ident</w>
weigh s</w>
Eli zabeth</w>
MO JAVE</w>
Prob lem</w>
Priv acy</w>
Hav ana</w>
acceler ating</w>
vac ation</w>
nav y</w>
Ji had</w>
volun tarily</w>
Ran king</w>
Rich mond</w>
custo m</w>
Juli us</w>
ED T</w>
legi timate</w>
ema ils</w>
Rober ts</w>
embr yos</w>
WH O</w>
Wit ness</w>
Independ ence</w>
ENG LAND</w>
FALLU JA</w>
motor cycle</w>
FD I</w>
MIL AN</w>
Fili p
anonym ous</w>
cos me
Of com</w>
HAV ANA</w>
demol ition</w>
libe ral</w>
nutri tion</w>
reaf firmed</w>
design ated</w>
technolog ical</w>
drug maker</w>
SR IN
Somal ia</w>
phenom en
ThinkP ad</w>
Reb ounds</w>
Brom wich</w>
Panath in
CANAVER AL</w>
Twicken ham</w>
4 00
8 th</w>
A hold</w>
C losing</w>
D U</w>
D ent</w>
D raft</w>
E T
E K</w>
E missions</w>
G ear</w>
G ore</w>
G ON
K iller</w>
M H
M I</w>
O P
P rint</w>
R oll</w>
S ure</w>
V u
V ati
W R
W ard</w>
Y um</w>
Y emen
Z e
d ire</w>
d atabases</w>
f ray</w>
g ones</w>
h ate</w>
l ung</w>
n ical</w>
n ick</w>
p id</w>
s tering</w>
t less</w>
t asks</w>
x er</w>
in ated</w>
in formal</w>
te acher</w>
th es
an n</w>
la m
la tely</w>
re tri
re leg
or g</w>
lin eman</w>
on slaught</w>
en te</w>
en der</w>
ti se</w>
ti ous</w>
ar agu
ar mored</w>
ro v</w>
ro aming</w>
st ag
st all</w>
al ise</w>
al uminum</w>
ra iny</w>
ec tors</w>
el ey</w>
ch ancellor</w>
lo cks</w>
ag o
ag ar</w>
id1 37
op tic</w>
sa il
com missions</w>
pro posing</w>
In c
In jures</w>
res ulting</w>
Re bound</w>
ta kers</w>
sh at
con sp
con struc
wh is
di est</w>
ab dic
bu bble</w>
lea n</w>
rec eption</w>
tra p</w>
tra ction</w>
id5 17
id5 27
id5 37
id5 77
id11 27
pl er</w>
ten tly</w>
ten tatively</w>
id10 27
over turned</w>
fi ery</w>
resid ence</w>
bo gus</w>
dis til
min is
cu lar</w>
pea c
ca tel</w>
Com mons</w>
Su ff
pre g
war ms</w>
Al ong</w>
Al catel</w>
IN TER
Min nea
cap turing</w>
Col eman</w>
sel lers</w>
bi ter</w>
Po p</w>
RE D
car ded</w>
der ailed</w>
inv ade</w>
App lied</w>
show case</w>
spec tive</w>
me tre</w>
AR SEN
sto ked</w>
sl ice</w>
Di vid
tou ting</w>
consu late</w>
Bar ber</w>
Shar k</w>
Fal ling</w>
fam ed</w>
Ang ry</w>
ep tive</w>
Flor id
hun g</w>
employ er</w>
reg rets</w>
Pe res</w>
trea ting</w>
pic ally</w>
IL E</w>
Bro ok
Bom bers</w>
AD A</w>
Roc co</w>
My stics</w>
manufac tured</w>
domin ation</w>
Cel ls</w>
ring ing</w>
Fed erated</w>
Im ports</w>
organiz ing</w>
Hen rik</w>
Da lai</w>
Sm aller</w>
nes sed</w>
Ter ps</w>
mb les</w>
versi fied</w>
Laun ched</w>
Stor ms</w>
speci ally</w>
pas sion</w>
AK A</w>
infla ted</w>
requ ests</w>
multi million</w>
spe eding</w>
wit nessed</w>
every body</w>
Jer maine</w>
Fe b</w>
adverti sements</w>
Vic tor
Ba by</w>
decla res</w>
Prote c
[...]
